{
  "version": "1.0",
  "truncation": null,
  "padding": null,
  "added_tokens": [
    {
      "id": 0,
      "content": "<s>",
      "single_word": false,
      "lstrip": false,
      "rstrip": false,
      "normalized": false,
      "special": true
    },
    {
      "id": 1,
      "content": "<pad>",
      "single_word": false,
      "lstrip": false,
      "rstrip": false,
      "normalized": false,
      "special": true
    },
    {
      "id": 2,
      "content": "</s>",
      "single_word": false,
      "lstrip": false,
      "rstrip": false,
      "normalized": false,
      "special": true
    },
    {
      "id": 3,
      "content": "<unk>",
      "single_word": false,
      "lstrip": false,
      "rstrip": false,
      "normalized": false,
      "special": true
    },
    {
      "id": 4,
      "content": "<mask>",
      "single_word": false,
      "lstrip": false,
      "rstrip": false,
      "normalized": false,
      "special": true
    }
  ],
  "normalizer": {
    "type": "Sequence",
    "normalizers": [
      {
        "type": "NFD"
      },
      {
        "type": "StripAccents"
      },
      {
        "type": "Replace",
        "pattern": {
          "Regex": "[\\s]+"
        },
        "content": " "
      }
    ]
  },
  "pre_tokenizer": {
    "type": "Whitespace"
  },
  "post_processor": null,
  "decoder": null,
  "model": {
    "type": "BPE",
    "dropout": null,
    "unk_token": null,
    "continuing_subword_prefix": null,
    "end_of_word_suffix": null,
    "fuse_unk": false,
    "byte_fallback": false,
    "ignore_merges": false,
    "vocab": {
      "<s>": 0,
      "<pad>": 1,
      "</s>": 2,
      "<unk>": 3,
      "<mask>": 4,
      "\u0000": 5,
      "\u0001": 6,
      "\u0002": 7,
      "\u0003": 8,
      "\u0004": 9,
      "\u0005": 10,
      "\u0006": 11,
      "\u0007": 12,
      "\b": 13,
      "\u0017": 14,
      "\u0018": 15,
      "\u0019": 16,
      "\u001a": 17,
      "\u001b": 18,
      "\u001c": 19,
      "\u001d": 20,
      "\u001f": 21,
      "!": 22,
      "\"": 23,
      "#": 24,
      "$": 25,
      "%": 26,
      "&": 27,
      "'": 28,
      "(": 29,
      ")": 30,
      "*": 31,
      "+": 32,
      ",": 33,
      "-": 34,
      ".": 35,
      "/": 36,
      "0": 37,
      "1": 38,
      "2": 39,
      "3": 40,
      "4": 41,
      "5": 42,
      "6": 43,
      "7": 44,
      "8": 45,
      "9": 46,
      ":": 47,
      ";": 48,
      "<": 49,
      "=": 50,
      ">": 51,
      "?": 52,
      "@": 53,
      "A": 54,
      "B": 55,
      "C": 56,
      "D": 57,
      "E": 58,
      "F": 59,
      "G": 60,
      "H": 61,
      "I": 62,
      "J": 63,
      "K": 64,
      "L": 65,
      "M": 66,
      "N": 67,
      "O": 68,
      "P": 69,
      "Q": 70,
      "R": 71,
      "S": 72,
      "T": 73,
      "U": 74,
      "V": 75,
      "W": 76,
      "X": 77,
      "Y": 78,
      "Z": 79,
      "[": 80,
      "\\": 81,
      "]": 82,
      "^": 83,
      "_": 84,
      "`": 85,
      "a": 86,
      "b": 87,
      "c": 88,
      "d": 89,
      "e": 90,
      "f": 91,
      "g": 92,
      "h": 93,
      "i": 94,
      "j": 95,
      "k": 96,
      "l": 97,
      "m": 98,
      "n": 99,
      "o": 100,
      "p": 101,
      "q": 102,
      "r": 103,
      "s": 104,
      "t": 105,
      "u": 106,
      "v": 107,
      "w": 108,
      "x": 109,
      "y": 110,
      "z": 111,
      "{": 112,
      "|": 113,
      "}": 114,
      "~": 115,
      "": 116,
      "": 117,
      "": 118,
      "": 119,
      "": 120,
      "": 121,
      "": 122,
      "": 123,
      "": 124,
      "": 125,
      "": 126,
      "": 127,
      "": 128,
      "": 129,
      "": 130,
      "": 131,
      "": 132,
      "": 133,
      "": 134,
      "": 135,
      "": 136,
      "": 137,
      "": 138,
      "": 139,
      "": 140,
      "": 141,
      "": 142,
      "": 143,
      "": 144,
      "": 145,
      "": 146,
      "": 147,
      "¡": 148,
      "¢": 149,
      "£": 150,
      "¤": 151,
      "¥": 152,
      "¦": 153,
      "§": 154,
      "¨": 155,
      "©": 156,
      "ª": 157,
      "«": 158,
      "¬": 159,
      "­": 160,
      "®": 161,
      "¯": 162,
      "°": 163,
      "±": 164,
      "²": 165,
      "³": 166,
      "´": 167,
      "µ": 168,
      "¶": 169,
      "·": 170,
      "¸": 171,
      "¹": 172,
      "º": 173,
      "»": 174,
      "¼": 175,
      "½": 176,
      "¾": 177,
      "¿": 178,
      "Æ": 179,
      "Ð": 180,
      "×": 181,
      "Ø": 182,
      "Þ": 183,
      "ß": 184,
      "æ": 185,
      "ð": 186,
      "÷": 187,
      "ø": 188,
      "þ": 189,
      "Đ": 190,
      "đ": 191,
      "Ħ": 192,
      "ħ": 193,
      "ı": 194,
      "Ĳ": 195,
      "ĳ": 196,
      "ĸ": 197,
      "Ŀ": 198,
      "ŀ": 199,
      "Ł": 200,
      "ł": 201,
      "ŋ": 202,
      "Œ": 203,
      "œ": 204,
      "ŧ": 205,
      "ſ": 206,
      "ƈ": 207,
      "Ə": 208,
      "Ɛ": 209,
      "ƒ": 210,
      "ƙ": 211,
      "ƣ": 212,
      "Ƥ": 213,
      "ƥ": 214,
      "Ʃ": 215,
      "ƪ": 216,
      "Ƭ": 217,
      "ƭ": 218,
      "Ʈ": 219,
      "Ʊ": 220,
      "Ʋ": 221,
      "Ƴ": 222,
      "ƴ": 223,
      "Ƶ": 224,
      "ƶ": 225,
      "Ʒ": 226,
      "Ƹ": 227,
      "ƹ": 228,
      "ƺ": 229,
      "ƻ": 230,
      "Ƽ": 231,
      "ƽ": 232,
      "ƾ": 233,
      "ƿ": 234,
      "ǁ": 235,
      "ǂ": 236,
      "ǃ": 237,
      "ǝ": 238,
      "Ǳ": 239,
      "ǲ": 240,
      "Ƕ": 241,
      "Ƿ": 242,
      "Ȝ": 243,
      "ȝ": 244,
      "ȡ": 245,
      "Ȥ": 246,
      "ȥ": 247,
      "ȴ": 248,
      "ȵ": 249,
      "ȶ": 250,
      "ȷ": 251,
      "ȸ": 252,
      "ȹ": 253,
      "Ⱥ": 254,
      "Ȼ": 255,
      "ȼ": 256,
      "Ƚ": 257,
      "Ⱦ": 258,
      "ȿ": 259,
      "Ɂ": 260,
      "ɂ": 261,
      "ɇ": 262,
      "ɋ": 263,
      "ɐ": 264,
      "ɑ": 265,
      "ɒ": 266,
      "ɓ": 267,
      "ɔ": 268,
      "ɕ": 269,
      "ɖ": 270,
      "ɗ": 271,
      "ɘ": 272,
      "ə": 273,
      "ɚ": 274,
      "ɛ": 275,
      "ɜ": 276,
      "ɝ": 277,
      "ɞ": 278,
      "ɟ": 279,
      "ɡ": 280,
      "ɢ": 281,
      "ɣ": 282,
      "ɤ": 283,
      "ɥ": 284,
      "ɦ": 285,
      "ɧ": 286,
      "ɨ": 287,
      "ɪ": 288,
      "ɫ": 289,
      "ɬ": 290,
      "ɭ": 291,
      "ɮ": 292,
      "ɯ": 293,
      "ɰ": 294,
      "ɱ": 295,
      "ɲ": 296,
      "ɳ": 297,
      "ɴ": 298,
      "ɵ": 299,
      "ɶ": 300,
      "ɷ": 301,
      "ɸ": 302,
      "ɹ": 303,
      "ɺ": 304,
      "ɻ": 305,
      "ɼ": 306,
      "ɽ": 307,
      "ɾ": 308,
      "ɿ": 309,
      "ʀ": 310,
      "ʁ": 311,
      "ʂ": 312,
      "ʃ": 313,
      "ʇ": 314,
      "ʈ": 315,
      "ʉ": 316,
      "ʊ": 317,
      "ʋ": 318,
      "ʌ": 319,
      "ʍ": 320,
      "ʎ": 321,
      "ʏ": 322,
      "ʐ": 323,
      "ʑ": 324,
      "ʒ": 325,
      "ʔ": 326,
      "ʕ": 327,
      "ʖ": 328,
      "ʘ": 329,
      "ʙ": 330,
      "ʛ": 331,
      "ʜ": 332,
      "ʝ": 333,
      "ʟ": 334,
      "ʠ": 335,
      "ʡ": 336,
      "ʢ": 337,
      "ʤ": 338,
      "ʥ": 339,
      "ʦ": 340,
      "ʧ": 341,
      "ʫ": 342,
      "ʮ": 343,
      "ʯ": 344,
      "ʰ": 345,
      "ʱ": 346,
      "ʲ": 347,
      "ʳ": 348,
      "ʴ": 349,
      "ʵ": 350,
      "ʶ": 351,
      "ʷ": 352,
      "ʸ": 353,
      "ʹ": 354,
      "ʺ": 355,
      "ʻ": 356,
      "ʼ": 357,
      "ʽ": 358,
      "ʾ": 359,
      "ʿ": 360,
      "ˀ": 361,
      "ˁ": 362,
      "˂": 363,
      "˃": 364,
      "ˆ": 365,
      "ˇ": 366,
      "ˈ": 367,
      "ˉ": 368,
      "ˌ": 369,
      "ː": 370,
      "ˑ": 371,
      "˔": 372,
      "˘": 373,
      "˙": 374,
      "˚": 375,
      "˛": 376,
      "˜": 377,
      "˝": 378,
      "ˡ": 379,
      "ˢ": 380,
      "ˤ": 381,
      "˥": 382,
      "˦": 383,
      "˧": 384,
      "˩": 385,
      "˪": 386,
      "˫": 387,
      "ˬ": 388,
      "˭": 389,
      "ˮ": 390,
      "˯": 391,
      "˰": 392,
      "˱": 393,
      "˲": 394,
      "˳": 395,
      "˴": 396,
      "˵": 397,
      "˶": 398,
      "˷": 399,
      "˸": 400,
      "˹": 401,
      "˺": 402,
      "˻": 403,
      "˼": 404,
      "˽": 405,
      "˾": 406,
      "˿": 407,
      "Ͱ": 408,
      "ͱ": 409,
      "Ͳ": 410,
      "ͳ": 411,
      "͵": 412,
      "Ͷ": 413,
      "ͷ": 414,
      "͸": 415,
      "͹": 416,
      "ͺ": 417,
      "ͻ": 418,
      "ͼ": 419,
      "ͽ": 420,
      "Ϳ": 421,
      "΄": 422,
      "Α": 423,
      "Β": 424,
      "Γ": 425,
      "Δ": 426,
      "Ε": 427,
      "Ζ": 428,
      "Η": 429,
      "Θ": 430,
      "Ι": 431,
      "Κ": 432,
      "Λ": 433,
      "Μ": 434,
      "Ν": 435,
      "Ξ": 436,
      "Ο": 437,
      "Π": 438,
      "Ρ": 439,
      "΢": 440,
      "Σ": 441,
      "Τ": 442,
      "Υ": 443,
      "Φ": 444,
      "Χ": 445,
      "Ψ": 446,
      "Ω": 447,
      "α": 448,
      "β": 449,
      "γ": 450,
      "δ": 451,
      "ε": 452,
      "ζ": 453,
      "η": 454,
      "θ": 455,
      "ι": 456,
      "κ": 457,
      "λ": 458,
      "μ": 459,
      "ν": 460,
      "ξ": 461,
      "ο": 462,
      "π": 463,
      "ρ": 464,
      "ς": 465,
      "σ": 466,
      "τ": 467,
      "υ": 468,
      "φ": 469,
      "χ": 470,
      "ψ": 471,
      "ω": 472,
      "ϕ": 473,
      "ϡ": 474,
      "Ϣ": 475,
      "ϣ": 476,
      "Ϧ": 477,
      "Ϫ": 478,
      "Ϯ": 479,
      "ϰ": 480,
      "ϱ": 481,
      "ϲ": 482,
      "ϳ": 483,
      "ϴ": 484,
      "ϵ": 485,
      "϶": 486,
      "Ϸ": 487,
      "ϸ": 488,
      "Ϲ": 489,
      "Ϻ": 490,
      "ϻ": 491,
      "ϼ": 492,
      "Ͻ": 493,
      "Ͼ": 494,
      "Ͽ": 495,
      "Ђ": 496,
      "Є": 497,
      "І": 498,
      "Ј": 499,
      "Љ": 500,
      "А": 501,
      "Б": 502,
      "В": 503,
      "Г": 504,
      "Д": 505,
      "Е": 506,
      "Ж": 507,
      "З": 508,
      "И": 509,
      "К": 510,
      "Л": 511,
      "М": 512,
      "Н": 513,
      "О": 514,
      "П": 515,
      "Р": 516,
      "С": 517,
      "Т": 518,
      "У": 519,
      "Ф": 520,
      "Х": 521,
      "Ц": 522,
      "Ч": 523,
      "Ш": 524,
      "Щ": 525,
      "Ъ": 526,
      "Ы": 527,
      "Ь": 528,
      "Э": 529,
      "Ю": 530,
      "Я": 531,
      "а": 532,
      "б": 533,
      "в": 534,
      "г": 535,
      "д": 536,
      "е": 537,
      "ж": 538,
      "з": 539,
      "и": 540,
      "к": 541,
      "л": 542,
      "м": 543,
      "н": 544,
      "о": 545,
      "п": 546,
      "р": 547,
      "с": 548,
      "т": 549,
      "у": 550,
      "ф": 551,
      "х": 552,
      "ц": 553,
      "ч": 554,
      "ш": 555,
      "щ": 556,
      "ъ": 557,
      "ы": 558,
      "ь": 559,
      "э": 560,
      "ю": 561,
      "я": 562,
      "ђ": 563,
      "є": 564,
      "ѕ": 565,
      "і": 566,
      "ј": 567,
      "љ": 568,
      "њ": 569,
      "ћ": 570,
      "џ": 571,
      "ѡ": 572,
      "ѧ": 573,
      "ѩ": 574,
      "Ѫ": 575,
      "ѭ": 576,
      "ѯ": 577,
      "Ѱ": 578,
      "ѱ": 579,
      "Ѳ": 580,
      "ѳ": 581,
      "Ѵ": 582,
      "ѵ": 583,
      "Ѹ": 584,
      "ѹ": 585,
      "Ѻ": 586,
      "ѻ": 587,
      "Ѽ": 588,
      "ѽ": 589,
      "Ѿ": 590,
      "ѿ": 591,
      "ґ": 592,
      "ғ": 593,
      "ҕ": 594,
      "Қ": 595,
      "қ": 596,
      "ҡ": 597,
      "ң": 598,
      "Ҧ": 599,
      "ҧ": 600,
      "ҩ": 601,
      "Ҫ": 602,
      "ҫ": 603,
      "ү": 604,
      "Ұ": 605,
      "ұ": 606,
      "Ҳ": 607,
      "ҳ": 608,
      "Ҵ": 609,
      "ҵ": 610,
      "Ҷ": 611,
      "ҷ": 612,
      "Ҹ": 613,
      "ҹ": 614,
      "Һ": 615,
      "һ": 616,
      "Ҽ": 617,
      "ҽ": 618,
      "Ҿ": 619,
      "ҿ": 620,
      "Ӏ": 621,
      "ӕ": 622,
      "ә": 623,
      "ӡ": 624,
      "Ө": 625,
      "ө": 626,
      "Ӷ": 627,
      "Ӻ": 628,
      "ӻ": 629,
      "Ӽ": 630,
      "ӽ": 631,
      "Ӿ": 632,
      "ӿ": 633,
      "ԃ": 634,
      "ԓ": 635,
      "ԡ": 636,
      "Ԣ": 637,
      "Ԥ": 638,
      "ԩ": 639,
      "Ԫ": 640,
      "ԭ": 641,
      "԰": 642,
      "Ա": 643,
      "Բ": 644,
      "Գ": 645,
      "Դ": 646,
      "Ե": 647,
      "Զ": 648,
      "Է": 649,
      "Ը": 650,
      "Թ": 651,
      "Ժ": 652,
      "Ի": 653,
      "Լ": 654,
      "Խ": 655,
      "Ծ": 656,
      "Կ": 657,
      "Հ": 658,
      "Ձ": 659,
      "Ղ": 660,
      "Մ": 661,
      "Յ": 662,
      "Ն": 663,
      "Շ": 664,
      "Ո": 665,
      "Պ": 666,
      "Ս": 667,
      "Վ": 668,
      "Տ": 669,
      "Ր": 670,
      "Ց": 671,
      "Ւ": 672,
      "Փ": 673,
      "ա": 674,
      "բ": 675,
      "գ": 676,
      "դ": 677,
      "ե": 678,
      "զ": 679,
      "է": 680,
      "ը": 681,
      "թ": 682,
      "ի": 683,
      "լ": 684,
      "խ": 685,
      "ծ": 686,
      "կ": 687,
      "հ": 688,
      "ձ": 689,
      "ղ": 690,
      "ճ": 691,
      "մ": 692,
      "յ": 693,
      "ն": 694,
      "շ": 695,
      "ո": 696,
      "չ": 697,
      "պ": 698,
      "ջ": 699,
      "ռ": 700,
      "ս": 701,
      "վ": 702,
      "տ": 703,
      "ր": 704,
      "ց": 705,
      "ւ": 706,
      "ք": 707,
      "օ": 708,
      "և": 709,
      "։": 710,
      "־": 711,
      "׀": 712,
      "׃": 713,
      "א": 714,
      "ב": 715,
      "ג": 716,
      "ד": 717,
      "ה": 718,
      "ו": 719,
      "ז": 720,
      "ח": 721,
      "ט": 722,
      "י": 723,
      "ך": 724,
      "כ": 725,
      "ל": 726,
      "ם": 727,
      "מ": 728,
      "ן": 729,
      "נ": 730,
      "ס": 731,
      "ע": 732,
      "ף": 733,
      "פ": 734,
      "ץ": 735,
      "צ": 736,
      "ק": 737,
      "ר": 738,
      "ש": 739,
      "ת": 740,
      "׬": 741,
      "ׯ": 742,
      "װ": 743,
      "ױ": 744,
      "ײ": 745,
      "׳": 746,
      "״": 747,
      "׵": 748,
      "׶": 749,
      "׷": 750,
      "׸": 751,
      "׹": 752,
      "׺": 753,
      "׻": 754,
      "׼": 755,
      "׽": 756,
      "׾": 757,
      "׿": 758,
      "،": 759,
      "؏": 760,
      "؛": 761,
      "؟": 762,
      "ء": 763,
      "ا": 764,
      "ب": 765,
      "ة": 766,
      "ت": 767,
      "ث": 768,
      "ج": 769,
      "ح": 770,
      "خ": 771,
      "د": 772,
      "ذ": 773,
      "ر": 774,
      "ز": 775,
      "س": 776,
      "ش": 777,
      "ص": 778,
      "ض": 779,
      "ط": 780,
      "ظ": 781,
      "ع": 782,
      "غ": 783,
      "ػ": 784,
      "ؼ": 785,
      "ؽ": 786,
      "ؾ": 787,
      "ؿ": 788,
      "ـ": 789,
      "ف": 790,
      "ق": 791,
      "ك": 792,
      "ل": 793,
      "م": 794,
      "ن": 795,
      "ه": 796,
      "و": 797,
      "ى": 798,
      "ي": 799,
      "٠": 800,
      "١": 801,
      "٢": 802,
      "٣": 803,
      "٤": 804,
      "٥": 805,
      "٦": 806,
      "٧": 807,
      "٨": 808,
      "٩": 809,
      "ٱ": 810,
      "ٲ": 811,
      "ٳ": 812,
      "ٴ": 813,
      "ٵ": 814,
      "ٶ": 815,
      "ٷ": 816,
      "ٸ": 817,
      "ٹ": 818,
      "ٺ": 819,
      "ٻ": 820,
      "ټ": 821,
      "ٽ": 822,
      "پ": 823,
      "ٿ": 824,
      "ڀ": 825,
      "ځ": 826,
      "ڃ": 827,
      "ڄ": 828,
      "څ": 829,
      "چ": 830,
      "ڇ": 831,
      "ڈ": 832,
      "ڊ": 833,
      "ڌ": 834,
      "ڍ": 835,
      "ڏ": 836,
      "ڑ": 837,
      "ړ": 838,
      "ڔ": 839,
      "ڕ": 840,
      "ژ": 841,
      "ڙ": 842,
      "ښ": 843,
      "ڛ": 844,
      "ڜ": 845,
      "ڞ": 846,
      "ڣ": 847,
      "ڦ": 848,
      "ک": 849,
      "ڪ": 850,
      "ګ": 851,
      "ڬ": 852,
      "گ": 853,
      "ڰ": 854,
      "ڱ": 855,
      "ڲ": 856,
      "ڳ": 857,
      "ڴ": 858,
      "ڵ": 859,
      "ڶ": 860,
      "ڷ": 861,
      "ڸ": 862,
      "ڹ": 863,
      "ں": 864,
      "ڻ": 865,
      "ڼ": 866,
      "ڽ": 867,
      "ھ": 868,
      "ڿ": 869,
      "ہ": 870,
      "ۃ": 871,
      "ۇ": 872,
      "ۉ": 873,
      "ی": 874,
      "ێ": 875,
      "ې": 876,
      "ۑ": 877,
      "ے": 878,
      "۔": 879,
      "ە": 880,
      "۝": 881,
      "۞": 882,
      "ۥ": 883,
      "ۦ": 884,
      "۩": 885,
      "۰": 886,
      "۱": 887,
      "۲": 888,
      "۳": 889,
      "۴": 890,
      "۵": 891,
      "۶": 892,
      "۷": 893,
      "۸": 894,
      "۹": 895,
      "ۺ": 896,
      "ۻ": 897,
      "ۼ": 898,
      "۽": 899,
      "۾": 900,
      "ۿ": 901,
      "܏": 902,
      "ܐ": 903,
      "ܓ": 904,
      "ܕ": 905,
      "ܗ": 906,
      "ܘ": 907,
      "ܚ": 908,
      "ܝ": 909,
      "ܟ": 910,
      "ܠ": 911,
      "ܡ": 912,
      "ܢ": 913,
      "ܦ": 914,
      "ܨ": 915,
      "ܪ": 916,
      "ܬ": 917,
      "ݐ": 918,
      "ݰ": 919,
      "ݱ": 920,
      "ݲ": 921,
      "ݳ": 922,
      "ݴ": 923,
      "ݵ": 924,
      "ݶ": 925,
      "ݷ": 926,
      "ݸ": 927,
      "ݹ": 928,
      "ݺ": 929,
      "ݻ": 930,
      "ݼ": 931,
      "ݿ": 932,
      "ހ": 933,
      "ނ": 934,
      "ރ": 935,
      "އ": 936,
      "ވ": 937,
      "މ": 938,
      "ދ": 939,
      "ލ": 940,
      "ގ": 941,
      "ސ": 942,
      "ޒ": 943,
      "ޔ": 944,
      "ޖ": 945,
      "ޱ": 946,
      "޲": 947,
      "޳": 948,
      "޴": 949,
      "޵": 950,
      "޶": 951,
      "޷": 952,
      "޸": 953,
      "޹": 954,
      "޺": 955,
      "޻": 956,
      "޼": 957,
      "޽": 958,
      "޾": 959,
      "޿": 960,
      "ߘ": 961,
      "ߴ": 962,
      "ߵ": 963,
      "߶": 964,
      "߷": 965,
      "߸": 966,
      "߹": 967,
      "ߺ": 968,
      "߻": 969,
      "߼": 970,
      "߽": 971,
      "߾": 972,
      "߿": 973,
      "अ": 974,
      "आ": 975,
      "इ": 976,
      "ई": 977,
      "उ": 978,
      "ऊ": 979,
      "ऋ": 980,
      "ए": 981,
      "ऐ": 982,
      "ऑ": 983,
      "ओ": 984,
      "औ": 985,
      "क": 986,
      "ख": 987,
      "ग": 988,
      "घ": 989,
      "ङ": 990,
      "च": 991,
      "छ": 992,
      "ज": 993,
      "झ": 994,
      "ञ": 995,
      "ट": 996,
      "ठ": 997,
      "ड": 998,
      "ढ": 999,
      "ण": 1000,
      "त": 1001,
      "थ": 1002,
      "द": 1003,
      "ध": 1004,
      "न": 1005,
      "प": 1006,
      "फ": 1007,
      "ब": 1008,
      "भ": 1009,
      "म": 1010,
      "य": 1011,
      "र": 1012,
      "ल": 1013,
      "ळ": 1014,
      "व": 1015,
      "श": 1016,
      "ष": 1017,
      "स": 1018,
      "ह": 1019,
      "ॐ": 1020,
      "।": 1021,
      "॥": 1022,
      "०": 1023,
      "१": 1024,
      "२": 1025,
      "३": 1026,
      "४": 1027,
      "६": 1028,
      "८": 1029,
      "९": 1030,
      "॰": 1031,
      "ঀ": 1032,
      "঄": 1033,
      "অ": 1034,
      "আ": 1035,
      "ই": 1036,
      "ঈ": 1037,
      "উ": 1038,
      "ঊ": 1039,
      "ঋ": 1040,
      "ঌ": 1041,
      "঍": 1042,
      "঎": 1043,
      "এ": 1044,
      "ঐ": 1045,
      "঑": 1046,
      "঒": 1047,
      "ও": 1048,
      "ঔ": 1049,
      "ক": 1050,
      "খ": 1051,
      "গ": 1052,
      "ঘ": 1053,
      "ঙ": 1054,
      "চ": 1055,
      "ছ": 1056,
      "জ": 1057,
      "ঝ": 1058,
      "ঞ": 1059,
      "ট": 1060,
      "ঠ": 1061,
      "ড": 1062,
      "ঢ": 1063,
      "ণ": 1064,
      "ত": 1065,
      "থ": 1066,
      "দ": 1067,
      "ধ": 1068,
      "ন": 1069,
      "঩": 1070,
      "প": 1071,
      "ফ": 1072,
      "ব": 1073,
      "ভ": 1074,
      "ম": 1075,
      "য": 1076,
      "র": 1077,
      "঱": 1078,
      "ল": 1079,
      "঳": 1080,
      "঴": 1081,
      "঵": 1082,
      "শ": 1083,
      "ষ": 1084,
      "স": 1085,
      "হ": 1086,
      "঺": 1087,
      "঻": 1088,
      "ঽ": 1089,
      "৅": 1090,
      "৆": 1091,
      "৉": 1092,
      "৊": 1093,
      "ৎ": 1094,
      "৏": 1095,
      "৐": 1096,
      "৑": 1097,
      "৒": 1098,
      "৓": 1099,
      "৔": 1100,
      "৕": 1101,
      "৖": 1102,
      "৘": 1103,
      "৙": 1104,
      "৚": 1105,
      "৛": 1106,
      "৞": 1107,
      "ৠ": 1108,
      "ৡ": 1109,
      "৤": 1110,
      "৥": 1111,
      "০": 1112,
      "১": 1113,
      "২": 1114,
      "৩": 1115,
      "৪": 1116,
      "৫": 1117,
      "৬": 1118,
      "৭": 1119,
      "৮": 1120,
      "৯": 1121,
      "ৰ": 1122,
      "ৱ": 1123,
      "৲": 1124,
      "৳": 1125,
      "৴": 1126,
      "৵": 1127,
      "৶": 1128,
      "৷": 1129,
      "৸": 1130,
      "৹": 1131,
      "৺": 1132,
      "৻": 1133,
      "ৼ": 1134,
      "৽": 1135,
      "৾": 1136,
      "৿": 1137,
      "਀": 1138,
      "ਅ": 1139,
      "ਆ": 1140,
      "ਇ": 1141,
      "ਈ": 1142,
      "ਉ": 1143,
      "ਊ": 1144,
      "ਔ": 1145,
      "ਕ": 1146,
      "ਖ": 1147,
      "ਗ": 1148,
      "ਘ": 1149,
      "ਚ": 1150,
      "ਜ": 1151,
      "ਟ": 1152,
      "ਠ": 1153,
      "ਡ": 1154,
      "ਣ": 1155,
      "ਤ": 1156,
      "ਥ": 1157,
      "ਦ": 1158,
      "ਧ": 1159,
      "ਨ": 1160,
      "ਪ": 1161,
      "ਫ": 1162,
      "ਬ": 1163,
      "ਭ": 1164,
      "ਮ": 1165,
      "ਯ": 1166,
      "ਰ": 1167,
      "ਲ": 1168,
      "ਵ": 1169,
      "ਸ": 1170,
      "ਹ": 1171,
      "੔": 1172,
      "ੜ": 1173,
      "੧": 1174,
      "੪": 1175,
      "੫": 1176,
      "੭": 1177,
      "੮": 1178,
      "અ": 1179,
      "આ": 1180,
      "ઇ": 1181,
      "ઈ": 1182,
      "ઉ": 1183,
      "ઍ": 1184,
      "એ": 1185,
      "ઐ": 1186,
      "ઓ": 1187,
      "ઔ": 1188,
      "ક": 1189,
      "ખ": 1190,
      "ગ": 1191,
      "ઘ": 1192,
      "ઙ": 1193,
      "ચ": 1194,
      "છ": 1195,
      "જ": 1196,
      "ઝ": 1197,
      "ટ": 1198,
      "ઠ": 1199,
      "ડ": 1200,
      "ણ": 1201,
      "ત": 1202,
      "થ": 1203,
      "દ": 1204,
      "ધ": 1205,
      "ન": 1206,
      "પ": 1207,
      "ફ": 1208,
      "બ": 1209,
      "ભ": 1210,
      "મ": 1211,
      "ય": 1212,
      "ર": 1213,
      "લ": 1214,
      "ળ": 1215,
      "વ": 1216,
      "શ": 1217,
      "ષ": 1218,
      "સ": 1219,
      "હ": 1220,
      "ઽ": 1221,
      "૦": 1222,
      "૧": 1223,
      "૨": 1224,
      "૩": 1225,
      "૪": 1226,
      "૫": 1227,
      "૬": 1228,
      "ଅ": 1229,
      "ଆ": 1230,
      "ଇ": 1231,
      "ଉ": 1232,
      "ଏ": 1233,
      "ଓ": 1234,
      "କ": 1235,
      "ଖ": 1236,
      "ଗ": 1237,
      "ଚ": 1238,
      "ଜ": 1239,
      "ଟ": 1240,
      "ଠ": 1241,
      "ଡ": 1242,
      "ଣ": 1243,
      "ତ": 1244,
      "ଦ": 1245,
      "ଧ": 1246,
      "ନ": 1247,
      "ପ": 1248,
      "ଫ": 1249,
      "ବ": 1250,
      "ଭ": 1251,
      "ମ": 1252,
      "ଯ": 1253,
      "ର": 1254,
      "ଲ": 1255,
      "ଳ": 1256,
      "ଵ": 1257,
      "ଶ": 1258,
      "ସ": 1259,
      "ହ": 1260,
      "ୟ": 1261,
      "ஃ": 1262,
      "அ": 1263,
      "ஆ": 1264,
      "இ": 1265,
      "ஈ": 1266,
      "உ": 1267,
      "எ": 1268,
      "ஏ": 1269,
      "ஐ": 1270,
      "ஒ": 1271,
      "ஓ": 1272,
      "க": 1273,
      "ங": 1274,
      "ச": 1275,
      "ஜ": 1276,
      "ஞ": 1277,
      "ட": 1278,
      "ண": 1279,
      "த": 1280,
      "ந": 1281,
      "ன": 1282,
      "ப": 1283,
      "ம": 1284,
      "ய": 1285,
      "ர": 1286,
      "ற": 1287,
      "ல": 1288,
      "ள": 1289,
      "ழ": 1290,
      "வ": 1291,
      "ஷ": 1292,
      "ஸ": 1293,
      "ஹ": 1294,
      "௦": 1295,
      "௨": 1296,
      "௮": 1297,
      "అ": 1298,
      "ఆ": 1299,
      "ఇ": 1300,
      "ఈ": 1301,
      "ఉ": 1302,
      "ఎ": 1303,
      "ఏ": 1304,
      "ఐ": 1305,
      "ఓ": 1306,
      "క": 1307,
      "ఖ": 1308,
      "గ": 1309,
      "ఘ": 1310,
      "చ": 1311,
      "జ": 1312,
      "ఞ": 1313,
      "ట": 1314,
      "డ": 1315,
      "ణ": 1316,
      "త": 1317,
      "థ": 1318,
      "ద": 1319,
      "ధ": 1320,
      "న": 1321,
      "ప": 1322,
      "ఫ": 1323,
      "బ": 1324,
      "భ": 1325,
      "మ": 1326,
      "య": 1327,
      "ర": 1328,
      "ల": 1329,
      "ళ": 1330,
      "వ": 1331,
      "శ": 1332,
      "ష": 1333,
      "స": 1334,
      "హ": 1335,
      "౦": 1336,
      "౶": 1337,
      "ಅ": 1338,
      "ಆ": 1339,
      "ಇ": 1340,
      "ಉ": 1341,
      "ಎ": 1342,
      "ಐ": 1343,
      "ಒ": 1344,
      "ಓ": 1345,
      "ಔ": 1346,
      "ಕ": 1347,
      "ಖ": 1348,
      "ಗ": 1349,
      "ಘ": 1350,
      "ಚ": 1351,
      "ಜ": 1352,
      "ಟ": 1353,
      "ಡ": 1354,
      "ಣ": 1355,
      "ತ": 1356,
      "ಥ": 1357,
      "ದ": 1358,
      "ನ": 1359,
      "಩": 1360,
      "ಪ": 1361,
      "ಫ": 1362,
      "ಬ": 1363,
      "ಭ": 1364,
      "ಮ": 1365,
      "ಯ": 1366,
      "ರ": 1367,
      "ಲ": 1368,
      "ಳ": 1369,
      "ವ": 1370,
      "ಶ": 1371,
      "ಷ": 1372,
      "ಸ": 1373,
      "ಹ": 1374,
      "೤": 1375,
      "೦": 1376,
      "೧": 1377,
      "೩": 1378,
      "೪": 1379,
      "೭": 1380,
      "೵": 1381,
      "അ": 1382,
      "ആ": 1383,
      "ഇ": 1384,
      "ഈ": 1385,
      "ഉ": 1386,
      "എ": 1387,
      "ഏ": 1388,
      "ഒ": 1389,
      "ഓ": 1390,
      "ക": 1391,
      "ഖ": 1392,
      "ഗ": 1393,
      "ഘ": 1394,
      "ങ": 1395,
      "ച": 1396,
      "ജ": 1397,
      "ഞ": 1398,
      "ട": 1399,
      "ഡ": 1400,
      "ണ": 1401,
      "ത": 1402,
      "ഥ": 1403,
      "ദ": 1404,
      "ധ": 1405,
      "ന": 1406,
      "പ": 1407,
      "ഫ": 1408,
      "ബ": 1409,
      "ഭ": 1410,
      "മ": 1411,
      "യ": 1412,
      "ര": 1413,
      "റ": 1414,
      "ല": 1415,
      "ള": 1416,
      "ഴ": 1417,
      "വ": 1418,
      "ശ": 1419,
      "ഷ": 1420,
      "സ": 1421,
      "ഹ": 1422,
      "൦": 1423,
      "൧": 1424,
      "൨": 1425,
      "൩": 1426,
      "൪": 1427,
      "൫": 1428,
      "൬": 1429,
      "ൺ": 1430,
      "ൻ": 1431,
      "ർ": 1432,
      "ൽ": 1433,
      "ൾ": 1434,
      "අ": 1435,
      "උ": 1436,
      "ක": 1437,
      "ග": 1438,
      "ච": 1439,
      "ට": 1440,
      "ඩ": 1441,
      "ණ": 1442,
      "ත": 1443,
      "ද": 1444,
      "ධ": 1445,
      "න": 1446,
      "ප": 1447,
      "බ": 1448,
      "ම": 1449,
      "ඹ": 1450,
      "ය": 1451,
      "ර": 1452,
      "ල": 1453,
      "ව": 1454,
      "ශ": 1455,
      "ෂ": 1456,
      "ස": 1457,
      "හ": 1458,
      "ළ": 1459,
      "෽": 1460,
      "ก": 1461,
      "ข": 1462,
      "ค": 1463,
      "ฆ": 1464,
      "ง": 1465,
      "จ": 1466,
      "ฉ": 1467,
      "ช": 1468,
      "ซ": 1469,
      "ฌ": 1470,
      "ญ": 1471,
      "ฎ": 1472,
      "ฏ": 1473,
      "ฐ": 1474,
      "ฑ": 1475,
      "ฒ": 1476,
      "ณ": 1477,
      "ด": 1478,
      "ต": 1479,
      "ถ": 1480,
      "ท": 1481,
      "ธ": 1482,
      "น": 1483,
      "บ": 1484,
      "ป": 1485,
      "ผ": 1486,
      "ฝ": 1487,
      "พ": 1488,
      "ฟ": 1489,
      "ภ": 1490,
      "ม": 1491,
      "ย": 1492,
      "ร": 1493,
      "ฤ": 1494,
      "ล": 1495,
      "ว": 1496,
      "ศ": 1497,
      "ษ": 1498,
      "ส": 1499,
      "ห": 1500,
      "ฬ": 1501,
      "อ": 1502,
      "ฮ": 1503,
      "ฯ": 1504,
      "ะ": 1505,
      "า": 1506,
      "ำ": 1507,
      "฿": 1508,
      "เ": 1509,
      "แ": 1510,
      "โ": 1511,
      "ใ": 1512,
      "ไ": 1513,
      "ๆ": 1514,
      "๐": 1515,
      "๑": 1516,
      "๒": 1517,
      "๓": 1518,
      "๕": 1519,
      "๖": 1520,
      "ກ": 1521,
      "ງ": 1522,
      "ຈ": 1523,
      "ຊ": 1524,
      "ດ": 1525,
      "ຕ": 1526,
      "ທ": 1527,
      "ນ": 1528,
      "ປ": 1529,
      "ພ": 1530,
      "ມ": 1531,
      "ລ": 1532,
      "ວ": 1533,
      "ສ": 1534,
      "ອ": 1535,
      "ຮ": 1536,
      "ະ": 1537,
      "າ": 1538,
      "ເ": 1539,
      "ໄ": 1540,
      "ໝ": 1541,
      "ༀ": 1542,
      "་": 1543,
      "།": 1544,
      "༡": 1545,
      "༣": 1546,
      "༸": 1547,
      "ཀ": 1548,
      "ཁ": 1549,
      "ག": 1550,
      "ང": 1551,
      "ཆ": 1552,
      "ཇ": 1553,
      "ཉ": 1554,
      "ཎ": 1555,
      "ཐ": 1556,
      "ད": 1557,
      "ན": 1558,
      "པ": 1559,
      "ཕ": 1560,
      "བ": 1561,
      "མ": 1562,
      "ཚ": 1563,
      "ཛ": 1564,
      "ཞ": 1565,
      "འ": 1566,
      "ཡ": 1567,
      "ར": 1568,
      "ལ": 1569,
      "ཤ": 1570,
      "ས": 1571,
      "ཧ": 1572,
      "ཨ": 1573,
      "࿪": 1574,
      "࿭": 1575,
      "က": 1576,
      "ခ": 1577,
      "ဂ": 1578,
      "ဃ": 1579,
      "င": 1580,
      "စ": 1581,
      "ဆ": 1582,
      "ဇ": 1583,
      "ဉ": 1584,
      "ည": 1585,
      "ဏ": 1586,
      "တ": 1587,
      "ထ": 1588,
      "ဒ": 1589,
      "ဓ": 1590,
      "န": 1591,
      "ပ": 1592,
      "ဖ": 1593,
      "ဗ": 1594,
      "ဘ": 1595,
      "မ": 1596,
      "ယ": 1597,
      "ရ": 1598,
      "လ": 1599,
      "ဝ": 1600,
      "သ": 1601,
      "ဟ": 1602,
      "အ": 1603,
      "ဥ": 1604,
      "၀": 1605,
      "၂": 1606,
      "၅": 1607,
      "၆": 1608,
      "၊": 1609,
      "။": 1610,
      "၍": 1611,
      "၏": 1612,
      "ၒ": 1613,
      "ၚ": 1614,
      "ၡ": 1615,
      "ၾ": 1616,
      "ၿ": 1617,
      "႐": 1618,
      "႔": 1619,
      "႕": 1620,
      "ა": 1621,
      "ბ": 1622,
      "გ": 1623,
      "დ": 1624,
      "ე": 1625,
      "ვ": 1626,
      "ზ": 1627,
      "თ": 1628,
      "ი": 1629,
      "კ": 1630,
      "ლ": 1631,
      "მ": 1632,
      "ნ": 1633,
      "ო": 1634,
      "პ": 1635,
      "ჟ": 1636,
      "რ": 1637,
      "ს": 1638,
      "ტ": 1639,
      "უ": 1640,
      "ფ": 1641,
      "ქ": 1642,
      "ღ": 1643,
      "ყ": 1644,
      "შ": 1645,
      "ჩ": 1646,
      "ც": 1647,
      "ძ": 1648,
      "წ": 1649,
      "ჭ": 1650,
      "ხ": 1651,
      "ჯ": 1652,
      "ᄀ": 1653,
      "ᄁ": 1654,
      "ᄂ": 1655,
      "ᄃ": 1656,
      "ᄄ": 1657,
      "ᄅ": 1658,
      "ᄆ": 1659,
      "ᄇ": 1660,
      "ᄈ": 1661,
      "ᄉ": 1662,
      "ᄊ": 1663,
      "ᄋ": 1664,
      "ᄌ": 1665,
      "ᄍ": 1666,
      "ᄎ": 1667,
      "ᄏ": 1668,
      "ᄐ": 1669,
      "ᄑ": 1670,
      "ᄒ": 1671,
      "ᅡ": 1672,
      "ᅢ": 1673,
      "ᅣ": 1674,
      "ᅤ": 1675,
      "ᅥ": 1676,
      "ᅦ": 1677,
      "ᅧ": 1678,
      "ᅨ": 1679,
      "ᅩ": 1680,
      "ᅪ": 1681,
      "ᅫ": 1682,
      "ᅬ": 1683,
      "ᅭ": 1684,
      "ᅮ": 1685,
      "ᅯ": 1686,
      "ᅰ": 1687,
      "ᅱ": 1688,
      "ᅲ": 1689,
      "ᅳ": 1690,
      "ᅴ": 1691,
      "ᅵ": 1692,
      "ᆨ": 1693,
      "ᆩ": 1694,
      "ᆪ": 1695,
      "ᆫ": 1696,
      "ᆬ": 1697,
      "ᆭ": 1698,
      "ᆮ": 1699,
      "ᆯ": 1700,
      "ᆰ": 1701,
      "ᆱ": 1702,
      "ᆲ": 1703,
      "ᆳ": 1704,
      "ᆴ": 1705,
      "ᆵ": 1706,
      "ᆶ": 1707,
      "ᆷ": 1708,
      "ᆸ": 1709,
      "ᆹ": 1710,
      "ᆺ": 1711,
      "ᆻ": 1712,
      "ᆼ": 1713,
      "ᆽ": 1714,
      "ᆾ": 1715,
      "ᆿ": 1716,
      "ᇀ": 1717,
      "ᇁ": 1718,
      "ᇂ": 1719,
      "ሊ": 1720,
      "ማ": 1721,
      "ራ": 1722,
      "ር": 1723,
      "ስ": 1724,
      "ሶ": 1725,
      "ቐ": 1726,
      "ቕ": 1727,
      "ብ": 1728,
      "ት": 1729,
      "ኍ": 1730,
      "ና": 1731,
      "ኛ": 1732,
      "አ": 1733,
      "ኤ": 1734,
      "ኽ": 1735,
      "ዛ": 1736,
      "ጀ": 1737,
      "ግ": 1738,
      "፳": 1739,
      "Ꭱ": 1740,
      "Ꭺ": 1741,
      "Ꭼ": 1742,
      "Ꮇ": 1743,
      "Ꮖ": 1744,
      "ᐂ": 1745,
      "ᐃ": 1746,
      "ᐊ": 1747,
      "ᐍ": 1748,
      "ᐎ": 1749,
      "ᐏ": 1750,
      "ᐣ": 1751,
      "ᐦ": 1752,
      "ᐯ": 1753,
      "ᑎ": 1754,
      "ᑐ": 1755,
      "ᑦ": 1756,
      "ᑪ": 1757,
      "ᒃ": 1758,
      "ᒧ": 1759,
      "ᓀ": 1760,
      "ᓂ": 1761,
      "ᓄ": 1762,
      "ᓈ": 1763,
      "ᓐ": 1764,
      "ᔑ": 1765,
      "ᔭ": 1766,
      "ក": 1767,
      "ខ": 1768,
      "គ": 1769,
      "ង": 1770,
      "ច": 1771,
      "ឆ": 1772,
      "ជ": 1773,
      "ឈ": 1774,
      "ញ": 1775,
      "ដ": 1776,
      "ណ": 1777,
      "ត": 1778,
      "ថ": 1779,
      "ទ": 1780,
      "ធ": 1781,
      "ន": 1782,
      "ប": 1783,
      "ផ": 1784,
      "ព": 1785,
      "ភ": 1786,
      "ម": 1787,
      "យ": 1788,
      "រ": 1789,
      "ល": 1790,
      "វ": 1791,
      "ស": 1792,
      "ហ": 1793,
      "ឡ": 1794,
      "អ": 1795,
      "។": 1796,
      "៖": 1797,
      "០": 1798,
      "១": 1799,
      "ᡣ": 1800,
      "ᡷ": 1801,
      "ᥙ": 1802,
      "ᮓ": 1803,
      "ᮔ": 1804,
      "ᮘ": 1805,
      "ᮞ": 1806,
      "ᰡ": 1807,
      "ᱦ": 1808,
      "ᱱ": 1809,
      "Ხ": 1810,
      "᲻": 1811,
      "ᴀ": 1812,
      "ᴄ": 1813,
      "ᴅ": 1814,
      "ᴇ": 1815,
      "ᴊ": 1816,
      "ᴋ": 1817,
      "ᴍ": 1818,
      "ᴏ": 1819,
      "ᴓ": 1820,
      "ᴘ": 1821,
      "ᴛ": 1822,
      "ᴜ": 1823,
      "ᴠ": 1824,
      "ᴡ": 1825,
      "ᴫ": 1826,
      "ᴬ": 1827,
      "ᴰ": 1828,
      "ᴱ": 1829,
      "ᴳ": 1830,
      "ᴴ": 1831,
      "ᴵ": 1832,
      "ᴸ": 1833,
      "ᴹ": 1834,
      "ᴻ": 1835,
      "ᴼ": 1836,
      "ᴿ": 1837,
      "ᵀ": 1838,
      "ᵃ": 1839,
      "ᵈ": 1840,
      "ᵒ": 1841,
      "ᵝ": 1842,
      "ᵥ": 1843,
      "ᵻ": 1844,
      "ᶑ": 1845,
      "ᶤ": 1846,
      "᷸": 1847,
      "᾽": 1848,
      "῾": 1849,
      "​": 1850,
      "‌": 1851,
      "‍": 1852,
      "‎": 1853,
      "‏": 1854,
      "‐": 1855,
      "‑": 1856,
      "‒": 1857,
      "–": 1858,
      "—": 1859,
      "―": 1860,
      "‖": 1861,
      "‘": 1862,
      "’": 1863,
      "‚": 1864,
      "‛": 1865,
      "“": 1866,
      "”": 1867,
      "„": 1868,
      "†": 1869,
      "‡": 1870,
      "•": 1871,
      "‣": 1872,
      "․": 1873,
      "‥": 1874,
      "…": 1875,
      "‧": 1876,
      "‪": 1877,
      "‫": 1878,
      "‬": 1879,
      "‰": 1880,
      "′": 1881,
      "″": 1882,
      "‹": 1883,
      "›": 1884,
      "※": 1885,
      "‼": 1886,
      "‿": 1887,
      "⁃": 1888,
      "⁄": 1889,
      "⁉": 1890,
      "⁠": 1891,
      "⁡": 1892,
      "⁦": 1893,
      "⁩": 1894,
      "⁭": 1895,
      "⁮": 1896,
      "⁯": 1897,
      "⁰": 1898,
      "⁴": 1899,
      "⁵": 1900,
      "⁶": 1901,
      "⁷": 1902,
      "⁸": 1903,
      "⁹": 1904,
      "₁": 1905,
      "₂": 1906,
      "₃": 1907,
      "₄": 1908,
      "₅": 1909,
      "ₐ": 1910,
      "₣": 1911,
      "₨": 1912,
      "₩": 1913,
      "₪": 1914,
      "₫": 1915,
      "€": 1916,
      "₱": 1917,
      "₹": 1918,
      "₺": 1919,
      "₽": 1920,
      "ℂ": 1921,
      "℃": 1922,
      "℅": 1923,
      "℉": 1924,
      "ℍ": 1925,
      "ℏ": 1926,
      "ℑ": 1927,
      "ℓ": 1928,
      "ℕ": 1929,
      "№": 1930,
      "ℙ": 1931,
      "ℜ": 1932,
      "ℝ": 1933,
      "℠": 1934,
      "™": 1935,
      "℧": 1936,
      "ℰ": 1937,
      "ℳ": 1938,
      "ℵ": 1939,
      "ℹ": 1940,
      "⅓": 1941,
      "⅛": 1942,
      "Ⅰ": 1943,
      "Ⅱ": 1944,
      "Ⅲ": 1945,
      "Ⅳ": 1946,
      "Ⅴ": 1947,
      "Ⅵ": 1948,
      "Ⅶ": 1949,
      "Ⅷ": 1950,
      "Ⅸ": 1951,
      "Ⅹ": 1952,
      "Ⅺ": 1953,
      "Ⅻ": 1954,
      "ⅴ": 1955,
      "ⅼ": 1956,
      "←": 1957,
      "↑": 1958,
      "→": 1959,
      "↓": 1960,
      "↔": 1961,
      "↕": 1962,
      "↗": 1963,
      "↘": 1964,
      "↠": 1965,
      "↡": 1966,
      "↧": 1967,
      "↩": 1968,
      "↪": 1969,
      "↭": 1970,
      "↱": 1971,
      "↵": 1972,
      "⇄": 1973,
      "⇐": 1974,
      "⇒": 1975,
      "⇓": 1976,
      "⇔": 1977,
      "⇙": 1978,
      "⇛": 1979,
      "⇡": 1980,
      "⇨": 1981,
      "⇰": 1982,
      "⇶": 1983,
      "⇷": 1984,
      "⇸": 1985,
      "⇹": 1986,
      "⇺": 1987,
      "⇻": 1988,
      "⇼": 1989,
      "∀": 1990,
      "∂": 1991,
      "∃": 1992,
      "∅": 1993,
      "∆": 1994,
      "∇": 1995,
      "∈": 1996,
      "∋": 1997,
      "∏": 1998,
      "∑": 1999,
      "−": 2000,
      "∓": 2001,
      "∗": 2002,
      "∘": 2003,
      "∙": 2004,
      "√": 2005,
      "∛": 2006,
      "∝": 2007,
      "∞": 2008,
      "∟": 2009,
      "∠": 2010,
      "∢": 2011,
      "∣": 2012,
      "∨": 2013,
      "∩": 2014,
      "∪": 2015,
      "∫": 2016,
      "∮": 2017,
      "∴": 2018,
      "∵": 2019,
      "∶": 2020,
      "≈": 2021,
      "≌": 2022,
      "≒": 2023,
      "≛": 2024,
      "≡": 2025,
      "≣": 2026,
      "≤": 2027,
      "≥": 2028,
      "≦": 2029,
      "≧": 2030,
      "≪": 2031,
      "≫": 2032,
      "⊂": 2033,
      "⊃": 2034,
      "⊆": 2035,
      "⊕": 2036,
      "⊙": 2037,
      "⊥": 2038,
      "⊳": 2039,
      "⋀": 2040,
      "⋁": 2041,
      "⋅": 2042,
      "⋆": 2043,
      "⋎": 2044,
      "⋏": 2045,
      "⋮": 2046,
      "⋯": 2047,
      "⌀": 2048,
      "⌈": 2049,
      "⌉": 2050,
      "⌊": 2051,
      "⌋": 2052,
      "⌒": 2053,
      "⌘": 2054,
      "⌠": 2055,
      "⌡": 2056,
      "⌲": 2057,
      "⌺": 2058,
      "⍟": 2059,
      "⍧": 2060,
      "⍷": 2061,
      "⎯": 2062,
      "⏉": 2063,
      "⏎": 2064,
      "⏩": 2065,
      "⏪": 2066,
      "⏬": 2067,
      "⏰": 2068,
      "⏳": 2069,
      "⏺": 2070,
      "①": 2071,
      "②": 2072,
      "③": 2073,
      "④": 2074,
      "⑤": 2075,
      "⑥": 2076,
      "⑦": 2077,
      "⑴": 2078,
      "⑵": 2079,
      "⑶": 2080,
      "⑷": 2081,
      "⑸": 2082,
      "⑹": 2083,
      "⑻": 2084,
      "⑼": 2085,
      "⒂": 2086,
      "⒃": 2087,
      "⒈": 2088,
      "⒌": 2089,
      "⒍": 2090,
      "⒖": 2091,
      "Ⓒ": 2092,
      "Ⓕ": 2093,
      "Ⓜ": 2094,
      "ⓐ": 2095,
      "ⓑ": 2096,
      "ⓒ": 2097,
      "ⓓ": 2098,
      "ⓕ": 2099,
      "ⓗ": 2100,
      "ⓝ": 2101,
      "ⓟ": 2102,
      "ⓠ": 2103,
      "ⓣ": 2104,
      "⓿": 2105,
      "─": 2106,
      "━": 2107,
      "│": 2108,
      "┃": 2109,
      "┇": 2110,
      "┏": 2111,
      "┓": 2112,
      "└": 2113,
      "┗": 2114,
      "┛": 2115,
      "├": 2116,
      "┦": 2117,
      "┬": 2118,
      "═": 2119,
      "║": 2120,
      "╚": 2121,
      "╝": 2122,
      "╭": 2123,
      "╮": 2124,
      "╯": 2125,
      "╰": 2126,
      "▀": 2127,
      "█": 2128,
      "▋": 2129,
      "▌": 2130,
      "▐": 2131,
      "░": 2132,
      "▒": 2133,
      "▓": 2134,
      "▔": 2135,
      "■": 2136,
      "□": 2137,
      "▣": 2138,
      "▤": 2139,
      "▥": 2140,
      "▦": 2141,
      "▧": 2142,
      "▨": 2143,
      "▩": 2144,
      "▪": 2145,
      "▬": 2146,
      "▯": 2147,
      "▲": 2148,
      "△": 2149,
      "▶": 2150,
      "▷": 2151,
      "►": 2152,
      "▻": 2153,
      "▼": 2154,
      "▽": 2155,
      "▾": 2156,
      "◀": 2157,
      "◄": 2158,
      "◆": 2159,
      "◇": 2160,
      "◈": 2161,
      "◉": 2162,
      "◊": 2163,
      "○": 2164,
      "◌": 2165,
      "◎": 2166,
      "●": 2167,
      "◐": 2168,
      "◑": 2169,
      "◕": 2170,
      "◘": 2171,
      "◙": 2172,
      "◠": 2173,
      "◣": 2174,
      "◥": 2175,
      "◦": 2176,
      "◩": 2177,
      "◻": 2178,
      "◼": 2179,
      "◾": 2180,
      "☀": 2181,
      "☁": 2182,
      "☂": 2183,
      "☄": 2184,
      "★": 2185,
      "☆": 2186,
      "☈": 2187,
      "☎": 2188,
      "☏": 2189,
      "☐": 2190,
      "☑": 2191,
      "☔": 2192,
      "☕": 2193,
      "☘": 2194,
      "☚": 2195,
      "☛": 2196,
      "☜": 2197,
      "☝": 2198,
      "☞": 2199,
      "☟": 2200,
      "☠": 2201,
      "☢": 2202,
      "☣": 2203,
      "☪": 2204,
      "☯": 2205,
      "☰": 2206,
      "☸": 2207,
      "☹": 2208,
      "☺": 2209,
      "☻": 2210,
      "☼": 2211,
      "☾": 2212,
      "♀": 2213,
      "♂": 2214,
      "♍": 2215,
      "♐": 2216,
      "♔": 2217,
      "♕": 2218,
      "♚": 2219,
      "♛": 2220,
      "♠": 2221,
      "♡": 2222,
      "♢": 2223,
      "♣": 2224,
      "♤": 2225,
      "♥": 2226,
      "♦": 2227,
      "♧": 2228,
      "♨": 2229,
      "♩": 2230,
      "♪": 2231,
      "♫": 2232,
      "♬": 2233,
      "♭": 2234,
      "♰": 2235,
      "♳": 2236,
      "♻": 2237,
      "♼": 2238,
      "⚉": 2239,
      "⚖": 2240,
      "⚘": 2241,
      "⚛": 2242,
      "⚜": 2243,
      "⚠": 2244,
      "⚡": 2245,
      "⚤": 2246,
      "⚪": 2247,
      "⚫": 2248,
      "⚽": 2249,
      "⛅": 2250,
      "⛈": 2251,
      "⛔": 2252,
      "⛦": 2253,
      "⛧": 2254,
      "⛰": 2255,
      "⛳": 2256,
      "⛺": 2257,
      "⛽": 2258,
      "✅": 2259,
      "✆": 2260,
      "✈": 2261,
      "✉": 2262,
      "✊": 2263,
      "✋": 2264,
      "✌": 2265,
      "✍": 2266,
      "✎": 2267,
      "✏": 2268,
      "✐": 2269,
      "✒": 2270,
      "✓": 2271,
      "✔": 2272,
      "✕": 2273,
      "✖": 2274,
      "✘": 2275,
      "✚": 2276,
      "✛": 2277,
      "✝": 2278,
      "✡": 2279,
      "✣": 2280,
      "✤": 2281,
      "✦": 2282,
      "✧": 2283,
      "✨": 2284,
      "✩": 2285,
      "✪": 2286,
      "✫": 2287,
      "✬": 2288,
      "✭": 2289,
      "✮": 2290,
      "✯": 2291,
      "✰": 2292,
      "✲": 2293,
      "✳": 2294,
      "✴": 2295,
      "✵": 2296,
      "✶": 2297,
      "✺": 2298,
      "✿": 2299,
      "❀": 2300,
      "❁": 2301,
      "❂": 2302,
      "❃": 2303,
      "❄": 2304,
      "❅": 2305,
      "❆": 2306,
      "❇": 2307,
      "❈": 2308,
      "❉": 2309,
      "❋": 2310,
      "❌": 2311,
      "❍": 2312,
      "❎": 2313,
      "❏": 2314,
      "❐": 2315,
      "❑": 2316,
      "❒": 2317,
      "❓": 2318,
      "❖": 2319,
      "❗": 2320,
      "❙": 2321,
      "❝": 2322,
      "❞": 2323,
      "❣": 2324,
      "❤": 2325,
      "❥": 2326,
      "❯": 2327,
      "❶": 2328,
      "❷": 2329,
      "❸": 2330,
      "❹": 2331,
      "❻": 2332,
      "❼": 2333,
      "❽": 2334,
      "❾": 2335,
      "➊": 2336,
      "➋": 2337,
      "➌": 2338,
      "➍": 2339,
      "➎": 2340,
      "➔": 2341,
      "➕": 2342,
      "➖": 2343,
      "➙": 2344,
      "➜": 2345,
      "➝": 2346,
      "➟": 2347,
      "➠": 2348,
      "➡": 2349,
      "➢": 2350,
      "➣": 2351,
      "➤": 2352,
      "➥": 2353,
      "➧": 2354,
      "➨": 2355,
      "➪": 2356,
      "➫": 2357,
      "➯": 2358,
      "➰": 2359,
      "➲": 2360,
      "➳": 2361,
      "➵": 2362,
      "➷": 2363,
      "➺": 2364,
      "➻": 2365,
      "➼": 2366,
      "➽": 2367,
      "⟨": 2368,
      "⟩": 2369,
      "⟰": 2370,
      "⟵": 2371,
      "⟶": 2372,
      "⡤": 2373,
      "⡪": 2374,
      "⡷": 2375,
      "⡿": 2376,
      "⤒": 2377,
      "⤗": 2378,
      "⤘": 2379,
      "⤵": 2380,
      "⥀": 2381,
      "⦁": 2382,
      "⦽": 2383,
      "⧗": 2384,
      "⧪": 2385,
      "⧫": 2386,
      "⧭": 2387,
      "⬅": 2388,
      "⬇": 2389,
      "⬛": 2390,
      "⬤": 2391,
      "⬲": 2392,
      "⭐": 2393,
      "⭕": 2394,
      "ⰲ": 2395,
      "ⱦ": 2396,
      "ⱨ": 2397,
      "ⱱ": 2398,
      "Ȿ": 2399,
      "Ⲉ": 2400,
      "Ⲩ": 2401,
      "ⲩ": 2402,
      "ⲻ": 2403,
      "ⳬ": 2404,
      "ⴰ": 2405,
      "ⴷ": 2406,
      "ⴻ": 2407,
      "ⴽ": 2408,
      "ⵉ": 2409,
      "ⵊ": 2410,
      "ⵎ": 2411,
      "ⵏ": 2412,
      "ⵓ": 2413,
      "ⵔ": 2414,
      "ⵕ": 2415,
      "ⵙ": 2416,
      "ⵛ": 2417,
      "ⵡ": 2418,
      "ⵥ": 2419,
      "ⶥ": 2420,
      "⸣": 2421,
      "⸥": 2422,
      "⸴": 2423,
      "⹤": 2424,
      "⻨": 2425,
      "⻶": 2426,
      "⼰": 2427,
      "⼸": 2428,
      "⼼": 2429,
      "⿪": 2430,
      "⿴": 2431,
      "、": 2432,
      "。": 2433,
      "々": 2434,
      "〇": 2435,
      "〈": 2436,
      "〉": 2437,
      "《": 2438,
      "》": 2439,
      "「": 2440,
      "」": 2441,
      "『": 2442,
      "』": 2443,
      "【": 2444,
      "】": 2445,
      "〒": 2446,
      "〔": 2447,
      "〕": 2448,
      "〜": 2449,
      "〰": 2450,
      "ぁ": 2451,
      "あ": 2452,
      "い": 2453,
      "ぅ": 2454,
      "う": 2455,
      "ぇ": 2456,
      "え": 2457,
      "ぉ": 2458,
      "お": 2459,
      "か": 2460,
      "き": 2461,
      "く": 2462,
      "け": 2463,
      "こ": 2464,
      "さ": 2465,
      "し": 2466,
      "す": 2467,
      "せ": 2468,
      "そ": 2469,
      "た": 2470,
      "ち": 2471,
      "っ": 2472,
      "つ": 2473,
      "て": 2474,
      "と": 2475,
      "な": 2476,
      "に": 2477,
      "ぬ": 2478,
      "ね": 2479,
      "の": 2480,
      "は": 2481,
      "ひ": 2482,
      "ふ": 2483,
      "へ": 2484,
      "ほ": 2485,
      "ま": 2486,
      "み": 2487,
      "む": 2488,
      "め": 2489,
      "も": 2490,
      "ゃ": 2491,
      "や": 2492,
      "ゅ": 2493,
      "ゆ": 2494,
      "ょ": 2495,
      "よ": 2496,
      "ら": 2497,
      "り": 2498,
      "る": 2499,
      "れ": 2500,
      "ろ": 2501,
      "わ": 2502,
      "を": 2503,
      "ん": 2504,
      "゜": 2505,
      "ァ": 2506,
      "ア": 2507,
      "ィ": 2508,
      "イ": 2509,
      "ゥ": 2510,
      "ウ": 2511,
      "ェ": 2512,
      "エ": 2513,
      "ォ": 2514,
      "オ": 2515,
      "カ": 2516,
      "キ": 2517,
      "ク": 2518,
      "ケ": 2519,
      "コ": 2520,
      "サ": 2521,
      "シ": 2522,
      "ス": 2523,
      "セ": 2524,
      "ソ": 2525,
      "タ": 2526,
      "チ": 2527,
      "ッ": 2528,
      "ツ": 2529,
      "テ": 2530,
      "ト": 2531,
      "ナ": 2532,
      "ニ": 2533,
      "ヌ": 2534,
      "ネ": 2535,
      "ノ": 2536,
      "ハ": 2537,
      "ヒ": 2538,
      "フ": 2539,
      "ヘ": 2540,
      "ホ": 2541,
      "マ": 2542,
      "ミ": 2543,
      "ム": 2544,
      "メ": 2545,
      "モ": 2546,
      "ャ": 2547,
      "ヤ": 2548,
      "ュ": 2549,
      "ユ": 2550,
      "ョ": 2551,
      "ヨ": 2552,
      "ラ": 2553,
      "リ": 2554,
      "ル": 2555,
      "レ": 2556,
      "ロ": 2557,
      "ワ": 2558,
      "ン": 2559,
      "ヵ": 2560,
      "ヶ": 2561,
      "・": 2562,
      "ー": 2563,
      "ヽ": 2564,
      "ㄐ": 2565,
      "ㄥ": 2566,
      "ㄧ": 2567,
      "ㄨ": 2568,
      "ㄩ": 2569,
      "ㅇ": 2570,
      "ㆍ": 2571,
      "㈜": 2572,
      "㎍": 2573,
      "㎜": 2574,
      "㎟": 2575,
      "㎡": 2576,
      "㎥": 2577,
      "㥕": 2578,
      "㱦": 2579,
      "㱨": 2580,
      "㱱": 2581,
      "㲩": 2582,
      "㲻": 2583,
      "㳡": 2584,
      "㴫": 2585,
      "㵥": 2586,
      "㵨": 2587,
      "㵴": 2588,
      "㶨": 2589,
      "㶫": 2590,
      "㶮": 2591,
      "㷢": 2592,
      "㷨": 2593,
      "㷶": 2594,
      "㷸": 2595,
      "㷽": 2596,
      "㹤": 2597,
      "㹥": 2598,
      "㹫": 2599,
      "㻪": 2600,
      "㼪": 2601,
      "㼱": 2602,
      "㼼": 2603,
      "㽪": 2604,
      "㽲": 2605,
      "㾫": 2606,
      "㿪": 2607,
      "㿴": 2608,
      "䰲": 2609,
      "䱧": 2610,
      "䱨": 2611,
      "䱬": 2612,
      "䲨": 2613,
      "䴫": 2614,
      "䵽": 2615,
      "䶨": 2616,
      "一": 2617,
      "丁": 2618,
      "七": 2619,
      "万": 2620,
      "丈": 2621,
      "三": 2622,
      "上": 2623,
      "下": 2624,
      "不": 2625,
      "与": 2626,
      "丑": 2627,
      "专": 2628,
      "且": 2629,
      "世": 2630,
      "丘": 2631,
      "丙": 2632,
      "业": 2633,
      "东": 2634,
      "丝": 2635,
      "両": 2636,
      "丢": 2637,
      "两": 2638,
      "严": 2639,
      "並": 2640,
      "丧": 2641,
      "丨": 2642,
      "个": 2643,
      "丫": 2644,
      "中": 2645,
      "丰": 2646,
      "串": 2647,
      "临": 2648,
      "丶": 2649,
      "丸": 2650,
      "丹": 2651,
      "为": 2652,
      "主": 2653,
      "丼": 2654,
      "丽": 2655,
      "举": 2656,
      "丿": 2657,
      "乃": 2658,
      "久": 2659,
      "么": 2660,
      "义": 2661,
      "之": 2662,
      "乌": 2663,
      "乎": 2664,
      "乏": 2665,
      "乐": 2666,
      "乔": 2667,
      "乗": 2668,
      "乘": 2669,
      "乙": 2670,
      "乚": 2671,
      "乛": 2672,
      "九": 2673,
      "乞": 2674,
      "也": 2675,
      "习": 2676,
      "乡": 2677,
      "书": 2678,
      "乫": 2679,
      "买": 2680,
      "乱": 2681,
      "乳": 2682,
      "乾": 2683,
      "亀": 2684,
      "亅": 2685,
      "了": 2686,
      "予": 2687,
      "争": 2688,
      "事": 2689,
      "二": 2690,
      "于": 2691,
      "亏": 2692,
      "云": 2693,
      "互": 2694,
      "五": 2695,
      "井": 2696,
      "亚": 2697,
      "些": 2698,
      "亜": 2699,
      "亞": 2700,
      "亟": 2701,
      "亡": 2702,
      "交": 2703,
      "亦": 2704,
      "产": 2705,
      "亨": 2706,
      "亩": 2707,
      "享": 2708,
      "京": 2709,
      "亭": 2710,
      "亮": 2711,
      "亲": 2712,
      "亳": 2713,
      "亶": 2714,
      "人": 2715,
      "亻": 2716,
      "亿": 2717,
      "什": 2718,
      "仁": 2719,
      "仄": 2720,
      "仅": 2721,
      "仆": 2722,
      "仇": 2723,
      "今": 2724,
      "介": 2725,
      "仍": 2726,
      "从": 2727,
      "仏": 2728,
      "仑": 2729,
      "仓": 2730,
      "仔": 2731,
      "仕": 2732,
      "他": 2733,
      "付": 2734,
      "仙": 2735,
      "代": 2736,
      "令": 2737,
      "以": 2738,
      "仧": 2739,
      "仨": 2740,
      "仪": 2741,
      "们": 2742,
      "仮": 2743,
      "仯": 2744,
      "仰": 2745,
      "仲": 2746,
      "件": 2747,
      "价": 2748,
      "任": 2749,
      "份": 2750,
      "仿": 2751,
      "企": 2752,
      "伊": 2753,
      "伍": 2754,
      "伎": 2755,
      "伏": 2756,
      "伐": 2757,
      "休": 2758,
      "众": 2759,
      "优": 2760,
      "伙": 2761,
      "会": 2762,
      "伝": 2763,
      "伟": 2764,
      "传": 2765,
      "伤": 2766,
      "伦": 2767,
      "伪": 2768,
      "伯": 2769,
      "估": 2770,
      "伲": 2771,
      "伴": 2772,
      "伸": 2773,
      "伺": 2774,
      "似": 2775,
      "伽": 2776,
      "但": 2777,
      "佈": 2778,
      "位": 2779,
      "低": 2780,
      "住": 2781,
      "佐": 2782,
      "体": 2783,
      "何": 2784,
      "佗": 2785,
      "佘": 2786,
      "余": 2787,
      "佚": 2788,
      "佛": 2789,
      "作": 2790,
      "佝": 2791,
      "你": 2792,
      "佩": 2793,
      "佫": 2794,
      "佬": 2795,
      "佰": 2796,
      "佳": 2797,
      "併": 2798,
      "使": 2799,
      "來": 2800,
      "例": 2801,
      "侍": 2802,
      "侏": 2803,
      "侗": 2804,
      "供": 2805,
      "依": 2806,
      "侠": 2807,
      "価": 2808,
      "侣": 2809,
      "侦": 2810,
      "侧": 2811,
      "侨": 2812,
      "侫": 2813,
      "侬": 2814,
      "侯": 2815,
      "侵": 2816,
      "便": 2817,
      "係": 2818,
      "促": 2819,
      "俄": 2820,
      "俊": 2821,
      "俏": 2822,
      "俐": 2823,
      "俗": 2824,
      "俘": 2825,
      "俚": 2826,
      "保": 2827,
      "俠": 2828,
      "信": 2829,
      "俣": 2830,
      "俨": 2831,
      "俩": 2832,
      "俪": 2833,
      "修": 2834,
      "俱": 2835,
      "俳": 2836,
      "俺": 2837,
      "倉": 2838,
      "個": 2839,
      "倍": 2840,
      "們": 2841,
      "倒": 2842,
      "倖": 2843,
      "候": 2844,
      "倚": 2845,
      "借": 2846,
      "倡": 2847,
      "値": 2848,
      "倦": 2849,
      "倫": 2850,
      "倭": 2851,
      "倶": 2852,
      "债": 2853,
      "值": 2854,
      "倾": 2855,
      "偃": 2856,
      "假": 2857,
      "偏": 2858,
      "做": 2859,
      "停": 2860,
      "健": 2861,
      "側": 2862,
      "偵": 2863,
      "偶": 2864,
      "偷": 2865,
      "偻": 2866,
      "偽": 2867,
      "偿": 2868,
      "傅": 2869,
      "傈": 2870,
      "傑": 2871,
      "傘": 2872,
      "備": 2873,
      "傣": 2874,
      "储": 2875,
      "催": 2876,
      "傭": 2877,
      "傲": 2878,
      "傳": 2879,
      "債": 2880,
      "傷": 2881,
      "傻": 2882,
      "傾": 2883,
      "僅": 2884,
      "働": 2885,
      "像": 2886,
      "僑": 2887,
      "僕": 2888,
      "僧": 2889,
      "僳": 2890,
      "僵": 2891,
      "價": 2892,
      "僻": 2893,
      "儀": 2894,
      "億": 2895,
      "儋": 2896,
      "償": 2897,
      "優": 2898,
      "儲": 2899,
      "儿": 2900,
      "允": 2901,
      "元": 2902,
      "兄": 2903,
      "充": 2904,
      "兆": 2905,
      "先": 2906,
      "光": 2907,
      "克": 2908,
      "兌": 2909,
      "免": 2910,
      "兎": 2911,
      "児": 2912,
      "兑": 2913,
      "兒": 2914,
      "兔": 2915,
      "兖": 2916,
      "党": 2917,
      "兜": 2918,
      "入": 2919,
      "內": 2920,
      "全": 2921,
      "兩": 2922,
      "八": 2923,
      "公": 2924,
      "六": 2925,
      "兰": 2926,
      "共": 2927,
      "关": 2928,
      "兴": 2929,
      "兵": 2930,
      "其": 2931,
      "具": 2932,
      "典": 2933,
      "兹": 2934,
      "养": 2935,
      "兼": 2936,
      "兽": 2937,
      "冀": 2938,
      "内": 2939,
      "円": 2940,
      "冈": 2941,
      "冊": 2942,
      "册": 2943,
      "再": 2944,
      "冒": 2945,
      "冕": 2946,
      "写": 2947,
      "军": 2948,
      "农": 2949,
      "冠": 2950,
      "冤": 2951,
      "冥": 2952,
      "冫": 2953,
      "冬": 2954,
      "冮": 2955,
      "冯": 2956,
      "冰": 2957,
      "冲": 2958,
      "决": 2959,
      "况": 2960,
      "冶": 2961,
      "冷": 2962,
      "冻": 2963,
      "净": 2964,
      "凄": 2965,
      "准": 2966,
      "凉": 2967,
      "凌": 2968,
      "凍": 2969,
      "减": 2970,
      "凑": 2971,
      "凝": 2972,
      "几": 2973,
      "凡": 2974,
      "凤": 2975,
      "処": 2976,
      "凭": 2977,
      "凯": 2978,
      "凰": 2979,
      "凶": 2980,
      "凸": 2981,
      "出": 2982,
      "击": 2983,
      "函": 2984,
      "凿": 2985,
      "刀": 2986,
      "刃": 2987,
      "分": 2988,
      "切": 2989,
      "刈": 2990,
      "刊": 2991,
      "刑": 2992,
      "划": 2993,
      "列": 2994,
      "刘": 2995,
      "则": 2996,
      "刚": 2997,
      "创": 2998,
      "初": 2999,
      "删": 3000,
      "判": 3001,
      "別": 3002,
      "刨": 3003,
      "利": 3004,
      "别": 3005,
      "刮": 3006,
      "到": 3007,
      "制": 3008,
      "刷": 3009,
      "券": 3010,
      "刺": 3011,
      "刻": 3012,
      "剂": 3013,
      "剃": 3014,
      "則": 3015,
      "削": 3016,
      "剌": 3017,
      "前": 3018,
      "剑": 3019,
      "剔": 3020,
      "剖": 3021,
      "剛": 3022,
      "剣": 3023,
      "剤": 3024,
      "剥": 3025,
      "剧": 3026,
      "剪": 3027,
      "副": 3028,
      "剰": 3029,
      "割": 3030,
      "創": 3031,
      "剿": 3032,
      "劃": 3033,
      "劇": 3034,
      "劉": 3035,
      "劍": 3036,
      "力": 3037,
      "劝": 3038,
      "办": 3039,
      "功": 3040,
      "加": 3041,
      "务": 3042,
      "劣": 3043,
      "动": 3044,
      "助": 3045,
      "努": 3046,
      "励": 3047,
      "劲": 3048,
      "劳": 3049,
      "労": 3050,
      "劵": 3051,
      "効": 3052,
      "势": 3053,
      "勃": 3054,
      "勇": 3055,
      "勉": 3056,
      "勒": 3057,
      "動": 3058,
      "勗": 3059,
      "勘": 3060,
      "務": 3061,
      "勝": 3062,
      "募": 3063,
      "勢": 3064,
      "勤": 3065,
      "勧": 3066,
      "勸": 3067,
      "勺": 3068,
      "勾": 3069,
      "勿": 3070,
      "匀": 3071,
      "匂": 3072,
      "包": 3073,
      "匆": 3074,
      "匈": 3075,
      "化": 3076,
      "北": 3077,
      "匙": 3078,
      "匠": 3079,
      "匪": 3080,
      "匹": 3081,
      "区": 3082,
      "医": 3083,
      "區": 3084,
      "十": 3085,
      "千": 3086,
      "卅": 3087,
      "升": 3088,
      "午": 3089,
      "卉": 3090,
      "半": 3091,
      "华": 3092,
      "协": 3093,
      "卐": 3094,
      "卑": 3095,
      "卒": 3096,
      "卓": 3097,
      "協": 3098,
      "单": 3099,
      "卖": 3100,
      "南": 3101,
      "単": 3102,
      "博": 3103,
      "卜": 3104,
      "占": 3105,
      "卡": 3106,
      "卢": 3107,
      "卣": 3108,
      "卤": 3109,
      "卦": 3110,
      "卫": 3111,
      "印": 3112,
      "危": 3113,
      "即": 3114,
      "却": 3115,
      "卵": 3116,
      "卷": 3117,
      "卸": 3118,
      "卻": 3119,
      "卿": 3120,
      "厂": 3121,
      "厄": 3122,
      "厅": 3123,
      "历": 3124,
      "厉": 3125,
      "压": 3126,
      "厌": 3127,
      "厕": 3128,
      "厘": 3129,
      "厚": 3130,
      "原": 3131,
      "厢": 3132,
      "厥": 3133,
      "厦": 3134,
      "厨": 3135,
      "厳": 3136,
      "去": 3137,
      "县": 3138,
      "叁": 3139,
      "参": 3140,
      "參": 3141,
      "又": 3142,
      "叉": 3143,
      "及": 3144,
      "友": 3145,
      "双": 3146,
      "反": 3147,
      "収": 3148,
      "发": 3149,
      "叔": 3150,
      "取": 3151,
      "受": 3152,
      "变": 3153,
      "叙": 3154,
      "叛": 3155,
      "叟": 3156,
      "叠": 3157,
      "口": 3158,
      "古": 3159,
      "句": 3160,
      "另": 3161,
      "只": 3162,
      "叫": 3163,
      "召": 3164,
      "可": 3165,
      "台": 3166,
      "史": 3167,
      "右": 3168,
      "叶": 3169,
      "号": 3170,
      "司": 3171,
      "叹": 3172,
      "吃": 3173,
      "各": 3174,
      "合": 3175,
      "吉": 3176,
      "吊": 3177,
      "同": 3178,
      "名": 3179,
      "后": 3180,
      "吐": 3181,
      "向": 3182,
      "吕": 3183,
      "吖": 3184,
      "吗": 3185,
      "君": 3186,
      "吞": 3187,
      "吟": 3188,
      "吠": 3189,
      "否": 3190,
      "吧": 3191,
      "吨": 3192,
      "吩": 3193,
      "含": 3194,
      "听": 3195,
      "启": 3196,
      "吱": 3197,
      "吳": 3198,
      "吴": 3199,
      "吸": 3200,
      "吹": 3201,
      "吻": 3202,
      "吾": 3203,
      "呂": 3204,
      "呆": 3205,
      "呈": 3206,
      "告": 3207,
      "呐": 3208,
      "呕": 3209,
      "员": 3210,
      "呛": 3211,
      "呢": 3212,
      "周": 3213,
      "味": 3214,
      "呵": 3215,
      "呼": 3216,
      "命": 3217,
      "咀": 3218,
      "咋": 3219,
      "和": 3220,
      "咎": 3221,
      "咏": 3222,
      "咒": 3223,
      "咕": 3224,
      "咖": 3225,
      "咦": 3226,
      "咨": 3227,
      "咩": 3228,
      "咪": 3229,
      "咯": 3230,
      "咱": 3231,
      "咲": 3232,
      "咳": 3233,
      "咸": 3234,
      "咻": 3235,
      "咽": 3236,
      "哀": 3237,
      "品": 3238,
      "哂": 3239,
      "哄": 3240,
      "哇": 3241,
      "哈": 3242,
      "哉": 3243,
      "响": 3244,
      "員": 3245,
      "哥": 3246,
      "哦": 3247,
      "哪": 3248,
      "哭": 3249,
      "哮": 3250,
      "哲": 3251,
      "哺": 3252,
      "唇": 3253,
      "唐": 3254,
      "唤": 3255,
      "售": 3256,
      "唯": 3257,
      "唱": 3258,
      "唵": 3259,
      "唾": 3260,
      "啄": 3261,
      "商": 3262,
      "啊": 3263,
      "問": 3264,
      "啓": 3265,
      "啟": 3266,
      "啡": 3267,
      "啤": 3268,
      "啥": 3269,
      "啦": 3270,
      "啪": 3271,
      "喀": 3272,
      "喂": 3273,
      "善": 3274,
      "喇": 3275,
      "喉": 3276,
      "喊": 3277,
      "喋": 3278,
      "喘": 3279,
      "喜": 3280,
      "喝": 3281,
      "喧": 3282,
      "喪": 3283,
      "喫": 3284,
      "單": 3285,
      "営": 3286,
      "喷": 3287,
      "喽": 3288,
      "嗎": 3289,
      "嗓": 3290,
      "嗣": 3291,
      "嗯": 3292,
      "嗽": 3293,
      "嘉": 3294,
      "嘎": 3295,
      "嘘": 3296,
      "嘛": 3297,
      "嘲": 3298,
      "嘴": 3299,
      "噌": 3300,
      "噛": 3301,
      "器": 3302,
      "噩": 3303,
      "噪": 3304,
      "噶": 3305,
      "嚇": 3306,
      "嚎": 3307,
      "嚐": 3308,
      "嚒": 3309,
      "嚢": 3310,
      "嚣": 3311,
      "嚯": 3312,
      "嚴": 3313,
      "嚼": 3314,
      "囊": 3315,
      "四": 3316,
      "回": 3317,
      "因": 3318,
      "团": 3319,
      "団": 3320,
      "园": 3321,
      "困": 3322,
      "囲": 3323,
      "図": 3324,
      "围": 3325,
      "固": 3326,
      "国": 3327,
      "图": 3328,
      "圀": 3329,
      "圆": 3330,
      "圈": 3331,
      "國": 3332,
      "圍": 3333,
      "園": 3334,
      "圓": 3335,
      "圖": 3336,
      "團": 3337,
      "土": 3338,
      "圣": 3339,
      "圧": 3340,
      "在": 3341,
      "圭": 3342,
      "地": 3343,
      "圳": 3344,
      "场": 3345,
      "圾": 3346,
      "址": 3347,
      "坂": 3348,
      "均": 3349,
      "坉": 3350,
      "坊": 3351,
      "坏": 3352,
      "坐": 3353,
      "坑": 3354,
      "块": 3355,
      "坚": 3356,
      "坛": 3357,
      "坝": 3358,
      "坟": 3359,
      "坠": 3360,
      "坡": 3361,
      "坦": 3362,
      "坪": 3363,
      "坷": 3364,
      "坻": 3365,
      "垂": 3366,
      "垃": 3367,
      "型": 3368,
      "垠": 3369,
      "垢": 3370,
      "垣": 3371,
      "垦": 3372,
      "垫": 3373,
      "垮": 3374,
      "埃": 3375,
      "埋": 3376,
      "城": 3377,
      "埔": 3378,
      "埗": 3379,
      "域": 3380,
      "埠": 3381,
      "執": 3382,
      "培": 3383,
      "基": 3384,
      "埼": 3385,
      "堀": 3386,
      "堂": 3387,
      "堅": 3388,
      "堆": 3389,
      "堡": 3390,
      "堪": 3391,
      "堰": 3392,
      "報": 3393,
      "場": 3394,
      "堵": 3395,
      "塑": 3396,
      "塔": 3397,
      "塗": 3398,
      "塘": 3399,
      "塚": 3400,
      "塞": 3401,
      "塢": 3402,
      "塩": 3403,
      "填": 3404,
      "塵": 3405,
      "塾": 3406,
      "境": 3407,
      "墅": 3408,
      "墊": 3409,
      "墓": 3410,
      "増": 3411,
      "墙": 3412,
      "增": 3413,
      "墨": 3414,
      "墩": 3415,
      "壁": 3416,
      "壇": 3417,
      "壊": 3418,
      "壕": 3419,
      "壞": 3420,
      "壤": 3421,
      "士": 3422,
      "壬": 3423,
      "壮": 3424,
      "声": 3425,
      "売": 3426,
      "壳": 3427,
      "壶": 3428,
      "壹": 3429,
      "壺": 3430,
      "壽": 3431,
      "处": 3432,
      "备": 3433,
      "変": 3434,
      "复": 3435,
      "夏": 3436,
      "夕": 3437,
      "外": 3438,
      "多": 3439,
      "夜": 3440,
      "够": 3441,
      "夠": 3442,
      "夢": 3443,
      "大": 3444,
      "天": 3445,
      "太": 3446,
      "夫": 3447,
      "夭": 3448,
      "央": 3449,
      "失": 3450,
      "头": 3451,
      "夷": 3452,
      "夸": 3453,
      "夹": 3454,
      "夺": 3455,
      "夼": 3456,
      "奇": 3457,
      "奈": 3458,
      "奉": 3459,
      "奋": 3460,
      "奎": 3461,
      "奏": 3462,
      "契": 3463,
      "奔": 3464,
      "奕": 3465,
      "奖": 3466,
      "套": 3467,
      "奘": 3468,
      "奠": 3469,
      "奢": 3470,
      "奥": 3471,
      "奧": 3472,
      "奨": 3473,
      "奮": 3474,
      "女": 3475,
      "奴": 3476,
      "奶": 3477,
      "奸": 3478,
      "她": 3479,
      "好": 3480,
      "如": 3481,
      "妃": 3482,
      "妄": 3483,
      "妆": 3484,
      "妇": 3485,
      "妈": 3486,
      "妊": 3487,
      "妓": 3488,
      "妖": 3489,
      "妙": 3490,
      "妞": 3491,
      "妥": 3492,
      "妨": 3493,
      "妮": 3494,
      "妹": 3495,
      "妻": 3496,
      "姆": 3497,
      "姉": 3498,
      "姊": 3499,
      "始": 3500,
      "姐": 3501,
      "姑": 3502,
      "姒": 3503,
      "姓": 3504,
      "委": 3505,
      "姘": 3506,
      "姚": 3507,
      "姜": 3508,
      "姣": 3509,
      "姦": 3510,
      "姨": 3511,
      "姪": 3512,
      "姫": 3513,
      "姬": 3514,
      "姻": 3515,
      "姿": 3516,
      "威": 3517,
      "娃": 3518,
      "娄": 3519,
      "娇": 3520,
      "娘": 3521,
      "娛": 3522,
      "娜": 3523,
      "娟": 3524,
      "娠": 3525,
      "娣": 3526,
      "娥": 3527,
      "娩": 3528,
      "娱": 3529,
      "娶": 3530,
      "婆": 3531,
      "婚": 3532,
      "婦": 3533,
      "婲": 3534,
      "婴": 3535,
      "婷": 3536,
      "婺": 3537,
      "婽": 3538,
      "媒": 3539,
      "媛": 3540,
      "媲": 3541,
      "媽": 3542,
      "嫁": 3543,
      "嫂": 3544,
      "嫌": 3545,
      "嫘": 3546,
      "嫡": 3547,
      "嫣": 3548,
      "嫦": 3549,
      "嫩": 3550,
      "嬉": 3551,
      "嬢": 3552,
      "嬴": 3553,
      "子": 3554,
      "孔": 3555,
      "孕": 3556,
      "孖": 3557,
      "字": 3558,
      "存": 3559,
      "孙": 3560,
      "孚": 3561,
      "孜": 3562,
      "孝": 3563,
      "孟": 3564,
      "季": 3565,
      "孤": 3566,
      "学": 3567,
      "孩": 3568,
      "孵": 3569,
      "學": 3570,
      "孽": 3571,
      "宁": 3572,
      "它": 3573,
      "宅": 3574,
      "宇": 3575,
      "守": 3576,
      "安": 3577,
      "宋": 3578,
      "完": 3579,
      "宏": 3580,
      "宕": 3581,
      "宗": 3582,
      "官": 3583,
      "宙": 3584,
      "定": 3585,
      "宜": 3586,
      "宝": 3587,
      "实": 3588,
      "実": 3589,
      "宠": 3590,
      "审": 3591,
      "客": 3592,
      "宣": 3593,
      "室": 3594,
      "宪": 3595,
      "宫": 3596,
      "宮": 3597,
      "宰": 3598,
      "害": 3599,
      "宴": 3600,
      "家": 3601,
      "宸": 3602,
      "容": 3603,
      "宽": 3604,
      "宾": 3605,
      "宿": 3606,
      "寂": 3607,
      "寄": 3608,
      "寅": 3609,
      "密": 3610,
      "富": 3611,
      "寐": 3612,
      "寒": 3613,
      "寓": 3614,
      "寛": 3615,
      "寝": 3616,
      "寞": 3617,
      "察": 3618,
      "寡": 3619,
      "寤": 3620,
      "實": 3621,
      "寧": 3622,
      "寨": 3623,
      "審": 3624,
      "寫": 3625,
      "寬": 3626,
      "寮": 3627,
      "寰": 3628,
      "寶": 3629,
      "寸": 3630,
      "对": 3631,
      "寺": 3632,
      "寻": 3633,
      "导": 3634,
      "対": 3635,
      "寿": 3636,
      "封": 3637,
      "専": 3638,
      "射": 3639,
      "将": 3640,
      "將": 3641,
      "專": 3642,
      "尉": 3643,
      "尊": 3644,
      "尋": 3645,
      "對": 3646,
      "導": 3647,
      "小": 3648,
      "少": 3649,
      "尔": 3650,
      "尖": 3651,
      "尘": 3652,
      "尚": 3653,
      "尝": 3654,
      "尤": 3655,
      "就": 3656,
      "尹": 3657,
      "尺": 3658,
      "尻": 3659,
      "尼": 3660,
      "尽": 3661,
      "尾": 3662,
      "尿": 3663,
      "局": 3664,
      "屁": 3665,
      "层": 3666,
      "居": 3667,
      "屈": 3668,
      "届": 3669,
      "屋": 3670,
      "屍": 3671,
      "屎": 3672,
      "屏": 3673,
      "屑": 3674,
      "展": 3675,
      "属": 3676,
      "屠": 3677,
      "屡": 3678,
      "層": 3679,
      "履": 3680,
      "屬": 3681,
      "屯": 3682,
      "山": 3683,
      "屹": 3684,
      "屿": 3685,
      "岁": 3686,
      "岐": 3687,
      "岑": 3688,
      "岗": 3689,
      "岚": 3690,
      "岛": 3691,
      "岡": 3692,
      "岩": 3693,
      "岫": 3694,
      "岭": 3695,
      "岱": 3696,
      "岳": 3697,
      "岵": 3698,
      "岷": 3699,
      "岸": 3700,
      "岻": 3701,
      "岿": 3702,
      "峒": 3703,
      "峠": 3704,
      "峡": 3705,
      "峥": 3706,
      "峨": 3707,
      "峪": 3708,
      "峰": 3709,
      "峳": 3710,
      "島": 3711,
      "峻": 3712,
      "崃": 3713,
      "崇": 3714,
      "崎": 3715,
      "崑": 3716,
      "崔": 3717,
      "崙": 3718,
      "崛": 3719,
      "崭": 3720,
      "崽": 3721,
      "嵇": 3722,
      "嵌": 3723,
      "嵐": 3724,
      "嵘": 3725,
      "嵩": 3726,
      "嶝": 3727,
      "嶥": 3728,
      "嶨": 3729,
      "嶺": 3730,
      "嶼": 3731,
      "巌": 3732,
      "川": 3733,
      "州": 3734,
      "巡": 3735,
      "巢": 3736,
      "巣": 3737,
      "工": 3738,
      "左": 3739,
      "巧": 3740,
      "巨": 3741,
      "巩": 3742,
      "巫": 3743,
      "差": 3744,
      "己": 3745,
      "已": 3746,
      "巳": 3747,
      "巴": 3748,
      "巻": 3749,
      "巽": 3750,
      "币": 3751,
      "市": 3752,
      "布": 3753,
      "帅": 3754,
      "师": 3755,
      "希": 3756,
      "帐": 3757,
      "帕": 3758,
      "帖": 3759,
      "帘": 3760,
      "帝": 3761,
      "帣": 3762,
      "带": 3763,
      "帧": 3764,
      "師": 3765,
      "席": 3766,
      "帮": 3767,
      "帯": 3768,
      "帰": 3769,
      "帳": 3770,
      "帶": 3771,
      "帷": 3772,
      "常": 3773,
      "帽": 3774,
      "幂": 3775,
      "幅": 3776,
      "幌": 3777,
      "幔": 3778,
      "幕": 3779,
      "幣": 3780,
      "幫": 3781,
      "干": 3782,
      "平": 3783,
      "年": 3784,
      "并": 3785,
      "幸": 3786,
      "幹": 3787,
      "幻": 3788,
      "幼": 3789,
      "幽": 3790,
      "幾": 3791,
      "广": 3792,
      "庁": 3793,
      "広": 3794,
      "庄": 3795,
      "庆": 3796,
      "庇": 3797,
      "床": 3798,
      "序": 3799,
      "庐": 3800,
      "库": 3801,
      "应": 3802,
      "底": 3803,
      "店": 3804,
      "庙": 3805,
      "府": 3806,
      "庞": 3807,
      "废": 3808,
      "庥": 3809,
      "度": 3810,
      "座": 3811,
      "庫": 3812,
      "庭": 3813,
      "庵": 3814,
      "庶": 3815,
      "康": 3816,
      "庸": 3817,
      "廃": 3818,
      "廈": 3819,
      "廉": 3820,
      "廊": 3821,
      "廚": 3822,
      "廠": 3823,
      "廢": 3824,
      "廣": 3825,
      "廳": 3826,
      "延": 3827,
      "廷": 3828,
      "建": 3829,
      "廿": 3830,
      "开": 3831,
      "弁": 3832,
      "异": 3833,
      "弃": 3834,
      "弄": 3835,
      "弈": 3836,
      "弊": 3837,
      "式": 3838,
      "弓": 3839,
      "引": 3840,
      "弗": 3841,
      "弘": 3842,
      "弟": 3843,
      "张": 3844,
      "弥": 3845,
      "弦": 3846,
      "弧": 3847,
      "弯": 3848,
      "弰": 3849,
      "弱": 3850,
      "張": 3851,
      "強": 3852,
      "弹": 3853,
      "强": 3854,
      "弼": 3855,
      "弾": 3856,
      "归": 3857,
      "当": 3858,
      "录": 3859,
      "彙": 3860,
      "彝": 3861,
      "彡": 3862,
      "形": 3863,
      "彦": 3864,
      "彩": 3865,
      "彫": 3866,
      "彬": 3867,
      "彭": 3868,
      "彰": 3869,
      "影": 3870,
      "役": 3871,
      "彻": 3872,
      "彼": 3873,
      "往": 3874,
      "征": 3875,
      "径": 3876,
      "待": 3877,
      "很": 3878,
      "徊": 3879,
      "律": 3880,
      "後": 3881,
      "徐": 3882,
      "徑": 3883,
      "徒": 3884,
      "従": 3885,
      "得": 3886,
      "從": 3887,
      "御": 3888,
      "復": 3889,
      "循": 3890,
      "微": 3891,
      "徳": 3892,
      "徴": 3893,
      "徵": 3894,
      "德": 3895,
      "徹": 3896,
      "徽": 3897,
      "心": 3898,
      "必": 3899,
      "忆": 3900,
      "忌": 3901,
      "忍": 3902,
      "志": 3903,
      "忘": 3904,
      "忙": 3905,
      "応": 3906,
      "忠": 3907,
      "忧": 3908,
      "忨": 3909,
      "忪": 3910,
      "快": 3911,
      "忮": 3912,
      "忱": 3913,
      "念": 3914,
      "忻": 3915,
      "忽": 3916,
      "忿": 3917,
      "怀": 3918,
      "态": 3919,
      "怎": 3920,
      "怏": 3921,
      "怒": 3922,
      "怔": 3923,
      "怕": 3924,
      "怖": 3925,
      "怜": 3926,
      "思": 3927,
      "怠": 3928,
      "怡": 3929,
      "急": 3930,
      "性": 3931,
      "怨": 3932,
      "怪": 3933,
      "怯": 3934,
      "总": 3935,
      "怼": 3936,
      "恋": 3937,
      "恍": 3938,
      "恐": 3939,
      "恒": 3940,
      "恕": 3941,
      "恙": 3942,
      "恢": 3943,
      "恥": 3944,
      "恩": 3945,
      "恪": 3946,
      "恫": 3947,
      "恭": 3948,
      "息": 3949,
      "恰": 3950,
      "恵": 3951,
      "恶": 3952,
      "恼": 3953,
      "恿": 3954,
      "悄": 3955,
      "悉": 3956,
      "悍": 3957,
      "悔": 3958,
      "悚": 3959,
      "悟": 3960,
      "悠": 3961,
      "患": 3962,
      "悦": 3963,
      "您": 3964,
      "悩": 3965,
      "悪": 3966,
      "悬": 3967,
      "悲": 3968,
      "悶": 3969,
      "悸": 3970,
      "悼": 3971,
      "情": 3972,
      "惊": 3973,
      "惋": 3974,
      "惑": 3975,
      "惜": 3976,
      "惠": 3977,
      "惣": 3978,
      "惧": 3979,
      "惨": 3980,
      "惩": 3981,
      "惫": 3982,
      "惬": 3983,
      "惭": 3984,
      "惮": 3985,
      "惯": 3986,
      "想": 3987,
      "惶": 3988,
      "惹": 3989,
      "愁": 3990,
      "愈": 3991,
      "愉": 3992,
      "意": 3993,
      "愕": 3994,
      "愛": 3995,
      "感": 3996,
      "愤": 3997,
      "愧": 3998,
      "愿": 3999,
      "慈": 4000,
      "態": 4001,
      "慌": 4002,
      "慎": 4003,
      "慕": 4004,
      "慢": 4005,
      "慣": 4006,
      "慧": 4007,
      "慨": 4008,
      "慮": 4009,
      "慰": 4010,
      "慱": 4011,
      "慶": 4012,
      "憎": 4013,
      "憩": 4014,
      "憶": 4015,
      "憾": 4016,
      "懂": 4017,
      "懇": 4018,
      "懈": 4019,
      "應": 4020,
      "懐": 4021,
      "懒": 4022,
      "懲": 4023,
      "懵": 4024,
      "懷": 4025,
      "懸": 4026,
      "戈": 4027,
      "戊": 4028,
      "戌": 4029,
      "戏": 4030,
      "成": 4031,
      "我": 4032,
      "戒": 4033,
      "或": 4034,
      "战": 4035,
      "戚": 4036,
      "戦": 4037,
      "截": 4038,
      "戯": 4039,
      "戰": 4040,
      "戲": 4041,
      "戴": 4042,
      "戶": 4043,
      "户": 4044,
      "戸": 4045,
      "戻": 4046,
      "房": 4047,
      "所": 4048,
      "扁": 4049,
      "扇": 4050,
      "扉": 4051,
      "手": 4052,
      "才": 4053,
      "扎": 4054,
      "扑": 4055,
      "打": 4056,
      "払": 4057,
      "托": 4058,
      "扛": 4059,
      "扣": 4060,
      "执": 4061,
      "扩": 4062,
      "扫": 4063,
      "扬": 4064,
      "扭": 4065,
      "扮": 4066,
      "扯": 4067,
      "扰": 4068,
      "扱": 4069,
      "扶": 4070,
      "批": 4071,
      "扼": 4072,
      "找": 4073,
      "承": 4074,
      "技": 4075,
      "抄": 4076,
      "把": 4077,
      "抑": 4078,
      "抓": 4079,
      "投": 4080,
      "抖": 4081,
      "抗": 4082,
      "折": 4083,
      "抚": 4084,
      "抛": 4085,
      "抜": 4086,
      "択": 4087,
      "抠": 4088,
      "抢": 4089,
      "护": 4090,
      "报": 4091,
      "披": 4092,
      "抱": 4093,
      "抵": 4094,
      "抹": 4095,
      "押": 4096,
      "抽": 4097,
      "拂": 4098,
      "担": 4099,
      "拆": 4100,
      "拉": 4101,
      "拍": 4102,
      "拒": 4103,
      "拓": 4104,
      "拔": 4105,
      "拖": 4106,
      "拘": 4107,
      "拙": 4108,
      "招": 4109,
      "拜": 4110,
      "拝": 4111,
      "拟": 4112,
      "拠": 4113,
      "拡": 4114,
      "拢": 4115,
      "拣": 4116,
      "拥": 4117,
      "拨": 4118,
      "择": 4119,
      "括": 4120,
      "拯": 4121,
      "拳": 4122,
      "拴": 4123,
      "拶": 4124,
      "拷": 4125,
      "拼": 4126,
      "拽": 4127,
      "拾": 4128,
      "拿": 4129,
      "持": 4130,
      "挂": 4131,
      "指": 4132,
      "按": 4133,
      "挑": 4134,
      "挖": 4135,
      "挙": 4136,
      "挟": 4137,
      "挠": 4138,
      "挡": 4139,
      "挣": 4140,
      "挤": 4141,
      "挥": 4142,
      "挨": 4143,
      "挪": 4144,
      "挫": 4145,
      "振": 4146,
      "挺": 4147,
      "挽": 4148,
      "挿": 4149,
      "捅": 4150,
      "捉": 4151,
      "捏": 4152,
      "捐": 4153,
      "捕": 4154,
      "捜": 4155,
      "捞": 4156,
      "损": 4157,
      "捡": 4158,
      "换": 4159,
      "捣": 4160,
      "捨": 4161,
      "据": 4162,
      "捲": 4163,
      "捷": 4164,
      "掀": 4165,
      "掂": 4166,
      "掃": 4167,
      "授": 4168,
      "掉": 4169,
      "掌": 4170,
      "排": 4171,
      "掖": 4172,
      "掘": 4173,
      "掛": 4174,
      "掠": 4175,
      "採": 4176,
      "探": 4177,
      "接": 4178,
      "控": 4179,
      "推": 4180,
      "掩": 4181,
      "措": 4182,
      "掲": 4183,
      "掳": 4184,
      "掸": 4185,
      "揃": 4186,
      "揉": 4187,
      "揍": 4188,
      "描": 4189,
      "提": 4190,
      "插": 4191,
      "換": 4192,
      "握": 4193,
      "揣": 4194,
      "揭": 4195,
      "揮": 4196,
      "援": 4197,
      "搁": 4198,
      "搂": 4199,
      "搅": 4200,
      "損": 4201,
      "搏": 4202,
      "搐": 4203,
      "搜": 4204,
      "搞": 4205,
      "搬": 4206,
      "搭": 4207,
      "搶": 4208,
      "携": 4209,
      "搾": 4210,
      "摂": 4211,
      "摄": 4212,
      "摆": 4213,
      "摇": 4214,
      "摊": 4215,
      "摔": 4216,
      "摘": 4217,
      "摩": 4218,
      "摳": 4219,
      "摸": 4220,
      "撃": 4221,
      "撐": 4222,
      "撑": 4223,
      "撕": 4224,
      "撞": 4225,
      "撫": 4226,
      "播": 4227,
      "撮": 4228,
      "撰": 4229,
      "撲": 4230,
      "撸": 4231,
      "撼": 4232,
      "擁": 4233,
      "擅": 4234,
      "擇": 4235,
      "擊": 4236,
      "擋": 4237,
      "操": 4238,
      "擎": 4239,
      "擔": 4240,
      "據": 4241,
      "擢": 4242,
      "擦": 4243,
      "擬": 4244,
      "擴": 4245,
      "攀": 4246,
      "攏": 4247,
      "攒": 4248,
      "攝": 4249,
      "攤": 4250,
      "支": 4251,
      "收": 4252,
      "改": 4253,
      "攻": 4254,
      "放": 4255,
      "政": 4256,
      "故": 4257,
      "效": 4258,
      "敌": 4259,
      "敏": 4260,
      "救": 4261,
      "敖": 4262,
      "敗": 4263,
      "教": 4264,
      "敛": 4265,
      "敞": 4266,
      "敢": 4267,
      "散": 4268,
      "敦": 4269,
      "敬": 4270,
      "数": 4271,
      "敲": 4272,
      "整": 4273,
      "敵": 4274,
      "敷": 4275,
      "數": 4276,
      "文": 4277,
      "斉": 4278,
      "斌": 4279,
      "斎": 4280,
      "斐": 4281,
      "斑": 4282,
      "斗": 4283,
      "料": 4284,
      "斜": 4285,
      "斤": 4286,
      "斥": 4287,
      "斧": 4288,
      "斩": 4289,
      "斫": 4290,
      "断": 4291,
      "斯": 4292,
      "新": 4293,
      "斷": 4294,
      "方": 4295,
      "於": 4296,
      "施": 4297,
      "旁": 4298,
      "旃": 4299,
      "旅": 4300,
      "旋": 4301,
      "旌": 4302,
      "族": 4303,
      "旗": 4304,
      "无": 4305,
      "既": 4306,
      "日": 4307,
      "旦": 4308,
      "旧": 4309,
      "旨": 4310,
      "早": 4311,
      "旬": 4312,
      "旭": 4313,
      "时": 4314,
      "旺": 4315,
      "昂": 4316,
      "昆": 4317,
      "昊": 4318,
      "昌": 4319,
      "明": 4320,
      "昏": 4321,
      "易": 4322,
      "昔": 4323,
      "昕": 4324,
      "星": 4325,
      "映": 4326,
      "春": 4327,
      "昧": 4328,
      "昨": 4329,
      "昭": 4330,
      "是": 4331,
      "昼": 4332,
      "显": 4333,
      "時": 4334,
      "晃": 4335,
      "晉": 4336,
      "晋": 4337,
      "晏": 4338,
      "晒": 4339,
      "晓": 4340,
      "晕": 4341,
      "晖": 4342,
      "晚": 4343,
      "晟": 4344,
      "晤": 4345,
      "晦": 4346,
      "晨": 4347,
      "晩": 4348,
      "普": 4349,
      "景": 4350,
      "晰": 4351,
      "晴": 4352,
      "晶": 4353,
      "智": 4354,
      "晾": 4355,
      "暁": 4356,
      "暂": 4357,
      "暇": 4358,
      "暑": 4359,
      "暖": 4360,
      "暗": 4361,
      "暢": 4362,
      "暧": 4363,
      "暨": 4364,
      "暫": 4365,
      "暮": 4366,
      "暴": 4367,
      "曆": 4368,
      "曇": 4369,
      "曙": 4370,
      "曜": 4371,
      "曝": 4372,
      "曲": 4373,
      "曳": 4374,
      "更": 4375,
      "書": 4376,
      "曹": 4377,
      "曼": 4378,
      "曽": 4379,
      "曾": 4380,
      "替": 4381,
      "最": 4382,
      "會": 4383,
      "月": 4384,
      "有": 4385,
      "朋": 4386,
      "服": 4387,
      "朔": 4388,
      "朗": 4389,
      "望": 4390,
      "朝": 4391,
      "期": 4392,
      "木": 4393,
      "未": 4394,
      "末": 4395,
      "本": 4396,
      "札": 4397,
      "术": 4398,
      "朱": 4399,
      "朴": 4400,
      "朵": 4401,
      "机": 4402,
      "朽": 4403,
      "杀": 4404,
      "杂": 4405,
      "权": 4406,
      "杆": 4407,
      "杉": 4408,
      "李": 4409,
      "杏": 4410,
      "材": 4411,
      "村": 4412,
      "杜": 4413,
      "杞": 4414,
      "束": 4415,
      "杠": 4416,
      "条": 4417,
      "来": 4418,
      "杨": 4419,
      "杩": 4420,
      "杭": 4421,
      "杯": 4422,
      "杰": 4423,
      "東": 4424,
      "杲": 4425,
      "松": 4426,
      "板": 4427,
      "极": 4428,
      "构": 4429,
      "析": 4430,
      "枕": 4431,
      "林": 4432,
      "枚": 4433,
      "果": 4434,
      "枝": 4435,
      "枞": 4436,
      "枠": 4437,
      "枢": 4438,
      "枣": 4439,
      "枫": 4440,
      "枯": 4441,
      "架": 4442,
      "枷": 4443,
      "枸": 4444,
      "柄": 4445,
      "柏": 4446,
      "某": 4447,
      "柒": 4448,
      "染": 4449,
      "柔": 4450,
      "柜": 4451,
      "柞": 4452,
      "柠": 4453,
      "查": 4454,
      "柯": 4455,
      "柱": 4456,
      "柳": 4457,
      "柴": 4458,
      "査": 4459,
      "栃": 4460,
      "栄": 4461,
      "标": 4462,
      "栉": 4463,
      "栋": 4464,
      "栏": 4465,
      "树": 4466,
      "栓": 4467,
      "栖": 4468,
      "栗": 4469,
      "校": 4470,
      "栩": 4471,
      "株": 4472,
      "样": 4473,
      "核": 4474,
      "根": 4475,
      "格": 4476,
      "栽": 4477,
      "栾": 4478,
      "桂": 4479,
      "桃": 4480,
      "框": 4481,
      "案": 4482,
      "桌": 4483,
      "桐": 4484,
      "桑": 4485,
      "桓": 4486,
      "桔": 4487,
      "桜": 4488,
      "档": 4489,
      "桥": 4490,
      "桦": 4491,
      "桩": 4492,
      "桴": 4493,
      "桶": 4494,
      "桷": 4495,
      "桿": 4496,
      "梁": 4497,
      "梅": 4498,
      "梓": 4499,
      "梗": 4500,
      "條": 4501,
      "梢": 4502,
      "梦": 4503,
      "梧": 4504,
      "梨": 4505,
      "梭": 4506,
      "梯": 4507,
      "械": 4508,
      "梱": 4509,
      "梳": 4510,
      "梵": 4511,
      "检": 4512,
      "棄": 4513,
      "棉": 4514,
      "棋": 4515,
      "棒": 4516,
      "棘": 4517,
      "棚": 4518,
      "棟": 4519,
      "森": 4520,
      "棰": 4521,
      "棱": 4522,
      "棵": 4523,
      "椀": 4524,
      "椅": 4525,
      "椋": 4526,
      "植": 4527,
      "椎": 4528,
      "椒": 4529,
      "検": 4530,
      "椤": 4531,
      "椭": 4532,
      "椰": 4533,
      "椽": 4534,
      "楊": 4535,
      "楓": 4536,
      "楚": 4537,
      "楞": 4538,
      "楠": 4539,
      "楢": 4540,
      "業": 4541,
      "極": 4542,
      "楷": 4543,
      "楼": 4544,
      "楽": 4545,
      "概": 4546,
      "榄": 4547,
      "榆": 4548,
      "榇": 4549,
      "榉": 4550,
      "榊": 4551,
      "榕": 4552,
      "榜": 4553,
      "榨": 4554,
      "榴": 4555,
      "榻": 4556,
      "構": 4557,
      "槐": 4558,
      "様": 4559,
      "槟": 4560,
      "槭": 4561,
      "槻": 4562,
      "槽": 4563,
      "槾": 4564,
      "槿": 4565,
      "樂": 4566,
      "樊": 4567,
      "樓": 4568,
      "標": 4569,
      "樟": 4570,
      "模": 4571,
      "樣": 4572,
      "権": 4573,
      "横": 4574,
      "樹": 4575,
      "樽": 4576,
      "橄": 4577,
      "橋": 4578,
      "橙": 4579,
      "機": 4580,
      "橡": 4581,
      "橱": 4582,
      "橹": 4583,
      "檔": 4584,
      "檢": 4585,
      "檬": 4586,
      "欠": 4587,
      "次": 4588,
      "欢": 4589,
      "欣": 4590,
      "欧": 4591,
      "欲": 4592,
      "欺": 4593,
      "款": 4594,
      "歇": 4595,
      "歉": 4596,
      "歌": 4597,
      "歐": 4598,
      "歓": 4599,
      "歡": 4600,
      "止": 4601,
      "正": 4602,
      "此": 4603,
      "步": 4604,
      "武": 4605,
      "歧": 4606,
      "歩": 4607,
      "歯": 4608,
      "歲": 4609,
      "歳": 4610,
      "歴": 4611,
      "歷": 4612,
      "歸": 4613,
      "歹": 4614,
      "死": 4615,
      "殆": 4616,
      "殇": 4617,
      "殊": 4618,
      "残": 4619,
      "殖": 4620,
      "殴": 4621,
      "段": 4622,
      "殷": 4623,
      "殺": 4624,
      "殻": 4625,
      "殿": 4626,
      "毁": 4627,
      "毅": 4628,
      "母": 4629,
      "毎": 4630,
      "每": 4631,
      "毒": 4632,
      "比": 4633,
      "毕": 4634,
      "毗": 4635,
      "毛": 4636,
      "毫": 4637,
      "毯": 4638,
      "氏": 4639,
      "氐": 4640,
      "民": 4641,
      "气": 4642,
      "気": 4643,
      "氛": 4644,
      "氟": 4645,
      "氡": 4646,
      "氢": 4647,
      "氣": 4648,
      "氧": 4649,
      "氨": 4650,
      "氮": 4651,
      "氲": 4652,
      "水": 4653,
      "氵": 4654,
      "氷": 4655,
      "永": 4656,
      "汀": 4657,
      "汁": 4658,
      "求": 4659,
      "汇": 4660,
      "汉": 4661,
      "汎": 4662,
      "汕": 4663,
      "汗": 4664,
      "汚": 4665,
      "汛": 4666,
      "汝": 4667,
      "汞": 4668,
      "江": 4669,
      "池": 4670,
      "污": 4671,
      "汤": 4672,
      "汦": 4673,
      "汨": 4674,
      "汪": 4675,
      "汰": 4676,
      "汱": 4677,
      "汶": 4678,
      "決": 4679,
      "汽": 4680,
      "汾": 4681,
      "沁": 4682,
      "沂": 4683,
      "沃": 4684,
      "沅": 4685,
      "沈": 4686,
      "沉": 4687,
      "沌": 4688,
      "沐": 4689,
      "沒": 4690,
      "沖": 4691,
      "沙": 4692,
      "沛": 4693,
      "沟": 4694,
      "没": 4695,
      "沢": 4696,
      "沥": 4697,
      "沧": 4698,
      "沨": 4699,
      "沪": 4700,
      "沫": 4701,
      "沭": 4702,
      "河": 4703,
      "沸": 4704,
      "油": 4705,
      "治": 4706,
      "沼": 4707,
      "沽": 4708,
      "沿": 4709,
      "況": 4710,
      "泄": 4711,
      "泉": 4712,
      "泊": 4713,
      "泌": 4714,
      "法": 4715,
      "泗": 4716,
      "泛": 4717,
      "泡": 4718,
      "波": 4719,
      "泣": 4720,
      "泥": 4721,
      "注": 4722,
      "泪": 4723,
      "泰": 4724,
      "泳": 4725,
      "泵": 4726,
      "泸": 4727,
      "泻": 4728,
      "泼": 4729,
      "泽": 4730,
      "泾": 4731,
      "洁": 4732,
      "洋": 4733,
      "洌": 4734,
      "洒": 4735,
      "洗": 4736,
      "洙": 4737,
      "洛": 4738,
      "洞": 4739,
      "津": 4740,
      "洪": 4741,
      "洫": 4742,
      "洮": 4743,
      "洱": 4744,
      "洲": 4745,
      "活": 4746,
      "洼": 4747,
      "洽": 4748,
      "派": 4749,
      "流": 4750,
      "浄": 4751,
      "浅": 4752,
      "浆": 4753,
      "浇": 4754,
      "浊": 4755,
      "测": 4756,
      "济": 4757,
      "浏": 4758,
      "浑": 4759,
      "浓": 4760,
      "浔": 4761,
      "浙": 4762,
      "浜": 4763,
      "浠": 4764,
      "浣": 4765,
      "浦": 4766,
      "浩": 4767,
      "浪": 4768,
      "浮": 4769,
      "浱": 4770,
      "浴": 4771,
      "海": 4772,
      "浸": 4773,
      "涂": 4774,
      "消": 4775,
      "涉": 4776,
      "涌": 4777,
      "涓": 4778,
      "涔": 4779,
      "涙": 4780,
      "涛": 4781,
      "涞": 4782,
      "涟": 4783,
      "涡": 4784,
      "涤": 4785,
      "润": 4786,
      "涧": 4787,
      "涨": 4788,
      "涩": 4789,
      "涪": 4790,
      "涫": 4791,
      "涮": 4792,
      "涯": 4793,
      "液": 4794,
      "涵": 4795,
      "涼": 4796,
      "涿": 4797,
      "淀": 4798,
      "淄": 4799,
      "淇": 4800,
      "淋": 4801,
      "淌": 4802,
      "淖": 4803,
      "淘": 4804,
      "淝": 4805,
      "淡": 4806,
      "淢": 4807,
      "淨": 4808,
      "淫": 4809,
      "淮": 4810,
      "深": 4811,
      "淳": 4812,
      "淴": 4813,
      "混": 4814,
      "淺": 4815,
      "添": 4816,
      "清": 4817,
      "済": 4818,
      "渉": 4819,
      "渊": 4820,
      "渋": 4821,
      "渐": 4822,
      "渑": 4823,
      "渓": 4824,
      "渔": 4825,
      "渕": 4826,
      "渗": 4827,
      "渚": 4828,
      "減": 4829,
      "渝": 4830,
      "渠": 4831,
      "渡": 4832,
      "渣": 4833,
      "渤": 4834,
      "温": 4835,
      "測": 4836,
      "渭": 4837,
      "港": 4838,
      "渴": 4839,
      "游": 4840,
      "渺": 4841,
      "渻": 4842,
      "湃": 4843,
      "湖": 4844,
      "湘": 4845,
      "湛": 4846,
      "湟": 4847,
      "湯": 4848,
      "湷": 4849,
      "湾": 4850,
      "湿": 4851,
      "満": 4852,
      "溃": 4853,
      "溆": 4854,
      "溉": 4855,
      "溏": 4856,
      "源": 4857,
      "準": 4858,
      "溜": 4859,
      "溢": 4860,
      "溧": 4861,
      "溪": 4862,
      "溫": 4863,
      "溯": 4864,
      "溴": 4865,
      "溶": 4866,
      "滁": 4867,
      "滅": 4868,
      "滇": 4869,
      "滋": 4870,
      "滑": 4871,
      "滔": 4872,
      "滕": 4873,
      "滚": 4874,
      "滝": 4875,
      "滞": 4876,
      "满": 4877,
      "滤": 4878,
      "滥": 4879,
      "滨": 4880,
      "滩": 4881,
      "滮": 4882,
      "滴": 4883,
      "滾": 4884,
      "滿": 4885,
      "漁": 4886,
      "漂": 4887,
      "漆": 4888,
      "漏": 4889,
      "演": 4890,
      "漕": 4891,
      "漠": 4892,
      "漢": 4893,
      "漫": 4894,
      "漬": 4895,
      "漯": 4896,
      "漱": 4897,
      "漳": 4898,
      "漸": 4899,
      "漾": 4900,
      "潍": 4901,
      "潔": 4902,
      "潘": 4903,
      "潜": 4904,
      "潟": 4905,
      "潢": 4906,
      "潤": 4907,
      "潦": 4908,
      "潭": 4909,
      "潮": 4910,
      "潰": 4911,
      "潸": 4912,
      "潼": 4913,
      "澄": 4914,
      "澈": 4915,
      "澎": 4916,
      "澜": 4917,
      "澤": 4918,
      "澧": 4919,
      "澫": 4920,
      "澭": 4921,
      "澳": 4922,
      "澶": 4923,
      "激": 4924,
      "濂": 4925,
      "濃": 4926,
      "濉": 4927,
      "濕": 4928,
      "濞": 4929,
      "濟": 4930,
      "濠": 4931,
      "濡": 4932,
      "濤": 4933,
      "濪": 4934,
      "濫": 4935,
      "濮": 4936,
      "濯": 4937,
      "濱": 4938,
      "濴": 4939,
      "瀏": 4940,
      "瀑": 4941,
      "瀚": 4942,
      "瀛": 4943,
      "瀬": 4944,
      "瀵": 4945,
      "瀹": 4946,
      "灌": 4947,
      "灏": 4948,
      "灘": 4949,
      "灣": 4950,
      "火": 4951,
      "灭": 4952,
      "灯": 4953,
      "灰": 4954,
      "灵": 4955,
      "灶": 4956,
      "灸": 4957,
      "災": 4958,
      "灾": 4959,
      "炉": 4960,
      "炊": 4961,
      "炎": 4962,
      "炒": 4963,
      "炔": 4964,
      "炫": 4965,
      "炭": 4966,
      "炮": 4967,
      "炳": 4968,
      "炷": 4969,
      "炸": 4970,
      "点": 4971,
      "為": 4972,
      "炼": 4973,
      "烁": 4974,
      "烈": 4975,
      "烏": 4976,
      "烘": 4977,
      "烟": 4978,
      "烤": 4979,
      "烦": 4980,
      "烧": 4981,
      "烩": 4982,
      "烫": 4983,
      "热": 4984,
      "烯": 4985,
      "烷": 4986,
      "烹": 4987,
      "焉": 4988,
      "焊": 4989,
      "焖": 4990,
      "焗": 4991,
      "焚": 4992,
      "無": 4993,
      "焦": 4994,
      "焰": 4995,
      "然": 4996,
      "焼": 4997,
      "煉": 4998,
      "煌": 4999,
      "煎": 5000,
      "煙": 5001,
      "煜": 5002,
      "煞": 5003,
      "煤": 5004,
      "照": 5005,
      "煩": 5006,
      "煮": 5007,
      "煲": 5008,
      "熊": 5009,
      "熏": 5010,
      "熔": 5011,
      "熟": 5012,
      "熬": 5013,
      "熱": 5014,
      "燃": 5015,
      "燈": 5016,
      "燊": 5017,
      "燎": 5018,
      "燕": 5019,
      "營": 5020,
      "燥": 5021,
      "燻": 5022,
      "爆": 5023,
      "爐": 5024,
      "爨": 5025,
      "爪": 5026,
      "爬": 5027,
      "爭": 5028,
      "爱": 5029,
      "爲": 5030,
      "爵": 5031,
      "父": 5032,
      "爷": 5033,
      "爸": 5034,
      "爹": 5035,
      "爽": 5036,
      "爾": 5037,
      "片": 5038,
      "版": 5039,
      "牌": 5040,
      "牙": 5041,
      "牛": 5042,
      "牟": 5043,
      "牡": 5044,
      "牢": 5045,
      "牦": 5046,
      "牧": 5047,
      "物": 5048,
      "牲": 5049,
      "牵": 5050,
      "特": 5051,
      "牺": 5052,
      "牽": 5053,
      "犁": 5054,
      "犍": 5055,
      "犒": 5056,
      "犬": 5057,
      "犯": 5058,
      "状": 5059,
      "犸": 5060,
      "犹": 5061,
      "狀": 5062,
      "狂": 5063,
      "狄": 5064,
      "狐": 5065,
      "狗": 5066,
      "狙": 5067,
      "狠": 5068,
      "狩": 5069,
      "独": 5070,
      "狭": 5071,
      "狮": 5072,
      "狰": 5073,
      "狸": 5074,
      "狹": 5075,
      "狼": 5076,
      "猎": 5077,
      "猛": 5078,
      "猜": 5079,
      "猟": 5080,
      "猥": 5081,
      "猪": 5082,
      "猫": 5083,
      "猬": 5084,
      "献": 5085,
      "猴": 5086,
      "猿": 5087,
      "獄": 5088,
      "獅": 5089,
      "獎": 5090,
      "獣": 5091,
      "獨": 5092,
      "獲": 5093,
      "獻": 5094,
      "玄": 5095,
      "率": 5096,
      "玉": 5097,
      "王": 5098,
      "玖": 5099,
      "玛": 5100,
      "玩": 5101,
      "玫": 5102,
      "环": 5103,
      "现": 5104,
      "玲": 5105,
      "玻": 5106,
      "珂": 5107,
      "珈": 5108,
      "珊": 5109,
      "珍": 5110,
      "珠": 5111,
      "班": 5112,
      "珲": 5113,
      "現": 5114,
      "球": 5115,
      "理": 5116,
      "琢": 5117,
      "琦": 5118,
      "琪": 5119,
      "琮": 5120,
      "琲": 5121,
      "琳": 5122,
      "琴": 5123,
      "琼": 5124,
      "瑕": 5125,
      "瑚": 5126,
      "瑜": 5127,
      "瑞": 5128,
      "瑰": 5129,
      "瑶": 5130,
      "璀": 5131,
      "璁": 5132,
      "璃": 5133,
      "璠": 5134,
      "璨": 5135,
      "環": 5136,
      "瓜": 5137,
      "瓢": 5138,
      "瓦": 5139,
      "瓯": 5140,
      "瓶": 5141,
      "瓷": 5142,
      "甄": 5143,
      "甘": 5144,
      "甚": 5145,
      "甜": 5146,
      "生": 5147,
      "產": 5148,
      "産": 5149,
      "用": 5150,
      "甩": 5151,
      "甫": 5152,
      "甯": 5153,
      "田": 5154,
      "由": 5155,
      "甲": 5156,
      "申": 5157,
      "电": 5158,
      "男": 5159,
      "甸": 5160,
      "町": 5161,
      "画": 5162,
      "畅": 5163,
      "界": 5164,
      "畏": 5165,
      "畑": 5166,
      "畔": 5167,
      "留": 5168,
      "畜": 5169,
      "略": 5170,
      "番": 5171,
      "畫": 5172,
      "異": 5173,
      "畳": 5174,
      "畴": 5175,
      "當": 5176,
      "畸": 5177,
      "畿": 5178,
      "疆": 5179,
      "疏": 5180,
      "疑": 5181,
      "疒": 5182,
      "疗": 5183,
      "疤": 5184,
      "疫": 5185,
      "疬": 5186,
      "疯": 5187,
      "疲": 5188,
      "疵": 5189,
      "疼": 5190,
      "疾": 5191,
      "病": 5192,
      "症": 5193,
      "痊": 5194,
      "痒": 5195,
      "痕": 5196,
      "痘": 5197,
      "痛": 5198,
      "痢": 5199,
      "痫": 5200,
      "痰": 5201,
      "痴": 5202,
      "瘤": 5203,
      "瘦": 5204,
      "瘩": 5205,
      "瘰": 5206,
      "瘿": 5207,
      "療": 5208,
      "癌": 5209,
      "癒": 5210,
      "癜": 5211,
      "癫": 5212,
      "癮": 5213,
      "発": 5214,
      "登": 5215,
      "發": 5216,
      "白": 5217,
      "百": 5218,
      "皂": 5219,
      "的": 5220,
      "皆": 5221,
      "皇": 5222,
      "皋": 5223,
      "皎": 5224,
      "皖": 5225,
      "皮": 5226,
      "皱": 5227,
      "皿": 5228,
      "盆": 5229,
      "盈": 5230,
      "益": 5231,
      "盎": 5232,
      "盏": 5233,
      "盐": 5234,
      "监": 5235,
      "盒": 5236,
      "盖": 5237,
      "盗": 5238,
      "盘": 5239,
      "盛": 5240,
      "盟": 5241,
      "監": 5242,
      "盤": 5243,
      "目": 5244,
      "盯": 5245,
      "盱": 5246,
      "盲": 5247,
      "直": 5248,
      "相": 5249,
      "盼": 5250,
      "盾": 5251,
      "省": 5252,
      "眉": 5253,
      "看": 5254,
      "県": 5255,
      "眙": 5256,
      "真": 5257,
      "眠": 5258,
      "眩": 5259,
      "眷": 5260,
      "眸": 5261,
      "眺": 5262,
      "眼": 5263,
      "眾": 5264,
      "着": 5265,
      "睁": 5266,
      "睐": 5267,
      "睛": 5268,
      "睡": 5269,
      "督": 5270,
      "睿": 5271,
      "瞄": 5272,
      "瞎": 5273,
      "瞥": 5274,
      "瞩": 5275,
      "瞬": 5276,
      "瞭": 5277,
      "瞳": 5278,
      "瞻": 5279,
      "矗": 5280,
      "矢": 5281,
      "知": 5282,
      "矩": 5283,
      "矫": 5284,
      "短": 5285,
      "矮": 5286,
      "石": 5287,
      "矶": 5288,
      "矿": 5289,
      "码": 5290,
      "砂": 5291,
      "砌": 5292,
      "砒": 5293,
      "研": 5294,
      "砖": 5295,
      "砚": 5296,
      "砥": 5297,
      "砦": 5298,
      "破": 5299,
      "砷": 5300,
      "砸": 5301,
      "砺": 5302,
      "砼": 5303,
      "砾": 5304,
      "础": 5305,
      "硒": 5306,
      "硕": 5307,
      "硤": 5308,
      "硪": 5309,
      "硫": 5310,
      "硬": 5311,
      "确": 5312,
      "硹": 5313,
      "碌": 5314,
      "碍": 5315,
      "碎": 5316,
      "碑": 5317,
      "碓": 5318,
      "碗": 5319,
      "碚": 5320,
      "碟": 5321,
      "碧": 5322,
      "碰": 5323,
      "碱": 5324,
      "碳": 5325,
      "確": 5326,
      "碼": 5327,
      "磁": 5328,
      "磅": 5329,
      "磊": 5330,
      "磐": 5331,
      "磕": 5332,
      "磡": 5333,
      "磨": 5334,
      "磷": 5335,
      "磺": 5336,
      "礁": 5337,
      "礎": 5338,
      "示": 5339,
      "礼": 5340,
      "社": 5341,
      "祀": 5342,
      "祁": 5343,
      "祈": 5344,
      "祉": 5345,
      "祐": 5346,
      "祖": 5347,
      "祛": 5348,
      "祝": 5349,
      "神": 5350,
      "祠": 5351,
      "祥": 5352,
      "票": 5353,
      "祭": 5354,
      "祷": 5355,
      "祸": 5356,
      "祺": 5357,
      "祿": 5358,
      "禁": 5359,
      "禅": 5360,
      "禍": 5361,
      "福": 5362,
      "禧": 5363,
      "禪": 5364,
      "禮": 5365,
      "禵": 5366,
      "禹": 5367,
      "离": 5368,
      "禾": 5369,
      "秀": 5370,
      "私": 5371,
      "秉": 5372,
      "秋": 5373,
      "种": 5374,
      "科": 5375,
      "秒": 5376,
      "秘": 5377,
      "租": 5378,
      "秤": 5379,
      "秦": 5380,
      "秧": 5381,
      "秩": 5382,
      "积": 5383,
      "称": 5384,
      "移": 5385,
      "稀": 5386,
      "稅": 5387,
      "程": 5388,
      "稍": 5389,
      "税": 5390,
      "稚": 5391,
      "種": 5392,
      "稱": 5393,
      "稲": 5394,
      "稳": 5395,
      "稻": 5396,
      "稼": 5397,
      "稿": 5398,
      "穆": 5399,
      "積": 5400,
      "穗": 5401,
      "穩": 5402,
      "穫": 5403,
      "穴": 5404,
      "究": 5405,
      "穷": 5406,
      "穹": 5407,
      "空": 5408,
      "穿": 5409,
      "突": 5410,
      "窃": 5411,
      "窈": 5412,
      "窍": 5413,
      "窑": 5414,
      "窒": 5415,
      "窓": 5416,
      "窗": 5417,
      "窝": 5418,
      "窨": 5419,
      "窮": 5420,
      "窯": 5421,
      "窱": 5422,
      "竈": 5423,
      "立": 5424,
      "站": 5425,
      "竜": 5426,
      "竞": 5427,
      "竟": 5428,
      "章": 5429,
      "竣": 5430,
      "童": 5431,
      "竪": 5432,
      "竭": 5433,
      "端": 5434,
      "競": 5435,
      "竹": 5436,
      "笈": 5437,
      "笑": 5438,
      "笔": 5439,
      "笛": 5440,
      "笠": 5441,
      "符": 5442,
      "第": 5443,
      "笹": 5444,
      "笺": 5445,
      "笼": 5446,
      "筆": 5447,
      "等": 5448,
      "筋": 5449,
      "筑": 5450,
      "筒": 5451,
      "答": 5452,
      "策": 5453,
      "筛": 5454,
      "筝": 5455,
      "筵": 5456,
      "筹": 5457,
      "签": 5458,
      "简": 5459,
      "箇": 5460,
      "箍": 5461,
      "算": 5462,
      "管": 5463,
      "箩": 5464,
      "箭": 5465,
      "箱": 5466,
      "箸": 5467,
      "節": 5468,
      "範": 5469,
      "篇": 5470,
      "築": 5471,
      "篓": 5472,
      "篠": 5473,
      "篡": 5474,
      "篮": 5475,
      "篷": 5476,
      "簟": 5477,
      "簡": 5478,
      "簦": 5479,
      "簧": 5480,
      "簸": 5481,
      "簿": 5482,
      "籃": 5483,
      "籌": 5484,
      "籍": 5485,
      "籨": 5486,
      "籭": 5487,
      "籱": 5488,
      "米": 5489,
      "类": 5490,
      "籽": 5491,
      "粉": 5492,
      "粋": 5493,
      "粒": 5494,
      "粕": 5495,
      "粗": 5496,
      "粘": 5497,
      "粟": 5498,
      "粤": 5499,
      "粥": 5500,
      "粧": 5501,
      "粨": 5502,
      "粮": 5503,
      "粱": 5504,
      "粵": 5505,
      "粹": 5506,
      "粽": 5507,
      "精": 5508,
      "糊": 5509,
      "糕": 5510,
      "糖": 5511,
      "糙": 5512,
      "糞": 5513,
      "糟": 5514,
      "糧": 5515,
      "糸": 5516,
      "系": 5517,
      "糾": 5518,
      "紀": 5519,
      "約": 5520,
      "紅": 5521,
      "紊": 5522,
      "紋": 5523,
      "納": 5524,
      "紐": 5525,
      "純": 5526,
      "紗": 5527,
      "紘": 5528,
      "紙": 5529,
      "級": 5530,
      "紛": 5531,
      "紜": 5532,
      "素": 5533,
      "紡": 5534,
      "索": 5535,
      "紧": 5536,
      "紫": 5537,
      "紬": 5538,
      "紮": 5539,
      "累": 5540,
      "細": 5541,
      "紵": 5542,
      "紹": 5543,
      "紺": 5544,
      "終": 5545,
      "組": 5546,
      "絆": 5547,
      "経": 5548,
      "結": 5549,
      "絞": 5550,
      "絡": 5551,
      "絥": 5552,
      "給": 5553,
      "統": 5554,
      "絲": 5555,
      "絵": 5556,
      "絶": 5557,
      "絺": 5558,
      "經": 5559,
      "継": 5560,
      "続": 5561,
      "綜": 5562,
      "綠": 5563,
      "維": 5564,
      "綱": 5565,
      "網": 5566,
      "綺": 5567,
      "綾": 5568,
      "緁": 5569,
      "緂": 5570,
      "緊": 5571,
      "総": 5572,
      "緑": 5573,
      "緒": 5574,
      "線": 5575,
      "締": 5576,
      "緣": 5577,
      "編": 5578,
      "緩": 5579,
      "緯": 5580,
      "練": 5581,
      "緵": 5582,
      "緻": 5583,
      "縁": 5584,
      "縄": 5585,
      "縛": 5586,
      "縞": 5587,
      "縦": 5588,
      "縮": 5589,
      "縱": 5590,
      "總": 5591,
      "績": 5592,
      "繁": 5593,
      "繊": 5594,
      "繋": 5595,
      "織": 5596,
      "繰": 5597,
      "繳": 5598,
      "繷": 5599,
      "繼": 5600,
      "纂": 5601,
      "續": 5602,
      "纜": 5603,
      "纠": 5604,
      "红": 5605,
      "纤": 5606,
      "约": 5607,
      "级": 5608,
      "纪": 5609,
      "纬": 5610,
      "纭": 5611,
      "纯": 5612,
      "纱": 5613,
      "纲": 5614,
      "纳": 5615,
      "纵": 5616,
      "纷": 5617,
      "纸": 5618,
      "纹": 5619,
      "纺": 5620,
      "纽": 5621,
      "线": 5622,
      "绀": 5623,
      "练": 5624,
      "组": 5625,
      "绅": 5626,
      "细": 5627,
      "织": 5628,
      "终": 5629,
      "绍": 5630,
      "绎": 5631,
      "经": 5632,
      "绑": 5633,
      "绒": 5634,
      "结": 5635,
      "绕": 5636,
      "绘": 5637,
      "给": 5638,
      "绛": 5639,
      "络": 5640,
      "绝": 5641,
      "绞": 5642,
      "统": 5643,
      "绢": 5644,
      "绣": 5645,
      "绥": 5646,
      "继": 5647,
      "绩": 5648,
      "绪": 5649,
      "续": 5650,
      "绰": 5651,
      "绱": 5652,
      "绳": 5653,
      "维": 5654,
      "绵": 5655,
      "绸": 5656,
      "综": 5657,
      "绽": 5658,
      "绿": 5659,
      "缀": 5660,
      "缁": 5661,
      "缅": 5662,
      "缆": 5663,
      "缇": 5664,
      "缉": 5665,
      "缓": 5666,
      "缔": 5667,
      "缕": 5668,
      "编": 5669,
      "缘": 5670,
      "缙": 5671,
      "缚": 5672,
      "缜": 5673,
      "缝": 5674,
      "缦": 5675,
      "缩": 5676,
      "缮": 5677,
      "缶": 5678,
      "缸": 5679,
      "缺": 5680,
      "网": 5681,
      "罗": 5682,
      "罚": 5683,
      "罢": 5684,
      "罩": 5685,
      "罪": 5686,
      "置": 5687,
      "罰": 5688,
      "署": 5689,
      "羁": 5690,
      "羅": 5691,
      "羊": 5692,
      "羌": 5693,
      "美": 5694,
      "羞": 5695,
      "群": 5696,
      "義": 5697,
      "羫": 5698,
      "羸": 5699,
      "羽": 5700,
      "翁": 5701,
      "翅": 5702,
      "翌": 5703,
      "習": 5704,
      "翔": 5705,
      "翟": 5706,
      "翠": 5707,
      "翡": 5708,
      "翪": 5709,
      "翰": 5710,
      "翱": 5711,
      "翻": 5712,
      "翼": 5713,
      "耀": 5714,
      "老": 5715,
      "考": 5716,
      "者": 5717,
      "耆": 5718,
      "而": 5719,
      "耍": 5720,
      "耐": 5721,
      "耕": 5722,
      "耗": 5723,
      "耘": 5724,
      "耦": 5725,
      "耳": 5726,
      "耶": 5727,
      "耻": 5728,
      "耽": 5729,
      "耿": 5730,
      "聂": 5731,
      "聊": 5732,
      "职": 5733,
      "联": 5734,
      "聖": 5735,
      "聘": 5736,
      "聚": 5737,
      "聞": 5738,
      "聡": 5739,
      "聪": 5740,
      "聯": 5741,
      "聲": 5742,
      "聴": 5743,
      "職": 5744,
      "聽": 5745,
      "肃": 5746,
      "肆": 5747,
      "肇": 5748,
      "肉": 5749,
      "肋": 5750,
      "肌": 5751,
      "肖": 5752,
      "肚": 5753,
      "肝": 5754,
      "肠": 5755,
      "股": 5756,
      "肢": 5757,
      "肤": 5758,
      "肥": 5759,
      "肩": 5760,
      "肪": 5761,
      "肯": 5762,
      "育": 5763,
      "肺": 5764,
      "肾": 5765,
      "肿": 5766,
      "胀": 5767,
      "胁": 5768,
      "胃": 5769,
      "胄": 5770,
      "胆": 5771,
      "背": 5772,
      "胎": 5773,
      "胖": 5774,
      "胚": 5775,
      "胜": 5776,
      "胞": 5777,
      "胡": 5778,
      "胤": 5779,
      "胴": 5780,
      "胶": 5781,
      "胸": 5782,
      "能": 5783,
      "脂": 5784,
      "脅": 5785,
      "脇": 5786,
      "脉": 5787,
      "脊": 5788,
      "脏": 5789,
      "脑": 5790,
      "脚": 5791,
      "脩": 5792,
      "脫": 5793,
      "脱": 5794,
      "脳": 5795,
      "脸": 5796,
      "脾": 5797,
      "腊": 5798,
      "腐": 5799,
      "腑": 5800,
      "腕": 5801,
      "腘": 5802,
      "腥": 5803,
      "腦": 5804,
      "腫": 5805,
      "腰": 5806,
      "腳": 5807,
      "腸": 5808,
      "腹": 5809,
      "腺": 5810,
      "腻": 5811,
      "腾": 5812,
      "腿": 5813,
      "膀": 5814,
      "膏": 5815,
      "膚": 5816,
      "膜": 5817,
      "膝": 5818,
      "膠": 5819,
      "膣": 5820,
      "膨": 5821,
      "膳": 5822,
      "膺": 5823,
      "臀": 5824,
      "臂": 5825,
      "臃": 5826,
      "臉": 5827,
      "臣": 5828,
      "臨": 5829,
      "自": 5830,
      "臭": 5831,
      "至": 5832,
      "致": 5833,
      "臺": 5834,
      "臼": 5835,
      "舆": 5836,
      "與": 5837,
      "興": 5838,
      "舉": 5839,
      "舊": 5840,
      "舌": 5841,
      "舍": 5842,
      "舎": 5843,
      "舐": 5844,
      "舒": 5845,
      "舖": 5846,
      "舗": 5847,
      "舘": 5848,
      "舞": 5849,
      "舟": 5850,
      "航": 5851,
      "般": 5852,
      "舰": 5853,
      "舱": 5854,
      "舵": 5855,
      "舶": 5856,
      "船": 5857,
      "舾": 5858,
      "艇": 5859,
      "艘": 5860,
      "艚": 5861,
      "艦": 5862,
      "艮": 5863,
      "良": 5864,
      "艰": 5865,
      "色": 5866,
      "艳": 5867,
      "艶": 5868,
      "艺": 5869,
      "艾": 5870,
      "节": 5871,
      "芊": 5872,
      "芋": 5873,
      "芒": 5874,
      "芙": 5875,
      "芜": 5876,
      "芝": 5877,
      "芦": 5878,
      "芪": 5879,
      "芬": 5880,
      "芭": 5881,
      "芮": 5882,
      "芯": 5883,
      "芰": 5884,
      "花": 5885,
      "芳": 5886,
      "芷": 5887,
      "芸": 5888,
      "芽": 5889,
      "苁": 5890,
      "苍": 5891,
      "苏": 5892,
      "苑": 5893,
      "苗": 5894,
      "苛": 5895,
      "苞": 5896,
      "苟": 5897,
      "苡": 5898,
      "若": 5899,
      "苦": 5900,
      "苯": 5901,
      "英": 5902,
      "苴": 5903,
      "苹": 5904,
      "苺": 5905,
      "茁": 5906,
      "茂": 5907,
      "范": 5908,
      "茄": 5909,
      "茅": 5910,
      "茉": 5911,
      "茗": 5912,
      "茜": 5913,
      "茨": 5914,
      "茫": 5915,
      "茲": 5916,
      "茵": 5917,
      "茶": 5918,
      "茸": 5919,
      "茹": 5920,
      "荃": 5921,
      "荆": 5922,
      "草": 5923,
      "荐": 5924,
      "荒": 5925,
      "荔": 5926,
      "荘": 5927,
      "荞": 5928,
      "荡": 5929,
      "荣": 5930,
      "荩": 5931,
      "荪": 5932,
      "荫": 5933,
      "药": 5934,
      "荷": 5935,
      "莅": 5936,
      "莆": 5937,
      "莉": 5938,
      "莊": 5939,
      "莎": 5940,
      "莒": 5941,
      "莓": 5942,
      "莞": 5943,
      "莫": 5944,
      "莱": 5945,
      "莲": 5946,
      "获": 5947,
      "莹": 5948,
      "菅": 5949,
      "菇": 5950,
      "菊": 5951,
      "菌": 5952,
      "菏": 5953,
      "菓": 5954,
      "菘": 5955,
      "菜": 5956,
      "菩": 5957,
      "華": 5958,
      "菱": 5959,
      "菲": 5960,
      "萃": 5961,
      "萄": 5962,
      "萊": 5963,
      "萌": 5964,
      "萍": 5965,
      "萑": 5966,
      "萝": 5967,
      "萤": 5968,
      "营": 5969,
      "萦": 5970,
      "萨": 5971,
      "萩": 5972,
      "萬": 5973,
      "落": 5974,
      "葉": 5975,
      "葎": 5976,
      "著": 5977,
      "葚": 5978,
      "葛": 5979,
      "葡": 5980,
      "董": 5981,
      "葫": 5982,
      "葬": 5983,
      "葳": 5984,
      "葵": 5985,
      "蒂": 5986,
      "蒐": 5987,
      "蒔": 5988,
      "蒗": 5989,
      "蒙": 5990,
      "蒜": 5991,
      "蒡": 5992,
      "蒲": 5993,
      "蒸": 5994,
      "蒼": 5995,
      "蓄": 5996,
      "蓉": 5997,
      "蓋": 5998,
      "蓑": 5999,
      "蓝": 6000,
      "蓟": 6001,
      "蓬": 6002,
      "蓮": 6003,
      "蔚": 6004,
      "蔡": 6005,
      "蔬": 6006,
      "蔵": 6007,
      "蔺": 6008,
      "蔽": 6009,
      "蕉": 6010,
      "蕎": 6011,
      "蕲": 6012,
      "蕴": 6013,
      "薄": 6014,
      "薇": 6015,
      "薈": 6016,
      "薏": 6017,
      "薛": 6018,
      "薦": 6019,
      "薩": 6020,
      "薪": 6021,
      "薫": 6022,
      "薬": 6023,
      "薯": 6024,
      "藁": 6025,
      "藉": 6026,
      "藍": 6027,
      "藏": 6028,
      "藐": 6029,
      "藝": 6030,
      "藤": 6031,
      "藻": 6032,
      "蘆": 6033,
      "蘇": 6034,
      "蘭": 6035,
      "蘿": 6036,
      "虎": 6037,
      "虏": 6038,
      "虐": 6039,
      "虑": 6040,
      "虔": 6041,
      "處": 6042,
      "虚": 6043,
      "虛": 6044,
      "虜": 6045,
      "虞": 6046,
      "號": 6047,
      "虧": 6048,
      "虫": 6049,
      "虹": 6050,
      "虽": 6051,
      "虾": 6052,
      "虿": 6053,
      "蚀": 6054,
      "蚂": 6055,
      "蚊": 6056,
      "蚋": 6057,
      "蚌": 6058,
      "蚤": 6059,
      "蚪": 6060,
      "蛇": 6061,
      "蛋": 6062,
      "蛔": 6063,
      "蛙": 6064,
      "蛞": 6065,
      "蛟": 6066,
      "蛰": 6067,
      "蛾": 6068,
      "蜂": 6069,
      "蜇": 6070,
      "蜗": 6071,
      "蜘": 6072,
      "蜜": 6073,
      "蜡": 6074,
      "蜩": 6075,
      "蝌": 6076,
      "蝎": 6077,
      "蝗": 6078,
      "蝦": 6079,
      "蝴": 6080,
      "蝶": 6081,
      "螃": 6082,
      "螅": 6083,
      "融": 6084,
      "螺": 6085,
      "蟹": 6086,
      "蟾": 6087,
      "蠡": 6088,
      "蠣": 6089,
      "蠹": 6090,
      "血": 6091,
      "衄": 6092,
      "行": 6093,
      "衍": 6094,
      "術": 6095,
      "衔": 6096,
      "街": 6097,
      "衛": 6098,
      "衝": 6099,
      "衡": 6100,
      "衢": 6101,
      "衣": 6102,
      "补": 6103,
      "表": 6104,
      "衰": 6105,
      "衷": 6106,
      "袁": 6107,
      "袂": 6108,
      "袋": 6109,
      "袍": 6110,
      "袒": 6111,
      "袖": 6112,
      "袜": 6113,
      "被": 6114,
      "袭": 6115,
      "袴": 6116,
      "裁": 6117,
      "裂": 6118,
      "装": 6119,
      "裏": 6120,
      "裕": 6121,
      "裙": 6122,
      "補": 6123,
      "裝": 6124,
      "裡": 6125,
      "裤": 6126,
      "裱": 6127,
      "裵": 6128,
      "裸": 6129,
      "裹": 6130,
      "製": 6131,
      "裾": 6132,
      "複": 6133,
      "褒": 6134,
      "褔": 6135,
      "褥": 6136,
      "襄": 6137,
      "襪": 6138,
      "襲": 6139,
      "西": 6140,
      "要": 6141,
      "覃": 6142,
      "覆": 6143,
      "覇": 6144,
      "見": 6145,
      "規": 6146,
      "視": 6147,
      "覗": 6148,
      "覚": 6149,
      "覧": 6150,
      "親": 6151,
      "観": 6152,
      "覺": 6153,
      "覽": 6154,
      "觀": 6155,
      "见": 6156,
      "观": 6157,
      "规": 6158,
      "觅": 6159,
      "视": 6160,
      "览": 6161,
      "觉": 6162,
      "角": 6163,
      "解": 6164,
      "触": 6165,
      "觴": 6166,
      "言": 6167,
      "訂": 6168,
      "計": 6169,
      "訊": 6170,
      "訓": 6171,
      "託": 6172,
      "記": 6173,
      "訝": 6174,
      "訟": 6175,
      "訪": 6176,
      "設": 6177,
      "許": 6178,
      "訳": 6179,
      "訴": 6180,
      "診": 6181,
      "証": 6182,
      "詐": 6183,
      "詔": 6184,
      "評": 6185,
      "詞": 6186,
      "詢": 6187,
      "詣": 6188,
      "試": 6189,
      "詩": 6190,
      "詰": 6191,
      "話": 6192,
      "該": 6193,
      "詳": 6194,
      "詹": 6195,
      "誇": 6196,
      "誉": 6197,
      "誌": 6198,
      "認": 6199,
      "誓": 6200,
      "誕": 6201,
      "誘": 6202,
      "語": 6203,
      "誠": 6204,
      "誤": 6205,
      "說": 6206,
      "説": 6207,
      "読": 6208,
      "誰": 6209,
      "課": 6210,
      "調": 6211,
      "諄": 6212,
      "談": 6213,
      "請": 6214,
      "論": 6215,
      "諭": 6216,
      "諱": 6217,
      "諸": 6218,
      "諺": 6219,
      "諾": 6220,
      "謎": 6221,
      "講": 6222,
      "謝": 6223,
      "謡": 6224,
      "證": 6225,
      "識": 6226,
      "譜": 6227,
      "警": 6228,
      "譬": 6229,
      "譯": 6230,
      "議": 6231,
      "譲": 6232,
      "護": 6233,
      "譽": 6234,
      "讀": 6235,
      "讃": 6236,
      "變": 6237,
      "讐": 6238,
      "讓": 6239,
      "讚": 6240,
      "计": 6241,
      "订": 6242,
      "讣": 6243,
      "认": 6244,
      "讨": 6245,
      "让": 6246,
      "训": 6247,
      "议": 6248,
      "讯": 6249,
      "记": 6250,
      "讲": 6251,
      "讳": 6252,
      "讴": 6253,
      "讶": 6254,
      "许": 6255,
      "论": 6256,
      "设": 6257,
      "访": 6258,
      "诀": 6259,
      "证": 6260,
      "评": 6261,
      "识": 6262,
      "诈": 6263,
      "诉": 6264,
      "诊": 6265,
      "词": 6266,
      "译": 6267,
      "诒": 6268,
      "试": 6269,
      "诗": 6270,
      "诚": 6271,
      "话": 6272,
      "诞": 6273,
      "诠": 6274,
      "询": 6275,
      "该": 6276,
      "详": 6277,
      "诬": 6278,
      "语": 6279,
      "误": 6280,
      "诰": 6281,
      "诱": 6282,
      "诲": 6283,
      "说": 6284,
      "请": 6285,
      "诸": 6286,
      "诺": 6287,
      "读": 6288,
      "课": 6289,
      "谁": 6290,
      "调": 6291,
      "谅": 6292,
      "谆": 6293,
      "谈": 6294,
      "谊": 6295,
      "谋": 6296,
      "谎": 6297,
      "谐": 6298,
      "谓": 6299,
      "谗": 6300,
      "谙": 6301,
      "谜": 6302,
      "谢": 6303,
      "谦": 6304,
      "谨": 6305,
      "谱": 6306,
      "谷": 6307,
      "豆": 6308,
      "豊": 6309,
      "豐": 6310,
      "豚": 6311,
      "象": 6312,
      "豪": 6313,
      "豫": 6314,
      "豬": 6315,
      "豹": 6316,
      "貌": 6317,
      "貓": 6318,
      "貝": 6319,
      "貞": 6320,
      "負": 6321,
      "財": 6322,
      "貢": 6323,
      "貧": 6324,
      "貨": 6325,
      "販": 6326,
      "責": 6327,
      "貯": 6328,
      "貴": 6329,
      "買": 6330,
      "貸": 6331,
      "費": 6332,
      "貼": 6333,
      "貽": 6334,
      "貿": 6335,
      "賀": 6336,
      "賃": 6337,
      "資": 6338,
      "賑": 6339,
      "賓": 6340,
      "賜": 6341,
      "賞": 6342,
      "賠": 6343,
      "賢": 6344,
      "賧": 6345,
      "質": 6346,
      "購": 6347,
      "賽": 6348,
      "贈": 6349,
      "贝": 6350,
      "贞": 6351,
      "负": 6352,
      "贡": 6353,
      "财": 6354,
      "责": 6355,
      "贤": 6356,
      "败": 6357,
      "账": 6358,
      "货": 6359,
      "质": 6360,
      "贪": 6361,
      "贫": 6362,
      "贬": 6363,
      "购": 6364,
      "贯": 6365,
      "贴": 6366,
      "贵": 6367,
      "贷": 6368,
      "贸": 6369,
      "费": 6370,
      "贺": 6371,
      "贾": 6372,
      "贿": 6373,
      "赁": 6374,
      "赂": 6375,
      "资": 6376,
      "赉": 6377,
      "赋": 6378,
      "赌": 6379,
      "赏": 6380,
      "赐": 6381,
      "赔": 6382,
      "赖": 6383,
      "赘": 6384,
      "赚": 6385,
      "赛": 6386,
      "赞": 6387,
      "赟": 6388,
      "赠": 6389,
      "赢": 6390,
      "赣": 6391,
      "赤": 6392,
      "赦": 6393,
      "赫": 6394,
      "走": 6395,
      "赴": 6396,
      "赵": 6397,
      "赶": 6398,
      "起": 6399,
      "超": 6400,
      "越": 6401,
      "趋": 6402,
      "趕": 6403,
      "趙": 6404,
      "趣": 6405,
      "足": 6406,
      "趴": 6407,
      "跃": 6408,
      "跆": 6409,
      "跌": 6410,
      "跎": 6411,
      "跑": 6412,
      "距": 6413,
      "跟": 6414,
      "跡": 6415,
      "跨": 6416,
      "跪": 6417,
      "路": 6418,
      "跳": 6419,
      "践": 6420,
      "踊": 6421,
      "踏": 6422,
      "踢": 6423,
      "踪": 6424,
      "踻": 6425,
      "蹂": 6426,
      "蹇": 6427,
      "蹈": 6428,
      "蹋": 6429,
      "蹬": 6430,
      "蹲": 6431,
      "躇": 6432,
      "躍": 6433,
      "躙": 6434,
      "身": 6435,
      "躺": 6436,
      "躾": 6437,
      "車": 6438,
      "軋": 6439,
      "軌": 6440,
      "軍": 6441,
      "軒": 6442,
      "軟": 6443,
      "転": 6444,
      "軨": 6445,
      "軳": 6446,
      "軸": 6447,
      "軽": 6448,
      "較": 6449,
      "載": 6450,
      "輔": 6451,
      "輝": 6452,
      "輩": 6453,
      "輪": 6454,
      "輯": 6455,
      "輸": 6456,
      "輾": 6457,
      "輿": 6458,
      "轉": 6459,
      "轍": 6460,
      "车": 6461,
      "轨": 6462,
      "轩": 6463,
      "转": 6464,
      "轮": 6465,
      "软": 6466,
      "轰": 6467,
      "轱": 6468,
      "轲": 6469,
      "轴": 6470,
      "轻": 6471,
      "载": 6472,
      "轿": 6473,
      "较": 6474,
      "辄": 6475,
      "辅": 6476,
      "辆": 6477,
      "辈": 6478,
      "辉": 6479,
      "辊": 6480,
      "辐": 6481,
      "辑": 6482,
      "输": 6483,
      "辕": 6484,
      "辖": 6485,
      "辛": 6486,
      "辜": 6487,
      "辞": 6488,
      "辟": 6489,
      "辣": 6490,
      "辦": 6491,
      "辨": 6492,
      "辩": 6493,
      "辫": 6494,
      "辭": 6495,
      "辰": 6496,
      "辱": 6497,
      "農": 6498,
      "边": 6499,
      "辺": 6500,
      "込": 6501,
      "辽": 6502,
      "达": 6503,
      "迁": 6504,
      "迄": 6505,
      "迅": 6506,
      "过": 6507,
      "迈": 6508,
      "迎": 6509,
      "运": 6510,
      "近": 6511,
      "返": 6512,
      "还": 6513,
      "这": 6514,
      "进": 6515,
      "远": 6516,
      "违": 6517,
      "连": 6518,
      "迟": 6519,
      "迦": 6520,
      "迪": 6521,
      "迫": 6522,
      "迭": 6523,
      "述": 6524,
      "迷": 6525,
      "迹": 6526,
      "追": 6527,
      "退": 6528,
      "送": 6529,
      "适": 6530,
      "逃": 6531,
      "逅": 6532,
      "逆": 6533,
      "选": 6534,
      "逊": 6535,
      "逍": 6536,
      "透": 6537,
      "逐": 6538,
      "逑": 6539,
      "递": 6540,
      "途": 6541,
      "逗": 6542,
      "這": 6543,
      "通": 6544,
      "逝": 6545,
      "逞": 6546,
      "速": 6547,
      "造": 6548,
      "逢": 6549,
      "連": 6550,
      "逮": 6551,
      "週": 6552,
      "進": 6553,
      "逸": 6554,
      "逻": 6555,
      "逼": 6556,
      "逾": 6557,
      "遂": 6558,
      "遅": 6559,
      "遇": 6560,
      "遊": 6561,
      "運": 6562,
      "遍": 6563,
      "過": 6564,
      "遏": 6565,
      "道": 6566,
      "達": 6567,
      "違": 6568,
      "遗": 6569,
      "遙": 6570,
      "遠": 6571,
      "遣": 6572,
      "遥": 6573,
      "適": 6574,
      "遭": 6575,
      "遮": 6576,
      "遵": 6577,
      "選": 6578,
      "遺": 6579,
      "遽": 6580,
      "避": 6581,
      "邀": 6582,
      "邁": 6583,
      "邂": 6584,
      "還": 6585,
      "邆": 6586,
      "邉": 6587,
      "邊": 6588,
      "邏": 6589,
      "邑": 6590,
      "邓": 6591,
      "邛": 6592,
      "邝": 6593,
      "邢": 6594,
      "那": 6595,
      "邦": 6596,
      "邪": 6597,
      "邮": 6598,
      "邯": 6599,
      "邱": 6600,
      "邳": 6601,
      "邵": 6602,
      "邸": 6603,
      "邹": 6604,
      "邻": 6605,
      "郁": 6606,
      "郊": 6607,
      "郎": 6608,
      "郏": 6609,
      "郑": 6610,
      "郜": 6611,
      "郡": 6612,
      "郧": 6613,
      "部": 6614,
      "郭": 6615,
      "郴": 6616,
      "郵": 6617,
      "郷": 6618,
      "郸": 6619,
      "都": 6620,
      "鄂": 6621,
      "鄄": 6622,
      "鄞": 6623,
      "鄭": 6624,
      "酋": 6625,
      "酌": 6626,
      "配": 6627,
      "酎": 6628,
      "酐": 6629,
      "酒": 6630,
      "酔": 6631,
      "酚": 6632,
      "酝": 6633,
      "酢": 6634,
      "酥": 6635,
      "酪": 6636,
      "酬": 6637,
      "酱": 6638,
      "酵": 6639,
      "酷": 6640,
      "酸": 6641,
      "酿": 6642,
      "醇": 6643,
      "醉": 6644,
      "醋": 6645,
      "醍": 6646,
      "醐": 6647,
      "醒": 6648,
      "醚": 6649,
      "醛": 6650,
      "醤": 6651,
      "醫": 6652,
      "醸": 6653,
      "釀": 6654,
      "采": 6655,
      "釈": 6656,
      "釉": 6657,
      "释": 6658,
      "里": 6659,
      "重": 6660,
      "野": 6661,
      "量": 6662,
      "金": 6663,
      "釘": 6664,
      "釜": 6665,
      "針": 6666,
      "釣": 6667,
      "釵": 6668,
      "鈴": 6669,
      "鉀": 6670,
      "鉄": 6671,
      "鉈": 6672,
      "鉛": 6673,
      "鉢": 6674,
      "鉴": 6675,
      "銀": 6676,
      "銃": 6677,
      "銅": 6678,
      "銘": 6679,
      "銜": 6680,
      "銭": 6681,
      "銷": 6682,
      "鋪": 6683,
      "鋭": 6684,
      "鋼": 6685,
      "錄": 6686,
      "錆": 6687,
      "錘": 6688,
      "錢": 6689,
      "錦": 6690,
      "錮": 6691,
      "錯": 6692,
      "録": 6693,
      "錶": 6694,
      "鍋": 6695,
      "鍗": 6696,
      "鍵": 6697,
      "鍾": 6698,
      "鎖": 6699,
      "鎚": 6700,
      "鎮": 6701,
      "鏈": 6702,
      "鐘": 6703,
      "鐵": 6704,
      "鑑": 6705,
      "鑫": 6706,
      "鑼": 6707,
      "鑽": 6708,
      "针": 6709,
      "钉": 6710,
      "钎": 6711,
      "钓": 6712,
      "钗": 6713,
      "钙": 6714,
      "钛": 6715,
      "钞": 6716,
      "钟": 6717,
      "钢": 6718,
      "钥": 6719,
      "钦": 6720,
      "钩": 6721,
      "钰": 6722,
      "钱": 6723,
      "钹": 6724,
      "钻": 6725,
      "铁": 6726,
      "铃": 6727,
      "铅": 6728,
      "铎": 6729,
      "铙": 6730,
      "铜": 6731,
      "铝": 6732,
      "铣": 6733,
      "铬": 6734,
      "铭": 6735,
      "银": 6736,
      "铸": 6737,
      "铺": 6738,
      "链": 6739,
      "销": 6740,
      "锁": 6741,
      "锄": 6742,
      "锅": 6743,
      "锆": 6744,
      "锈": 6745,
      "锋": 6746,
      "锌": 6747,
      "锐": 6748,
      "错": 6749,
      "锚": 6750,
      "锛": 6751,
      "锡": 6752,
      "锣": 6753,
      "锤": 6754,
      "锥": 6755,
      "锦": 6756,
      "锪": 6757,
      "锭": 6758,
      "键": 6759,
      "锻": 6760,
      "镀": 6761,
      "镇": 6762,
      "镉": 6763,
      "镑": 6764,
      "镒": 6765,
      "镜": 6766,
      "镭": 6767,
      "镲": 6768,
      "镶": 6769,
      "長": 6770,
      "长": 6771,
      "門": 6772,
      "閃": 6773,
      "閉": 6774,
      "開": 6775,
      "閏": 6776,
      "閒": 6777,
      "間": 6778,
      "閘": 6779,
      "関": 6780,
      "閣": 6781,
      "閱": 6782,
      "閲": 6783,
      "闆": 6784,
      "闇": 6785,
      "闕": 6786,
      "闘": 6787,
      "關": 6788,
      "门": 6789,
      "闪": 6790,
      "闫": 6791,
      "闭": 6792,
      "问": 6793,
      "闯": 6794,
      "闲": 6795,
      "间": 6796,
      "闸": 6797,
      "闹": 6798,
      "闻": 6799,
      "闽": 6800,
      "阀": 6801,
      "阁": 6802,
      "阅": 6803,
      "阐": 6804,
      "阔": 6805,
      "阜": 6806,
      "队": 6807,
      "阪": 6808,
      "阱": 6809,
      "防": 6810,
      "阳": 6811,
      "阴": 6812,
      "阵": 6813,
      "阶": 6814,
      "阻": 6815,
      "阿": 6816,
      "陀": 6817,
      "附": 6818,
      "际": 6819,
      "陆": 6820,
      "陇": 6821,
      "陈": 6822,
      "陉": 6823,
      "陋": 6824,
      "陌": 6825,
      "降": 6826,
      "限": 6827,
      "陕": 6828,
      "陡": 6829,
      "院": 6830,
      "陣": 6831,
      "除": 6832,
      "陨": 6833,
      "险": 6834,
      "陪": 6835,
      "陳": 6836,
      "陵": 6837,
      "陶": 6838,
      "陷": 6839,
      "陸": 6840,
      "険": 6841,
      "陽": 6842,
      "隅": 6843,
      "隆": 6844,
      "隊": 6845,
      "隋": 6846,
      "階": 6847,
      "随": 6848,
      "隐": 6849,
      "隔": 6850,
      "隘": 6851,
      "隙": 6852,
      "際": 6853,
      "障": 6854,
      "隠": 6855,
      "隣": 6856,
      "隧": 6857,
      "隨": 6858,
      "險": 6859,
      "隱": 6860,
      "隶": 6861,
      "隷": 6862,
      "隻": 6863,
      "难": 6864,
      "雀": 6865,
      "雁": 6866,
      "雄": 6867,
      "雅": 6868,
      "集": 6869,
      "雇": 6870,
      "雌": 6871,
      "雍": 6872,
      "雏": 6873,
      "雑": 6874,
      "雕": 6875,
      "雖": 6876,
      "雜": 6877,
      "雞": 6878,
      "離": 6879,
      "難": 6880,
      "雨": 6881,
      "雪": 6882,
      "雰": 6883,
      "雲": 6884,
      "零": 6885,
      "雷": 6886,
      "電": 6887,
      "雾": 6888,
      "需": 6889,
      "霁": 6890,
      "霆": 6891,
      "震": 6892,
      "霊": 6893,
      "霍": 6894,
      "霜": 6895,
      "霞": 6896,
      "霧": 6897,
      "霰": 6898,
      "露": 6899,
      "霸": 6900,
      "霹": 6901,
      "霾": 6902,
      "靂": 6903,
      "靈": 6904,
      "青": 6905,
      "靓": 6906,
      "靖": 6907,
      "静": 6908,
      "非": 6909,
      "靠": 6910,
      "靡": 6911,
      "面": 6912,
      "革": 6913,
      "靴": 6914,
      "鞄": 6915,
      "鞋": 6916,
      "鞍": 6917,
      "鞭": 6918,
      "韋": 6919,
      "韌": 6920,
      "韓": 6921,
      "韦": 6922,
      "韩": 6923,
      "韬": 6924,
      "音": 6925,
      "韵": 6926,
      "韶": 6927,
      "響": 6928,
      "頁": 6929,
      "頂": 6930,
      "頃": 6931,
      "項": 6932,
      "順": 6933,
      "須": 6934,
      "預": 6935,
      "頑": 6936,
      "頒": 6937,
      "頓": 6938,
      "領": 6939,
      "頭": 6940,
      "頰": 6941,
      "頻": 6942,
      "頼": 6943,
      "題": 6944,
      "額": 6945,
      "顏": 6946,
      "顔": 6947,
      "顕": 6948,
      "願": 6949,
      "類": 6950,
      "顧": 6951,
      "顯": 6952,
      "页": 6953,
      "顶": 6954,
      "项": 6955,
      "顺": 6956,
      "须": 6957,
      "顽": 6958,
      "顾": 6959,
      "顿": 6960,
      "颁": 6961,
      "预": 6962,
      "颅": 6963,
      "领": 6964,
      "颇": 6965,
      "颈": 6966,
      "颍": 6967,
      "频": 6968,
      "颖": 6969,
      "颗": 6970,
      "题": 6971,
      "颚": 6972,
      "颜": 6973,
      "额": 6974,
      "颠": 6975,
      "颧": 6976,
      "風": 6977,
      "颱": 6978,
      "飄": 6979,
      "飆": 6980,
      "风": 6981,
      "飘": 6982,
      "飙": 6983,
      "飛": 6984,
      "飞": 6985,
      "食": 6986,
      "飯": 6987,
      "飲": 6988,
      "飼": 6989,
      "飽": 6990,
      "飾": 6991,
      "餃": 6992,
      "餅": 6993,
      "養": 6994,
      "餌": 6995,
      "餐": 6996,
      "餘": 6997,
      "館": 6998,
      "饅": 6999,
      "饋": 7000,
      "饌": 7001,
      "饪": 7002,
      "饭": 7003,
      "饮": 7004,
      "饰": 7005,
      "饱": 7006,
      "饲": 7007,
      "饶": 7008,
      "饺": 7009,
      "饼": 7010,
      "饿": 7011,
      "馁": 7012,
      "馅": 7013,
      "馆": 7014,
      "馈": 7015,
      "馏": 7016,
      "首": 7017,
      "香": 7018,
      "馨": 7019,
      "馬": 7020,
      "馼": 7021,
      "駄": 7022,
      "駅": 7023,
      "駆": 7024,
      "駐": 7025,
      "駒": 7026,
      "駕": 7027,
      "駛": 7028,
      "駿": 7029,
      "騎": 7030,
      "騒": 7031,
      "験": 7032,
      "騙": 7033,
      "驗": 7034,
      "驚": 7035,
      "马": 7036,
      "驭": 7037,
      "驮": 7038,
      "驯": 7039,
      "驰": 7040,
      "驱": 7041,
      "驳": 7042,
      "驴": 7043,
      "驶": 7044,
      "驻": 7045,
      "驼": 7046,
      "驾": 7047,
      "驿": 7048,
      "骂": 7049,
      "骆": 7050,
      "骊": 7051,
      "验": 7052,
      "骏": 7053,
      "骑": 7054,
      "骗": 7055,
      "骚": 7056,
      "骞": 7057,
      "骡": 7058,
      "骤": 7059,
      "骨": 7060,
      "骰": 7061,
      "骸": 7062,
      "髌": 7063,
      "髓": 7064,
      "體": 7065,
      "高": 7066,
      "髦": 7067,
      "髪": 7068,
      "鬆": 7069,
      "鬥": 7070,
      "鬼": 7071,
      "魂": 7072,
      "魄": 7073,
      "魅": 7074,
      "魏": 7075,
      "魔": 7076,
      "魚": 7077,
      "鮎": 7078,
      "鮮": 7079,
      "鯊": 7080,
      "鯛": 7081,
      "鰂": 7082,
      "鰡": 7083,
      "鰹": 7084,
      "鱗": 7085,
      "鱨": 7086,
      "鱱": 7087,
      "鱼": 7088,
      "鱾": 7089,
      "鲁": 7090,
      "鲆": 7091,
      "鲍": 7092,
      "鲎": 7093,
      "鲜": 7094,
      "鲩": 7095,
      "鳄": 7096,
      "鳌": 7097,
      "鳥": 7098,
      "鳩": 7099,
      "鳳": 7100,
      "鳴": 7101,
      "鴨": 7102,
      "鴻": 7103,
      "鵥": 7104,
      "鵺": 7105,
      "鶏": 7106,
      "鶯": 7107,
      "鶴": 7108,
      "鷢": 7109,
      "鷨": 7110,
      "鷵": 7111,
      "鷻": 7112,
      "鷽": 7113,
      "鸟": 7114,
      "鸡": 7115,
      "鸣": 7116,
      "鸦": 7117,
      "鸩": 7118,
      "鸭": 7119,
      "鸳": 7120,
      "鸵": 7121,
      "鸿": 7122,
      "鹅": 7123,
      "鹉": 7124,
      "鹊": 7125,
      "鹏": 7126,
      "鹗": 7127,
      "鹘": 7128,
      "鹜": 7129,
      "鹤": 7130,
      "鹦": 7131,
      "鹰": 7132,
      "鹿": 7133,
      "麒": 7134,
      "麓": 7135,
      "麗": 7136,
      "麟": 7137,
      "麥": 7138,
      "麦": 7139,
      "麵": 7140,
      "麺": 7141,
      "麻": 7142,
      "麼": 7143,
      "麿": 7144,
      "黃": 7145,
      "黄": 7146,
      "黎": 7147,
      "黑": 7148,
      "黒": 7149,
      "黔": 7150,
      "默": 7151,
      "黛": 7152,
      "點": 7153,
      "黨": 7154,
      "黰": 7155,
      "鼎": 7156,
      "鼓": 7157,
      "鼠": 7158,
      "鼮": 7159,
      "鼸": 7160,
      "鼻": 7161,
      "鼼": 7162,
      "齉": 7163,
      "齊": 7164,
      "齎": 7165,
      "齐": 7166,
      "齑": 7167,
      "齡": 7168,
      "齢": 7169,
      "齻": 7170,
      "齿": 7171,
      "龄": 7172,
      "龋": 7173,
      "龍": 7174,
      "龐": 7175,
      "龙": 7176,
      "龜": 7177,
      "龟": 7178,
      "龫": 7179,
      "鿪": 7180,
      "鿴": 7181,
      "ꂵ": 7182,
      "ꆇ": 7183,
      "ꉙ": 7184,
      "ꜜ": 7185,
      "꞉": 7186,
      "ꠃ": 7187,
      "ꠅ": 7188,
      "ꠇ": 7189,
      "ꠉ": 7190,
      "ꠍ": 7191,
      "ꠎ": 7192,
      "ꠐ": 7193,
      "ꠕ": 7194,
      "ꠘ": 7195,
      "ꠙ": 7196,
      "ꠛ": 7197,
      "ꠜ": 7198,
      "ꠝ": 7199,
      "ꠞ": 7200,
      "ꠟ": 7201,
      "ꠠ": 7202,
      "ꠡ": 7203,
      "ꠢ": 7204,
      "꡶": 7205,
      "꡾": 7206,
      "ꦣ": 7207,
      "꫰": 7208,
      "": 7209,
      "": 7210,
      "": 7211,
      "": 7212,
      "": 7213,
      "": 7214,
      "": 7215,
      "": 7216,
      "": 7217,
      "": 7218,
      "": 7219,
      "": 7220,
      "": 7221,
      "": 7222,
      "": 7223,
      "": 7224,
      "": 7225,
      "": 7226,
      "": 7227,
      "": 7228,
      "": 7229,
      "": 7230,
      "": 7231,
      "": 7232,
      "": 7233,
      "": 7234,
      "": 7235,
      "": 7236,
      "": 7237,
      "": 7238,
      "": 7239,
      "": 7240,
      "": 7241,
      "": 7242,
      "": 7243,
      "": 7244,
      "": 7245,
      "": 7246,
      "": 7247,
      "": 7248,
      "": 7249,
      "": 7250,
      "": 7251,
      "": 7252,
      "": 7253,
      "": 7254,
      "": 7255,
      "": 7256,
      "": 7257,
      "": 7258,
      "": 7259,
      "": 7260,
      "": 7261,
      "": 7262,
      "": 7263,
      "": 7264,
      "": 7265,
      "": 7266,
      "": 7267,
      "": 7268,
      "": 7269,
      "": 7270,
      "": 7271,
      "": 7272,
      "": 7273,
      "": 7274,
      "": 7275,
      "": 7276,
      "": 7277,
      "": 7278,
      "": 7279,
      "": 7280,
      "": 7281,
      "": 7282,
      "": 7283,
      "": 7284,
      "": 7285,
      "": 7286,
      "": 7287,
      "": 7288,
      "": 7289,
      "": 7290,
      "": 7291,
      "": 7292,
      "": 7293,
      "": 7294,
      "": 7295,
      "": 7296,
      "": 7297,
      "": 7298,
      "": 7299,
      "": 7300,
      "": 7301,
      "": 7302,
      "": 7303,
      "": 7304,
      "": 7305,
      "": 7306,
      "": 7307,
      "": 7308,
      "": 7309,
      "": 7310,
      "": 7311,
      "": 7312,
      "": 7313,
      "": 7314,
      "": 7315,
      "": 7316,
      "": 7317,
      "": 7318,
      "": 7319,
      "": 7320,
      "": 7321,
      "": 7322,
      "": 7323,
      "": 7324,
      "": 7325,
      "": 7326,
      "": 7327,
      "": 7328,
      "": 7329,
      "": 7330,
      "": 7331,
      "": 7332,
      "": 7333,
      "": 7334,
      "": 7335,
      "": 7336,
      "": 7337,
      "": 7338,
      "": 7339,
      "": 7340,
      "": 7341,
      "": 7342,
      "": 7343,
      "": 7344,
      "": 7345,
      "": 7346,
      "": 7347,
      "": 7348,
      "": 7349,
      "": 7350,
      "": 7351,
      "": 7352,
      "": 7353,
      "": 7354,
      "": 7355,
      "": 7356,
      "": 7357,
      "": 7358,
      "": 7359,
      "": 7360,
      "": 7361,
      "": 7362,
      "": 7363,
      "": 7364,
      "": 7365,
      "": 7366,
      "": 7367,
      "": 7368,
      "": 7369,
      "": 7370,
      "": 7371,
      "": 7372,
      "": 7373,
      "": 7374,
      "": 7375,
      "": 7376,
      "": 7377,
      "": 7378,
      "": 7379,
      "": 7380,
      "": 7381,
      "": 7382,
      "": 7383,
      "": 7384,
      "": 7385,
      "": 7386,
      "": 7387,
      "": 7388,
      "": 7389,
      "": 7390,
      "": 7391,
      "": 7392,
      "": 7393,
      "": 7394,
      "": 7395,
      "": 7396,
      "": 7397,
      "": 7398,
      "": 7399,
      "": 7400,
      "": 7401,
      "": 7402,
      "": 7403,
      "": 7404,
      "": 7405,
      "": 7406,
      "": 7407,
      "": 7408,
      "": 7409,
      "": 7410,
      "ﬁ": 7411,
      "ﬂ": 7412,
      "ﭐ": 7413,
      "ﭘ": 7414,
      "ﭼ": 7415,
      "ﭽ": 7416,
      "ﮉ": 7417,
      "ﮊ": 7418,
      "ﮋ": 7419,
      "ﮌ": 7420,
      "ﮍ": 7421,
      "ﮧ": 7422,
      "ﮨ": 7423,
      "ﮩ": 7424,
      "ﮭ": 7425,
      "ﮯ": 7426,
      "ﯚ": 7427,
      "ﯛ": 7428,
      "ﯜ": 7429,
      "ﯝ": 7430,
      "ﯟ": 7431,
      "ﯠ": 7432,
      "ﯡ": 7433,
      "ﯢ": 7434,
      "ﯣ": 7435,
      "ﯧ": 7436,
      "ﯽ": 7437,
      "ﯿ": 7438,
      "ﱊ": 7439,
      "ﱱ": 7440,
      "ﱾ": 7441,
      "ﳤ": 7442,
      "﴾": 7443,
      "﴿": 7444,
      "ﶯ": 7445,
      "﷬": 7446,
      "ﷲ": 7447,
      "ﷺ": 7448,
      "ﷻ": 7449,
      "﹑": 7450,
      "﹖": 7451,
      "﹗": 7452,
      "﹫": 7453,
      "ﺀ": 7454,
      "ﺁ": 7455,
      "ﺂ": 7456,
      "ﺃ": 7457,
      "ﺄ": 7458,
      "ﺅ": 7459,
      "ﺆ": 7460,
      "ﺇ": 7461,
      "ﺈ": 7462,
      "ﺉ": 7463,
      "ﺊ": 7464,
      "ﺋ": 7465,
      "ﺌ": 7466,
      "ﺍ": 7467,
      "ﺎ": 7468,
      "ﺏ": 7469,
      "ﺐ": 7470,
      "ﺑ": 7471,
      "ﺒ": 7472,
      "ﺓ": 7473,
      "ﺔ": 7474,
      "ﺕ": 7475,
      "ﺖ": 7476,
      "ﺗ": 7477,
      "ﺘ": 7478,
      "ﺙ": 7479,
      "ﺚ": 7480,
      "ﺛ": 7481,
      "ﺜ": 7482,
      "ﺝ": 7483,
      "ﺞ": 7484,
      "ﺟ": 7485,
      "ﺠ": 7486,
      "ﺡ": 7487,
      "ﺢ": 7488,
      "ﺣ": 7489,
      "ﺤ": 7490,
      "ﺦ": 7491,
      "ﺧ": 7492,
      "ﺨ": 7493,
      "ﺩ": 7494,
      "ﺪ": 7495,
      "ﺫ": 7496,
      "ﺬ": 7497,
      "ﺭ": 7498,
      "ﺮ": 7499,
      "ﺯ": 7500,
      "ﺰ": 7501,
      "ﺱ": 7502,
      "ﺲ": 7503,
      "ﺳ": 7504,
      "ﺴ": 7505,
      "ﺵ": 7506,
      "ﺶ": 7507,
      "ﺷ": 7508,
      "ﺸ": 7509,
      "ﺹ": 7510,
      "ﺻ": 7511,
      "ﺼ": 7512,
      "ﺽ": 7513,
      "ﺾ": 7514,
      "ﺿ": 7515,
      "ﻀ": 7516,
      "ﻁ": 7517,
      "ﻂ": 7518,
      "ﻃ": 7519,
      "ﻄ": 7520,
      "ﻅ": 7521,
      "ﻇ": 7522,
      "ﻈ": 7523,
      "ﻉ": 7524,
      "ﻊ": 7525,
      "ﻋ": 7526,
      "ﻌ": 7527,
      "ﻎ": 7528,
      "ﻏ": 7529,
      "ﻐ": 7530,
      "ﻑ": 7531,
      "ﻒ": 7532,
      "ﻓ": 7533,
      "ﻔ": 7534,
      "ﻕ": 7535,
      "ﻖ": 7536,
      "ﻗ": 7537,
      "ﻘ": 7538,
      "ﻙ": 7539,
      "ﻚ": 7540,
      "ﻛ": 7541,
      "ﻜ": 7542,
      "ﻝ": 7543,
      "ﻞ": 7544,
      "ﻟ": 7545,
      "ﻠ": 7546,
      "ﻡ": 7547,
      "ﻢ": 7548,
      "ﻣ": 7549,
      "ﻤ": 7550,
      "ﻥ": 7551,
      "ﻦ": 7552,
      "ﻧ": 7553,
      "ﻨ": 7554,
      "ﻩ": 7555,
      "ﻪ": 7556,
      "ﻫ": 7557,
      "ﻬ": 7558,
      "ﻭ": 7559,
      "ﻮ": 7560,
      "ﻯ": 7561,
      "ﻰ": 7562,
      "ﻱ": 7563,
      "ﻲ": 7564,
      "ﻳ": 7565,
      "ﻴ": 7566,
      "ﻷ": 7567,
      "ﻹ": 7568,
      "ﻻ": 7569,
      "ﻼ": 7570,
      "﻿": 7571,
      "！": 7572,
      "＂": 7573,
      "＃": 7574,
      "％": 7575,
      "＆": 7576,
      "（": 7577,
      "）": 7578,
      "＊": 7579,
      "＋": 7580,
      "，": 7581,
      "－": 7582,
      "．": 7583,
      "／": 7584,
      "０": 7585,
      "１": 7586,
      "２": 7587,
      "３": 7588,
      "４": 7589,
      "５": 7590,
      "６": 7591,
      "７": 7592,
      "８": 7593,
      "９": 7594,
      "：": 7595,
      "；": 7596,
      "＜": 7597,
      "＝": 7598,
      "＞": 7599,
      "？": 7600,
      "＠": 7601,
      "Ａ": 7602,
      "Ｂ": 7603,
      "Ｃ": 7604,
      "Ｄ": 7605,
      "Ｅ": 7606,
      "Ｆ": 7607,
      "Ｇ": 7608,
      "Ｈ": 7609,
      "Ｉ": 7610,
      "Ｊ": 7611,
      "Ｋ": 7612,
      "Ｌ": 7613,
      "Ｍ": 7614,
      "Ｎ": 7615,
      "Ｏ": 7616,
      "Ｐ": 7617,
      "Ｑ": 7618,
      "Ｒ": 7619,
      "Ｓ": 7620,
      "Ｔ": 7621,
      "Ｕ": 7622,
      "Ｖ": 7623,
      "Ｗ": 7624,
      "Ｘ": 7625,
      "Ｙ": 7626,
      "＾": 7627,
      "｀": 7628,
      "ａ": 7629,
      "ｃ": 7630,
      "ｄ": 7631,
      "ｅ": 7632,
      "ｇ": 7633,
      "ｍ": 7634,
      "ｎ": 7635,
      "ｒ": 7636,
      "ｘ": 7637,
      "ｙ": 7638,
      "｜": 7639,
      "～": 7640,
      "｢": 7641,
      "｣": 7642,
      "､": 7643,
      "･": 7644,
      "ｶ": 7645,
      "ｺ": 7646,
      "ﾉ": 7647,
      "ﾍ": 7648,
      "ﾖ": 7649,
      "ﾗ": 7650,
      "ﾙ": 7651,
      "ﾟ": 7652,
      "ﾩ": 7653,
      "ﾭ": 7654,
      "￠": 7655,
      "￡": 7656,
      "￥": 7657,
      "￩": 7658,
      "￪": 7659,
      "￫": 7660,
      "￰": 7661,
      "￴": 7662,
      "￻": 7663,
      "￼": 7664,
      "�": 7665,
      "𑄇": 7666,
      "𑄋": 7667,
      "𑄎": 7668,
      "𑄏": 7669,
      "𑄛": 7670,
      "𑄝": 7671,
      "𑄟": 7672,
      "𑄢": 7673,
      "𑄦": 7674,
      "𝐃": 7675,
      "𝐄": 7676,
      "𝐇": 7677,
      "𝔸": 7678,
      "𝔹": 7679,
      "𝔻": 7680,
      "𝔼": 7681,
      "𝔽": 7682,
      "𝔾": 7683,
      "𝕀": 7684,
      "𝕂": 7685,
      "𝕃": 7686,
      "𝕄": 7687,
      "𝕆": 7688,
      "𝕊": 7689,
      "𝕌": 7690,
      "𝕍": 7691,
      "𝕏": 7692,
      "𝕐": 7693,
      "𝗘": 7694,
      "🃏": 7695,
      "🅴": 7696,
      "🆔": 7697,
      "🆕": 7698,
      "🆚": 7699,
      "🇦": 7700,
      "🇧": 7701,
      "🇨": 7702,
      "🇩": 7703,
      "🇪": 7704,
      "🇫": 7705,
      "🇬": 7706,
      "🇮": 7707,
      "🇰": 7708,
      "🇱": 7709,
      "🇲": 7710,
      "🇳": 7711,
      "🇴": 7712,
      "🇵": 7713,
      "🇷": 7714,
      "🇸": 7715,
      "🇹": 7716,
      "🇺": 7717,
      "🇼": 7718,
      "🇿": 7719,
      "🌄": 7720,
      "🌅": 7721,
      "🌈": 7722,
      "🌋": 7723,
      "🌍": 7724,
      "🌎": 7725,
      "🌏": 7726,
      "🌐": 7727,
      "🌑": 7728,
      "🌓": 7729,
      "🌔": 7730,
      "🌕": 7731,
      "🌗": 7732,
      "🌙": 7733,
      "🌚": 7734,
      "🌝": 7735,
      "🌞": 7736,
      "🌟": 7737,
      "🌰": 7738,
      "🌱": 7739,
      "🌲": 7740,
      "🌳": 7741,
      "🌴": 7742,
      "🌵": 7743,
      "🌷": 7744,
      "🌸": 7745,
      "🌹": 7746,
      "🌺": 7747,
      "🌻": 7748,
      "🌾": 7749,
      "🌿": 7750,
      "🍁": 7751,
      "🍂": 7752,
      "🍄": 7753,
      "🍅": 7754,
      "🍉": 7755,
      "🍋": 7756,
      "🍎": 7757,
      "🍑": 7758,
      "🍒": 7759,
      "🍓": 7760,
      "🍖": 7761,
      "🍟": 7762,
      "🍣": 7763,
      "🍭": 7764,
      "🍷": 7765,
      "🍸": 7766,
      "🍹": 7767,
      "🍾": 7768,
      "🎀": 7769,
      "🎁": 7770,
      "🎂": 7771,
      "🎃": 7772,
      "🎄": 7773,
      "🎆": 7774,
      "🎇": 7775,
      "🎈": 7776,
      "🎉": 7777,
      "🎋": 7778,
      "🎍": 7779,
      "🎑": 7780,
      "🎓": 7781,
      "🎗": 7782,
      "🎙": 7783,
      "🎞": 7784,
      "🎤": 7785,
      "🎥": 7786,
      "🎧": 7787,
      "🎨": 7788,
      "🎬": 7789,
      "🎭": 7790,
      "🎯": 7791,
      "🎲": 7792,
      "🎵": 7793,
      "🎶": 7794,
      "🎷": 7795,
      "🎸": 7796,
      "🎹": 7797,
      "🎺": 7798,
      "🎻": 7799,
      "🏁": 7800,
      "🏃": 7801,
      "🏆": 7802,
      "🏇": 7803,
      "🏊": 7804,
      "🏌": 7805,
      "🏍": 7806,
      "🏏": 7807,
      "🏓": 7808,
      "🏘": 7809,
      "🏜": 7810,
      "🏝": 7811,
      "🏞": 7812,
      "🏟": 7813,
      "🏠": 7814,
      "🏡": 7815,
      "🏨": 7816,
      "🏰": 7817,
      "🏴": 7818,
      "🏻": 7819,
      "🏼": 7820,
      "🏿": 7821,
      "🐈": 7822,
      "🐍": 7823,
      "🐔": 7824,
      "🐕": 7825,
      "🐖": 7826,
      "🐚": 7827,
      "🐣": 7828,
      "🐤": 7829,
      "🐦": 7830,
      "🐯": 7831,
      "🐲": 7832,
      "🐶": 7833,
      "🐸": 7834,
      "👀": 7835,
      "👁": 7836,
      "👆": 7837,
      "👇": 7838,
      "👈": 7839,
      "👉": 7840,
      "👊": 7841,
      "👌": 7842,
      "👍": 7843,
      "👎": 7844,
      "👏": 7845,
      "👑": 7846,
      "👓": 7847,
      "👞": 7848,
      "👟": 7849,
      "👣": 7850,
      "👤": 7851,
      "👦": 7852,
      "👨": 7853,
      "👩": 7854,
      "👪": 7855,
      "👫": 7856,
      "👴": 7857,
      "👷": 7858,
      "👸": 7859,
      "👹": 7860,
      "👻": 7861,
      "👼": 7862,
      "👿": 7863,
      "💀": 7864,
      "💁": 7865,
      "💂": 7866,
      "💃": 7867,
      "💅": 7868,
      "💇": 7869,
      "💊": 7870,
      "💋": 7871,
      "💌": 7872,
      "💎": 7873,
      "💏": 7874,
      "💐": 7875,
      "💓": 7876,
      "💔": 7877,
      "💕": 7878,
      "💖": 7879,
      "💗": 7880,
      "💘": 7881,
      "💙": 7882,
      "💚": 7883,
      "💛": 7884,
      "💜": 7885,
      "💝": 7886,
      "💞": 7887,
      "💟": 7888,
      "💠": 7889,
      "💡": 7890,
      "💢": 7891,
      "💥": 7892,
      "💦": 7893,
      "💨": 7894,
      "💪": 7895,
      "💫": 7896,
      "💬": 7897,
      "💮": 7898,
      "💯": 7899,
      "💰": 7900,
      "💲": 7901,
      "💴": 7902,
      "💵": 7903,
      "💸": 7904,
      "💻": 7905,
      "💼": 7906,
      "💾": 7907,
      "💿": 7908,
      "📀": 7909,
      "📁": 7910,
      "📂": 7911,
      "📌": 7912,
      "📍": 7913,
      "📎": 7914,
      "📑": 7915,
      "📓": 7916,
      "📖": 7917,
      "📗": 7918,
      "📘": 7919,
      "📙": 7920,
      "📚": 7921,
      "📝": 7922,
      "📞": 7923,
      "📢": 7924,
      "📣": 7925,
      "📥": 7926,
      "📧": 7927,
      "📨": 7928,
      "📱": 7929,
      "📲": 7930,
      "📷": 7931,
      "📸": 7932,
      "📺": 7933,
      "🔁": 7934,
      "🔃": 7935,
      "🔇": 7936,
      "🔈": 7937,
      "🔉": 7938,
      "🔊": 7939,
      "🔍": 7940,
      "🔎": 7941,
      "🔒": 7942,
      "🔓": 7943,
      "🔔": 7944,
      "🔖": 7945,
      "🔘": 7946,
      "🔞": 7947,
      "🔥": 7948,
      "🔦": 7949,
      "🔧": 7950,
      "🔫": 7951,
      "🔮": 7952,
      "🔯": 7953,
      "🔰": 7954,
      "🔳": 7955,
      "🔴": 7956,
      "🔵": 7957,
      "🔶": 7958,
      "🔷": 7959,
      "🔸": 7960,
      "🔹": 7961,
      "🔺": 7962,
      "🔻": 7963,
      "🔼": 7964,
      "🔽": 7965,
      "🕉": 7966,
      "🕋": 7967,
      "🕎": 7968,
      "🕐": 7969,
      "🕑": 7970,
      "🕒": 7971,
      "🕓": 7972,
      "🕔": 7973,
      "🕕": 7974,
      "🕖": 7975,
      "🕗": 7976,
      "🕘": 7977,
      "🕙": 7978,
      "🕚": 7979,
      "🕛": 7980,
      "🕜": 7981,
      "🕝": 7982,
      "🕞": 7983,
      "🕟": 7984,
      "🕠": 7985,
      "🕡": 7986,
      "🕢": 7987,
      "🕣": 7988,
      "🕤": 7989,
      "🕥": 7990,
      "🕦": 7991,
      "🕧": 7992,
      "🕭": 7993,
      "🕮": 7994,
      "🕯": 7995,
      "🖤": 7996,
      "🖫": 7997,
      "🖮": 7998,
      "🗊": 7999,
      "🗣": 8000,
      "🗨": 8001,
      "🗽": 8002,
      "🗾": 8003,
      "😀": 8004,
      "😁": 8005,
      "😂": 8006,
      "😃": 8007,
      "😄": 8008,
      "😅": 8009,
      "😆": 8010,
      "😇": 8011,
      "😈": 8012,
      "😉": 8013,
      "😊": 8014,
      "😋": 8015,
      "😌": 8016,
      "😍": 8017,
      "😎": 8018,
      "😏": 8019,
      "😐": 8020,
      "😑": 8021,
      "😒": 8022,
      "😓": 8023,
      "😔": 8024,
      "😕": 8025,
      "😖": 8026,
      "😘": 8027,
      "😚": 8028,
      "😛": 8029,
      "😜": 8030,
      "😝": 8031,
      "😞": 8032,
      "😟": 8033,
      "😠": 8034,
      "😡": 8035,
      "😢": 8036,
      "😣": 8037,
      "😤": 8038,
      "😥": 8039,
      "😦": 8040,
      "😧": 8041,
      "😨": 8042,
      "😩": 8043,
      "😪": 8044,
      "😫": 8045,
      "😬": 8046,
      "😭": 8047,
      "😮": 8048,
      "😯": 8049,
      "😰": 8050,
      "😱": 8051,
      "😲": 8052,
      "😳": 8053,
      "😴": 8054,
      "😵": 8055,
      "😶": 8056,
      "😷": 8057,
      "😹": 8058,
      "🙀": 8059,
      "🙁": 8060,
      "🙂": 8061,
      "🙄": 8062,
      "🙆": 8063,
      "🙈": 8064,
      "🙉": 8065,
      "🙊": 8066,
      "🙋": 8067,
      "🙌": 8068,
      "🙍": 8069,
      "🙏": 8070,
      "🚁": 8071,
      "🚄": 8072,
      "🚒": 8073,
      "🚚": 8074,
      "🚛": 8075,
      "🚜": 8076,
      "🚢": 8077,
      "🚣": 8078,
      "🚥": 8079,
      "🚧": 8080,
      "🚩": 8081,
      "🚫": 8082,
      "🚭": 8083,
      "🚲": 8084,
      "🚳": 8085,
      "🚴": 8086,
      "🚵": 8087,
      "🚶": 8088,
      "🚹": 8089,
      "🚾": 8090,
      "🚿": 8091,
      "🛅": 8092,
      "🛇": 8093,
      "🛑": 8094,
      "🛡": 8095,
      "🛴": 8096,
      "🛸": 8097,
      "🤐": 8098,
      "🤑": 8099,
      "🤒": 8100,
      "🤓": 8101,
      "🤔": 8102,
      "🤕": 8103,
      "🤗": 8104,
      "🤝": 8105,
      "🤢": 8106,
      "🤣": 8107,
      "🤳": 8108,
      "🥀": 8109,
      "🥃": 8110,
      "🥈": 8111,
      "🥉": 8112,
      "🥛": 8113,
      "🥝": 8114,
      "🦆": 8115,
      "🧐": 8116,
      "🧑": 8117,
      "🧒": 8118,
      "𨏽": 8119,
      "𰸴": 8120,
      "𱦵": 8121,
      "𱦶": 8122,
      "𱱾": 8123,
      "𲻻": 8124,
      "𴲴": 8125,
      "𶼶": 8126,
      "𷭱": 8127,
      "𷻶": 8128,
      "𸣴": 8129,
      "𹥴": 8130,
      "𺳳": 8131,
      "𼴴": 8132,
      "𿪲": 8133,
      "𿪹": 8134,
      "𿪽": 8135,
      "񡪡": 8136,
      "񡾶": 8137,
      "񮖚": 8138,
      "񱔿": 8139,
      "񱨡": 8140,
      "񱨸": 8141,
      "񱨺": 8142,
      "񱨻": 8143,
      "񱱾": 8144,
      "񲻱": 8145,
      "񳬼": 8146,
      "񴶽": 8147,
      "񵽲": 8148,
      "񹷼": 8149,
      "񽥾": 8150,
      "񽱹": 8151,
      "񽱺": 8152,
      "񾡴": 8153,
      "񾭱": 8154,
      "񿪽": 8155,
      "򱱾": 8156,
      "򲩲": 8157,
      "򲻵": 8158,
      "򲻻": 8159,
      "򲻿": 8160,
      "򵥵": 8161,
      "򵥼": 8162,
      "򷨼": 8163,
      "򷽷": 8164,
      "򻧲": 8165,
      "򻧴": 8166,
      "򼰽": 8167,
      "򼸸": 8168,
      "򽱹": 8169,
      "򿪴": 8170,
      "򿪻": 8171,
      "򿪽": 8172,
      "󱱾": 8173,
      "󲩽": 8174,
      "󵶿": 8175,
      "󶫷": 8176,
      "󶼻": 8177,
      "󷽷": 8178,
      "󸣴": 8179,
      "󸲶": 8180,
      "󸻴": 8181,
      "󸻺": 8182,
      "󹫿": 8183,
      "󹬴": 8184,
      "󹷲": 8185,
      "󽫾": 8186,
      "󿨰": 8187,
      "󿪴": 8188,
      "󿪵": 8189,
      "󿪻": 8190,
      "󿪽": 8191,
      "􀆵": 8192,
      "􀇘": 8193,
      "􀈴": 8194,
      "􀉇": 8195,
      "􀉑": 8196,
      "􀉬": 8197,
      "􀋰": 8198,
      "􀏠": 8199,
      "􀑐": 8200,
      "􀒝": 8201,
      "􁃈": 8202,
      "কর": 8203,
      "পর": 8204,
      "তর": 8205,
      "নর": 8206,
      "বর": 8207,
      "দর": 8208,
      "নয": 8209,
      "মন": 8210,
      "বল": 8211,
      "সম": 8212,
      "হয": 8213,
      "নত": 8214,
      "যর": 8215,
      "সব": 8216,
      "কষ": 8217,
      "মর": 8218,
      "গর": 8219,
      "সর": 8220,
      "এক": 8221,
      "টর": 8222,
      "জন": 8223,
      "থক": 8224,
      "বয": 8225,
      "শর": 8226,
      "কল": 8227,
      "দয": 8228,
      "বন": 8229,
      "কত": 8230,
      "সথ": 8231,
      "তন": 8232,
      "ধর": 8233,
      "জর": 8234,
      "কন": 8235,
      "লর": 8236,
      "যন": 8237,
      "বশ": 8238,
      "দন": 8239,
      "খন": 8240,
      "ছন": 8241,
      "মল": 8242,
      "সন": 8243,
      "ছল": 8244,
      "তয": 8245,
      "সল": 8246,
      "আর": 8247,
      "দশ": 8248,
      "হর": 8249,
      "জনয": 8250,
      "পত": 8251,
      "গল": 8252,
      "তব": 8253,
      "অন": 8254,
      "ওয": 8255,
      "এই": 8256,
      "ধয": 8257,
      "বস": 8258,
      "পল": 8259,
      "চল": 8260,
      "এব": 8261,
      "চর": 8262,
      "ঙগ": 8263,
      "দল": 8264,
      "হল": 8265,
      "পন": 8266,
      "হত": 8267,
      "করত": 8268,
      "ভব": 8269,
      "মত": 8270,
      "একট": 8271,
      "পরয": 8272,
      "ধন": 8273,
      "আম": 8274,
      "সট": 8275,
      "কট": 8276,
      "কম": 8277,
      "হব": 8278,
      "মধয": 8279,
      "দক": 8280,
      "ফর": 8281,
      "এর": 8282,
      "ভর": 8283,
      "কয": 8284,
      "পরত": 8285,
      "বড": 8286,
      "উপ": 8287,
      "শন": 8288,
      "জল": 8289,
      "আল": 8290,
      "যগ": 8291,
      "নন": 8292,
      "ইন": 8293,
      "..": 8294,
      "আমর": 8295,
      "কছ": 8296,
      "হযছ": 8297,
      "ময": 8298,
      "সত": 8299,
      "দধ": 8300,
      "করন": 8301,
      "চছ": 8302,
      "দখ": 8303,
      "সহ": 8304,
      "ফল": 8305,
      "টক": 8306,
      "পড": 8307,
      "ষট": 8308,
      "গত": 8309,
      "চন": 8310,
      "করম": 8311,
      "ষঠ": 8312,
      "সময": 8313,
      "রজ": 8314,
      "তল": 8315,
      "করর": 8316,
      "হন": 8317,
      "হম": 8318,
      "দব": 8319,
      "ডর": 8320,
      "বলন": 8321,
      "ঘট": 8322,
      "সই": 8323,
      "খল": 8324,
      "সয": 8325,
      "সঙগ": 8326,
      "তদর": 8327,
      "করছ": 8328,
      "নম": 8329,
      "যয": 8330,
      "রথ": 8331,
      "কথ": 8332,
      "আগ": 8333,
      "অভ": 8334,
      "ছর": 8335,
      "সদ": 8336,
      "বষ": 8337,
      "তত": 8338,
      "২০": 8339,
      "সক": 8340,
      "মক": 8341,
      "লখ": 8342,
      "ওযর": 8343,
      "অব": 8344,
      "এস": 8345,
      "উন": 8346,
      "সভ": 8347,
      "বব": 8348,
      "মনতর": 8349,
      "শল": 8350,
      "রয": 8351,
      "কজ": 8352,
      "শকষ": 8353,
      "হস": 8354,
      "সকল": 8355,
      "ছড": 8356,
      "তক": 8357,
      "গয": 8358,
      "বভ": 8359,
      "ভল": 8360,
      "কনত": 8361,
      "নরব": 8362,
      "চয": 8363,
      "এখন": 8364,
      "পশ": 8365,
      "অনয": 8366,
      "ছলন": 8367,
      "পরক": 8368,
      "এন": 8369,
      "দশর": 8370,
      "জয": 8371,
      "বছর": 8372,
      "করণ": 8373,
      "বযব": 8374,
      "বদ": 8375,
      "সতর": 8376,
      "যত": 8377,
      "বলদশ": 8378,
      "পনর": 8379,
      "রখ": 8380,
      "ইল": 8381,
      "পয": 8382,
      "সলম": 8383,
      "উদ": 8384,
      "মনষ": 8385,
      "করয": 8386,
      "এল": 8387,
      "অনক": 8388,
      "আন": 8389,
      "যব": 8390,
      "পরধন": 8391,
      "নই": 8392,
      "পরথ": 8393,
      "পরণ": 8394,
      "চত": 8395,
      "বষয": 8396,
      "আব": 8397,
      "নট": 8398,
      "সরকর": 8399,
      "তই": 8400,
      "পকষ": 8401,
      "করছন": 8402,
      "...": 8403,
      "পরব": 8404,
      "পতর": 8405,
      "আমদর": 8406,
      "আজ": 8407,
      "ধরণ": 8408,
      "কতর": 8409,
      "মস": 8410,
      "হসব": 8411,
      "জঞ": 8412,
      "হসন": 8413,
      "তম": 8414,
      "পক": 8415,
      "মখ": 8416,
      "বরত": 8417,
      "জনন": 8418,
      "শষ": 8419,
      "হজর": 8420,
      "গণ": 8421,
      "রহ": 8422,
      "দত": 8423,
      "ঘর": 8424,
      "নতন": 8425,
      "নজ": 8426,
      "বধ": 8427,
      "বক": 8428,
      "যদ": 8429,
      "নযন": 8430,
      "গন": 8431,
      "আছ": 8432,
      "লন": 8433,
      "হচছ": 8434,
      "লয": 8435,
      "আই": 8436,
      "এট": 8437,
      "গছ": 8438,
      "সড": 8439,
      "বনধ": 8440,
      "তথ": 8441,
      "গরম": 8442,
      "গরহ": 8443,
      "বই": 8444,
      "গড": 8445,
      "ষটর": 8446,
      "এমন": 8447,
      "এম": 8448,
      "সমপ": 8449,
      "দই": 8450,
      "২০১": 8451,
      "ইউ": 8452,
      "পরথম": 8453,
      "জব": 8454,
      "অনষঠ": 8455,
      "বভনন": 8456,
      "সমন": 8457,
      "রযছ": 8458,
      "পট": 8459,
      "পলশ": 8460,
      "আপন": 8461,
      "মট": 8462,
      "আস": 8463,
      "পথ": 8464,
      "শত": 8465,
      "ইসলম": 8466,
      "মতর": 8467,
      "পরবর": 8468,
      "খর": 8469,
      "জত": 8470,
      "অরথ": 8471,
      "ঠক": 8472,
      "নরবচন": 8473,
      "মণ": 8474,
      "সটর": 8475,
      "পরশ": 8476,
      "নক": 8477,
      "ষণ": 8478,
      "ঞজ": 8479,
      "সভপত": 8480,
      "মধযম": 8481,
      "পরন": 8482,
      "লল": 8483,
      "রত": 8484,
      "জলর": 8485,
      "মযন": 8486,
      "ডয": 8487,
      "লক": 8488,
      "টন": 8489,
      "কষণ": 8490,
      "১০": 8491,
      "বশষ": 8492,
      "জতয": 8493,
      "সবর": 8494,
      "১৯": 8495,
      "অয": 8496,
      "অবসথ": 8497,
      "চক": 8498,
      "ঢক": 8499,
      "লগ": 8500,
      "মলয": 8501,
      "ছতর": 8502,
      "আপনর": 8503,
      "ওই": 8504,
      "হক": 8505,
      "পদ": 8506,
      "শখ": 8507,
      "এত": 8508,
      "সধরণ": 8509,
      "চচ": 8510,
      "পরষ": 8511,
      "জম": 8512,
      "বএন": 8513,
      "নজর": 8514,
      "তরণ": 8515,
      "কব": 8516,
      "মদ": 8517,
      "উপজল": 8518,
      "বযবহর": 8519,
      "মহ": 8520,
      "খয": 8521,
      "শয": 8522,
      "সহয": 8523,
      "হসপত": 8524,
      "পরতষঠ": 8525,
      "আওয": 8526,
      "সমপদক": 8527,
      "টল": 8528,
      "পরস": 8529,
      "উল": 8530,
      "উঠ": 8531,
      "জনর": 8532,
      "পরযনত": 8533,
      "বহ": 8534,
      "পরর": 8535,
      "কনদর": 8536,
      "in": 8537,
      "রহমন": 8538,
      "গঠ": 8539,
      "বদয": 8540,
      "কউ": 8541,
      "খবর": 8542,
      "করল": 8543,
      "আয": 8544,
      "পরচল": 8545,
      "অশ": 8546,
      "মকত": 8547,
      "অধ": 8548,
      "an": 8549,
      "তখন": 8550,
      "হদ": 8551,
      "কক": 8552,
      "সস": 8553,
      "যখন": 8554,
      "সবদ": 8555,
      "মড": 8556,
      "হমদ": 8557,
      "করব": 8558,
      "পরতয": 8559,
      "ফট": 8560,
      "টট": 8561,
      "পরট": 8562,
      "কষতর": 8563,
      "চযর": 8564,
      "নতক": 8565,
      "বজর": 8566,
      "সলর": 8567,
      "আবর": 8568,
      "ভই": 8569,
      "ঘটন": 8570,
      "আইন": 8571,
      "সদসয": 8572,
      "সথত": 8573,
      "টয": 8574,
      "মম": 8575,
      "ততর": 8576,
      "পরকষ": 8577,
      "।’": 8578,
      "ফন": 8579,
      "সবক": 8580,
      "বলদশর": 8581,
      "লম": 8582,
      "মনট": 8583,
      "পরধনমনতর": 8584,
      "আশ": 8585,
      "সমর": 8586,
      "সচ": 8587,
      "দনর": 8588,
      "er": 8589,
      "ভগ": 8590,
      "উজ": 8591,
      "বযবসথ": 8592,
      "নশ": 8593,
      "একজন": 8594,
      "দওয": 8595,
      "লহ": 8596,
      "ভরত": 8597,
      "অভযগ": 8598,
      "লযর": 8599,
      "কদর": 8600,
      "জবন": 8601,
      "ইত": 8602,
      "তথয": 8603,
      "শনর": 8604,
      "বরদধ": 8605,
      "গঞজ": 8606,
      "নযর": 8607,
      "গরহণ": 8608,
      "পঠ": 8609,
      "মযর": 8610,
      "শধ": 8611,
      "বদধ": 8612,
      "অফ": 8613,
      "মবর": 8614,
      "আওযম": 8615,
      "ছট": 8616,
      "লকষ": 8617,
      "মনষর": 8618,
      "বলছন": 8619,
      "মনর": 8620,
      "সখন": 8621,
      "উৎ": 8622,
      "ভয": 8623,
      "রন": 8624,
      "দলর": 8625,
      "উপর": 8626,
      "বঝ": 8627,
      "ছব": 8628,
      "শহর": 8629,
      "শরর": 8630,
      "বযকত": 8631,
      "বজ": 8632,
      "অপর": 8633,
      "পরতব": 8634,
      "মহম": 8635,
      "ববর": 8636,
      "বশবব": 8637,
      "on": 8638,
      "তরর": 8639,
      "বযক": 8640,
      "লগর": 8641,
      "হওয": 8642,
      "উপজলর": 8643,
      "টই": 8644,
      "বশববদয": 8645,
      "তরক": 8646,
      "আরও": 8647,
      "শকর": 8648,
      "ঙগল": 8649,
      "মথ": 8650,
      "পরকল": 8651,
      "or": 8652,
      "সমজ": 8653,
      "এবর": 8654,
      "সমবর": 8655,
      "পওয": 8656,
      "নগর": 8657,
      "খব": 8658,
      "বকত": 8659,
      "শযর": 8660,
      "সসথ": 8661,
      "মঝ": 8662,
      "উদদন": 8663,
      "গলর": 8664,
      "একই": 8665,
      "পরতন": 8666,
      "মটর": 8667,
      "সমপরক": 8668,
      "কষত": 8669,
      "আদল": 8670,
      "বচর": 8671,
      "বরতমন": 8672,
      "দম": 8673,
      "ar": 8674,
      "আহমদ": 8675,
      "অর": 8676,
      "মলক": 8677,
      "ভট": 8678,
      "সকর": 8679,
      "পরকশ": 8680,
      "শহ": 8681,
      "এসব": 8682,
      "গরমর": 8683,
      "জড": 8684,
      "ভবন": 8685,
      "সযগ": 8686,
      "উদয": 8687,
      "বছরর": 8688,
      "আবদল": 8689,
      "শশ": 8690,
      "ওপর": 8691,
      "উততর": 8692,
      "করমকরত": 8693,
      "সদর": 8694,
      "তরত": 8695,
      "যদধ": 8696,
      "দযর": 8697,
      "ডক": 8698,
      "es": 8699,
      "অনষঠত": 8700,
      "বযবস": 8701,
      "চছন": 8702,
      "সথয": 8703,
      "বলর": 8704,
      "বত": 8705,
      "পস": 8706,
      "বগ": 8707,
      "ভড": 8708,
      "বকল": 8709,
      "ণর": 8710,
      "আগম": 8711,
      "হই": 8712,
      "নতর": 8713,
      "লই": 8714,
      "en": 8715,
      "যনড": 8716,
      "হওযর": 8717,
      "পতত": 8718,
      "মতয": 8719,
      "চম": 8720,
      "চধর": 8721,
      "সতয": 8722,
      "বজঞ": 8723,
      "ডসক": 8724,
      "৩০": 8725,
      "মহমমদ": 8726,
      "জনত": 8727,
      "চষট": 8728,
      "হতয": 8729,
      "কমর": 8730,
      "পরমণ": 8731,
      "যচছ": 8732,
      "পরশন": 8733,
      "ভষ": 8734,
      "চকৎ": 8735,
      "১২": 8736,
      "রষটর": 8737,
      "সরকরর": 8738,
      "উপসথত": 8739,
      "১৫": 8740,
      "তহল": 8741,
      "সখয": 8742,
      "বঙগ": 8743,
      "বসত": 8744,
      "ধরনর": 8745,
      "কশ": 8746,
      "ডন": 8747,
      "জনক": 8748,
      "চযরমযন": 8749,
      "সগঠ": 8750,
      "ঘষণ": 8751,
      "বযর": 8752,
      "অনষঠন": 8753,
      "চই": 8754,
      "কটর": 8755,
      "পরতনধ": 8756,
      "মজ": 8757,
      "পণ": 8758,
      "al": 8759,
      "১১": 8760,
      "পযন": 8761,
      "at": 8762,
      "ভত": 8763,
      "আলম": 8764,
      "সবই": 8765,
      "পরবশ": 8766,
      "বরধ": 8767,
      "চনর": 8768,
      "সথনয": 8769,
      "নব": 8770,
      "ওর": 8771,
      "আসন": 8772,
      "করবন": 8773,
      "পরচর": 8774,
      "পচ": 8775,
      "কযক": 8776,
      "চটট": 8777,
      "সবধ": 8778,
      "বডত": 8779,
      "��": 8780,
      "যমন": 8781,
      "দষট": 8782,
      "দপর": 8783,
      "বলত": 8784,
      "om": 8785,
      "বএনপ": 8786,
      "সথন": 8787,
      "এলকয": 8788,
      "কঠ": 8789,
      "বনদর": 8790,
      "০০": 8791,
      "ঞচ": 8792,
      "যথ": 8793,
      "মদর": 8794,
      "উললখ": 8795,
      "শকষরথ": 8796,
      "জমন": 8797,
      "সরব": 8798,
      "হযন": 8799,
      "মঠ": 8800,
      "আটক": 8801,
      "দযছ": 8802,
      "যগয": 8803,
      "নউজ": 8804,
      "সযর": 8805,
      "বযপর": 8806,
      "সমভব": 8807,
      "কলজ": 8808,
      "হট": 8809,
      "বকতবয": 8810,
      "কবর": 8811,
      "লড": 8812,
      "দখত": 8813,
      "সনদর": 8814,
      "অথ": 8815,
      "আনদল": 8816,
      "মহন": 8817,
      "পছ": 8818,
      "জতক": 8819,
      "ফক": 8820,
      "বনয": 8821,
      "আদলত": 8822,
      "মমল": 8823,
      "নযনর": 8824,
      "দশয": 8825,
      "লইন": 8826,
      "যকত": 8827,
      "ইট": 8828,
      "মঙগল": 8829,
      "মলন": 8830,
      "পছন": 8831,
      "হযছল": 8832,
      "),": 8833,
      "উননযন": 8834,
      "পলন": 8835,
      "বশব": 8836,
      "ণড": 8837,
      "রম": 8838,
      "ইয": 8839,
      "হসপতল": 8840,
      "ফতর": 8841,
      "কমন": 8842,
      "এছড": 8843,
      "বএনপর": 8844,
      "সপ": 8845,
      "মযচ": 8846,
      "মব": 8847,
      "চতর": 8848,
      "ফয": 8849,
      "সসদ": 8850,
      "শকত": 8851,
      "কখন": 8852,
      "উদধর": 8853,
      "কমল": 8854,
      "রজনতক": 8855,
      "বহন": 8856,
      "চলছ": 8857,
      "সতন": 8858,
      "দট": 8859,
      ")।": 8860,
      "বকর": 8861,
      "পররথ": 8862,
      "ঙগর": 8863,
      "দহ": 8864,
      "দবর": 8865,
      "দরঘ": 8866,
      "১৮": 8867,
      "শলপ": 8868,
      "নল": 8869,
      "কভব": 8870,
      "অধয": 8871,
      "সবদক": 8872,
      "যই": 8873,
      "ধক": 8874,
      "সপর": 8875,
      "সভয": 8876,
      "চপ": 8877,
      "এরপর": 8878,
      "রপ": 8879,
      "ভরতর": 8880,
      "আনতর": 8881,
      "খত": 8882,
      "বসতরত": 8883,
      "মহর": 8884,
      "ঞচল": 8885,
      "নহত": 8886,
      "থকব": 8887,
      "শক": 8888,
      "গজ": 8889,
      "সনর": 8890,
      "অবশ": 8891,
      "সকষ": 8892,
      "আহ": 8893,
      "সমসয": 8894,
      "খজ": 8895,
      "থকই": 8896,
      "দবতয": 8897,
      "পরল": 8898,
      "দযতব": 8899,
      "বরর": 8900,
      "it": 8901,
      "থকল": 8902,
      "ধনর": 8903,
      "সদধ": 8904,
      "আলচন": 8905,
      "লকষয": 8906,
      "১৪": 8907,
      "জযর": 8908,
      "বহসপত": 8909,
      "করড": 8910,
      "নশচত": 8911,
      "যকতর": 8912,
      "২০০": 8913,
      "বনদ": 8914,
      "পরযজন": 8915,
      "পরদন": 8916,
      "মনত": 8917,
      "গরতব": 8918,
      "ভতত": 8919,
      "বষযট": 8920,
      "টকর": 8921,
      "শতশ": 8922,
      "বরণ": 8923,
      "মহল": 8924,
      "রববর": 8925,
      "আনতরজতক": 8926,
      "বহসপতবর": 8927,
      "নরদশ": 8928,
      "ঘটনয": 8929,
      "ছলম": 8930,
      "সষট": 8931,
      "পরপত": 8932,
      "২৫": 8933,
      "ঙক": 8934,
      "পরকত": 8935,
      "বধবর": 8936,
      "দযছন": 8937,
      "উচচ": 8938,
      "অভযন": 8939,
      "টরন": 8940,
      "শকষক": 8941,
      "জনযছন": 8942,
      "জনম": 8943,
      "বরষ": 8944,
      "তরপর": 8945,
      "অনযয": 8946,
      "খলদ": 8947,
      "গতকল": 8948,
      "আমক": 8949,
      "সজ": 8950,
      "পরতষঠন": 8951,
      "বযস": 8952,
      "তমর": 8953,
      "সবচয": 8954,
      "পরদর": 8955,
      "চটটগরম": 8956,
      "ডল": 8957,
      "ভতর": 8958,
      "দকষণ": 8959,
      "কস": 8960,
      "রগ": 8961,
      "মঙগলবর": 8962,
      "২৪": 8963,
      "যতর": 8964,
      "বদশ": 8965,
      "যক": 8966,
      "পশপশ": 8967,
      "পলশর": 8968,
      "থকত": 8969,
      "উই": 8970,
      "চলয": 8971,
      "সতত": 8972,
      "আকর": 8973,
      "রশ": 8974,
      "জট": 8975,
      "পব": 8976,
      "অতথ": 8977,
      "ডট": 8978,
      "চলত": 8979,
      "হযছন": 8980,
      "ভকত": 8981,
      "চকর": 8982,
      "জরর": 8983,
      "নদর": 8984,
      "সফল": 8985,
      "ad": 8986,
      "১৬": 8987,
      "শনবর": 8988,
      "যওয": 8989,
      "হলও": 8990,
      "বশবস": 8991,
      "সলট": 8992,
      "সদধনত": 8993,
      "আসল": 8994,
      "ইউন": 8995,
      "এলকর": 8996,
      "নতত": 8997,
      "পরচলক": 8998,
      "জনযর": 8999,
      "নভ": 9000,
      "অপ": 9001,
      "বদর": 9002,
      "বণ": 9003,
      "অনযনয": 9004,
      "মসর": 9005,
      "সপত": 9006,
      "দনত": 9007,
      "চড": 9008,
      "কনও": 9009,
      "দড": 9010,
      "মনতরণ": 9011,
      "আহত": 9012,
      "দদ": 9013,
      "ডজ": 9014,
      "কষর": 9015,
      "চখ": 9016,
      "মপ": 9017,
      "কমটর": 9018,
      "উদব": 9019,
      "বশববদযলয": 9020,
      "রপর": 9021,
      "শকরবর": 9022,
      "he": 9023,
      "১৭": 9024,
      "ছয": 9025,
      "উদযগ": 9026,
      "উর": 9027,
      "সডক": 9028,
      "করমর": 9029,
      "আবদন": 9030,
      "st": 9031,
      "কবল": 9032,
      "নড": 9033,
      "গবষ": 9034,
      "বশল": 9035,
      "বসর": 9036,
      "সবধন": 9037,
      "বইর": 9038,
      "থনর": 9039,
      "বট": 9040,
      "১৩": 9041,
      "লভ": 9042,
      "ঞজর": 9043,
      "অফসর": 9044,
      "সবসথয": 9045,
      "জদ": 9046,
      "ইউনযন": 9047,
      "কমপন": 9048,
      "বলয": 9049,
      "এগয": 9050,
      "নততব": 9051,
      "আযজন": 9052,
      "যওযর": 9053,
      "অবসথন": 9054,
      "কনদরয": 9055,
      "রখন": 9056,
      "রখত": 9057,
      "আগর": 9058,
      "ওঠ": 9059,
      "বশর": 9060,
      "শনত": 9061,
      "ইউনযনর": 9062,
      "সহজ": 9063,
      "৫০": 9064,
      "কষমত": 9065,
      "উপল": 9066,
      "সপট": 9067,
      "বলছ": 9068,
      "বশববদযলযর": 9069,
      "কড": 9070,
      "আসত": 9071,
      "ic": 9072,
      "ভস": 9073,
      "একবর": 9074,
      "বভগর": 9075,
      "পরবন": 9076,
      "সমপরত": 9077,
      "নথ": 9078,
      "হড": 9079,
      "গলত": 9080,
      "চনত": 9081,
      "তরকত": 9082,
      "আললহ": 9083,
      "যগযগ": 9084,
      "আতম": 9085,
      "অত": 9086,
      "দখল": 9087,
      "ককসব": 9088,
      "ফরন": 9089,
      "নমবর": 9090,
      "মই": 9091,
      "পরযয": 9092,
      "এসছ": 9093,
      "নরমণ": 9094,
      "বডর": 9095,
      "রসল": 9096,
      "মথয": 9097,
      "নওয": 9098,
      "মসলম": 9099,
      "পরই": 9100,
      "সমজক": 9101,
      "রল": 9102,
      "যকতরষটর": 9103,
      "ধরম": 9104,
      "কচ": 9105,
      "কলর": 9106,
      "দরত": 9107,
      "জতর": 9108,
      "শরষ": 9109,
      "হরয": 9110,
      "20": 9111,
      "২০১৮": 9112,
      "পরবরর": 9113,
      "ঘটনর": 9114,
      "দবস": 9115,
      "নভমবর": 9116,
      "সমত": 9117,
      "এফ": 9118,
      "বলল": 9119,
      "হযত": 9120,
      "যণ": 9121,
      "যনট": 9122,
      "পরসড": 9123,
      "নমর": 9124,
      "সমমলন": 9125,
      "বমন": 9126,
      "পনন": 9127,
      "দবন": 9128,
      "ইসল": 9129,
      "মসত": 9130,
      "সমপর": 9131,
      "নরবহ": 9132,
      "আনদলন": 9133,
      "কলন": 9134,
      "জনগণ": 9135,
      "গরফতর": 9136,
      "আশর": 9137,
      "গলপ": 9138,
      "অবসথয": 9139,
      "পরথমক": 9140,
      "উট": 9141,
      "ভঙ": 9142,
      "পরবরত": 9143,
      "থন": 9144,
      "তমন": 9145,
      "পরষদর": 9146,
      "করই": 9147,
      "নষ": 9148,
      "নজদর": 9149,
      "কমশনর": 9150,
      "থকন": 9151,
      "হজ": 9152,
      "দডয": 9153,
      "পযর": 9154,
      "অনর": 9155,
      "মরচ": 9156,
      "ননদ": 9157,
      "বভগ": 9158,
      "ed": 9159,
      "বম": 9160,
      "অকট": 9161,
      "সনতন": 9162,
      "কউন": 9163,
      "আত": 9164,
      "বগম": 9165,
      "কপ": 9166,
      "কযল": 9167,
      "ইনটর": 9168,
      "মদক": 9169,
      "মহস": 9170,
      "মছ": 9171,
      "তদনত": 9172,
      "নযক": 9173,
      "বজয": 9174,
      "কই": 9175,
      "ললহ": 9176,
      "হসনর": 9177,
      "’।": 9178,
      "অনলইন": 9179,
      "নচ": 9180,
      "অফস": 9181,
      "পডছ": 9182,
      "সফর": 9183,
      "পই": 9184,
      "ভডও": 9185,
      "বঙগবনধ": 9186,
      "মবইল": 9187,
      "পজ": 9188,
      "সরয": 9189,
      "দখন": 9190,
      "সশল": 9191,
      "বশবর": 9192,
      "রহঙগ": 9193,
      "পকসতন": 9194,
      "শরত": 9195,
      "আসর": 9196,
      "করছলন": 9197,
      "মও": 9198,
      "মকতযদধ": 9199,
      "ডলর": 9200,
      "উপলকষ": 9201,
      "শভ": 9202,
      "দলয": 9203,
      "এদক": 9204,
      "ou": 9205,
      "সপটমবর": 9206,
      "বযবসয": 9207,
      "ew": 9208,
      "মধ": 9209,
      "অথব": 9210,
      "le": 9211,
      "বঠক": 9212,
      "বশবক": 9213,
      "সহকর": 9214,
      "এলক": 9215,
      "বহনর": 9216,
      "জলই": 9217,
      "গরতবপরণ": 9218,
      "২২": 9219,
      "is": 9220,
      "শহদ": 9221,
      "পরসতত": 9222,
      "পরযকত": 9223,
      "পরষদ": 9224,
      "ঘন": 9225,
      "শরমক": 9226,
      "তরখ": 9227,
      "বচ": 9228,
      "সনতর": 9229,
      "বযন": 9230,
      "সনত": 9231,
      "অকটবর": 9232,
      "ফরম": 9233,
      "ককসবজর": 9234,
      "শরম": 9235,
      "মরকন": 9236,
      "নযগ": 9237,
      "পরতবদন": 9238,
      "রকত": 9239,
      "পরবরতন": 9240,
      "অতরকত": 9241,
      "বডয": 9242,
      "পলট": 9243,
      "মনব": 9244,
      "ধরন": 9245,
      "সসকত": 9246,
      "সগর": 9247,
      "মসল": 9248,
      "সফ": 9249,
      "জগ": 9250,
      "বরট": 9251,
      "কথয": 9252,
      "চকৎস": 9253,
      "ঘষ": 9254,
      "re": 9255,
      "বললন": 9256,
      "সথল": 9257,
      "ভম": 9258,
      "রহম": 9259,
      "la": 9260,
      "ing": 9261,
      "রকষ": 9262,
      "হমল": 9263,
      "দওযর": 9264,
      "সথপন": 9265,
      "২১": 9266,
      "লশ": 9267,
      "নদ": 9268,
      "লট": 9269,
      "ion": 9270,
      "র‌": 9271,
      "মরর": 9272,
      "গট": 9273,
      "সবভব": 9274,
      "কশর": 9275,
      "পরচয": 9276,
      "কমট": 9277,
      "সমরথ": 9278,
      "পশচম": 9279,
      "সহযয": 9280,
      "চষ": 9281,
      "থকর": 9282,
      "ang": 9283,
      "গম": 9284,
      "কজর": 9285,
      "কযর": 9286,
      "ভরতয": 9287,
      "অধকর": 9288,
      "সবকর": 9289,
      "বধয": 9290,
      "নরপতত": 9291,
      "পরসডনট": 9292,
      "ভন": 9293,
      "জনপরয": 9294,
      "৪০": 9295,
      "সমযর": 9296,
      "সকলর": 9297,
      "সভপততব": 9298,
      "উদদশয": 9299,
      "শবদ": 9300,
      "ডসমবর": 9301,
      "অনযতম": 9302,
      "সবপন": 9303,
      "অতয": 9304,
      "শহরর": 9305,
      "পরচলন": 9306,
      "পরমর": 9307,
      "বসন": 9308,
      "বষযক": 9309,
      "করট": 9310,
      "বলক": 9311,
      "আসম": 9312,
      "পরম": 9313,
      "উটর": 9314,
      "জনস": 9315,
      "কণ": 9316,
      "জনযছ": 9317,
      "করকট": 9318,
      "মলত": 9319,
      "lo": 9320,
      "সমল": 9321,
      "ঘণ": 9322,
      "লহর": 9323,
      "করতপকষ": 9324,
      "পডর": 9325,
      "রড": 9326,
      "আছন": 9327,
      "ঘত": 9328,
      "কযকট": 9329,
      "পরতট": 9330,
      "নযনতরণ": 9331,
      "অধযপক": 9332,
      "সনধয": 9333,
      "ইচছ": 9334,
      "।”": 9335,
      "শরণ": 9336,
      "ছডয": 9337,
      "গভর": 9338,
      "তলক": 9339,
      "উননত": 9340,
      "উড": 9341,
      "ঈদ": 9342,
      "তনতর": 9343,
      "পশর": 9344,
      "হলন": 9345,
      "জময": 9346,
      "জক": 9347,
      "চইল": 9348,
      "হতযর": 9349,
      "আসছ": 9350,
      "অল": 9351,
      "করছল": 9352,
      "ঢকর": 9353,
      "বযকর": 9354,
      "ইতয": 9355,
      "মশ": 9356,
      "রকম": 9357,
      "দরর": 9358,
      "বহর": 9359,
      "রজধনর": 9360,
      "নরবচনর": 9361,
      "জবনর": 9362,
      "মমলয": 9363,
      "পরশনর": 9364,
      "তবর": 9365,
      "উদবধন": 9366,
      "আগসট": 9367,
      "বসয": 9368,
      "রনর": 9369,
      "পসট": 9370,
      "অবধ": 9371,
      "দপতর": 9372,
      "ভমক": 9373,
      "মমলর": 9374,
      "ডম": 9375,
      "পরকলপন": 9376,
      "২৩": 9377,
      "জযগ": 9378,
      "পরসঙগ": 9379,
      "উঠছ": 9380,
      "যট": 9381,
      "পডন": 9382,
      "হতর": 9383,
      "বপল": 9384,
      "আবল": 9385,
      "বনধর": 9386,
      "কছই": 9387,
      "বদল": 9388,
      "ইহ": 9389,
      "২০১৭": 9390,
      "মরত": 9391,
      "দবত": 9392,
      "ফসবক": 9393,
      "গরর": 9394,
      "রস": 9395,
      "পরতর": 9396,
      "সঘর": 9397,
      "ইরজ": 9398,
      "নজসব": 9399,
      "কমপ": 9400,
      "কষট": 9401,
      "আহবন": 9402,
      "সচব": 9403,
      "২৮": 9404,
      "বঙ": 9405,
      "বরড": 9406,
      "যনডর": 9407,
      "সরজ": 9408,
      "ইতহস": 9409,
      "ততয": 9410,
      "নরর": 9411,
      "করযকরম": 9412,
      "মনতবয": 9413,
      "গদ": 9414,
      "পদন": 9415,
      "তৎ": 9416,
      "এমপ": 9417,
      "নযছ": 9418,
      "করও": 9419,
      "গবষণ": 9420,
      "জজমন": 9421,
      "উচত": 9422,
      "পরকলপ": 9423,
      "জঙগ": 9424,
      "বদযলয": 9425,
      "বডছ": 9426,
      "এখনও": 9427,
      "বজঞন": 9428,
      "মগ": 9429,
      "পবন": 9430,
      "শবর": 9431,
      "যল": 9432,
      "অরথৎ": 9433,
      "এড": 9434,
      "ভটর": 9435,
      "পরশসন": 9436,
      "পরভব": 9437,
      "জহ": 9438,
      "বকষ": 9439,
      "করলন": 9440,
      "201": 9441,
      "আমন": 9442,
      "জবব": 9443,
      "ews": 9444,
      "থর": 9445,
      "পরতবদ": 9446,
      "সশলষট": 9447,
      "কষপ": 9448,
      "চলন": 9449,
      "পযছ": 9450,
      "মপর": 9451,
      "তহ": 9452,
      "ঐকয": 9453,
      "আসব": 9454,
      "থনয": 9455,
      "আপনক": 9456,
      "বঝত": 9457,
      "ভঙগ": 9458,
      "আগই": 9459,
      "খযত": 9460,
      "পরণত": 9461,
      "খলর": 9462,
      "পপ": 9463,
      "বযট": 9464,
      "করদর": 9465,
      "অপরধ": 9466,
      "গলম": 9467,
      "২৬": 9468,
      "খলন": 9469,
      "শনল": 9470,
      "চকত": 9471,
      "থকয": 9472,
      "বদযৎ": 9473,
      "দধত": 9474,
      "পরমখ": 9475,
      "বশষট": 9476,
      "ধরত": 9477,
      "পরসতব": 9478,
      "il": 9479,
      "অনকই": 9480,
      "পণয": 9481,
      "সতনর": 9482,
      "বযপক": 9483,
      "গঠন": 9484,
      "com": 9485,
      "টত": 9486,
      "রব": 9487,
      "কমশন": 9488,
      "রজয": 9489,
      "সদসযর": 9490,
      "ফবর": 9491,
      "এসময": 9492,
      "রপরট": 9493,
      "am": 9494,
      "অরজন": 9495,
      "সখ": 9496,
      "দরকর": 9497,
      "এমনক": 9498,
      "রঙ": 9499,
      "অসতর": 9500,
      "নকট": 9501,
      "উচ": 9502,
      "পরসকর": 9503,
      "পরকশত": 9504,
      "ইতযদ": 9505,
      "মজর": 9506,
      "পরতদন": 9507,
      "চলচচ": 9508,
      "২৭": 9509,
      "খবই": 9510,
      "যদও": 9511,
      "বছ": 9512,
      "সটক": 9513,
      "টম": 9514,
      "পরচত": 9515,
      "অনতর": 9516,
      "নরবচত": 9517,
      "::": 9518,
      "করতর": 9519,
      "ওযল": 9520,
      "ওযরড": 9521,
      "মধযই": 9522,
      "মনদর": 9523,
      "পডত": 9524,
      "চরর": 9525,
      "যদর": 9526,
      "এপরল": 9527,
      "পওযর": 9528,
      "ভবই": 9529,
      "নজক": 9530,
      "পযনট": 9531,
      "হওযয": 9532,
      "বপকষ": 9533,
      "as": 9534,
      "করযলয": 9535,
      "উত": 9536,
      "আললহর": 9537,
      "বসব": 9538,
      "of": 9539,
      "সগঠন": 9540,
      "তও": 9541,
      "লললহ": 9542,
      "ইনল": 9543,
      "উনড": 9544,
      "সঠক": 9545,
      "পরশকষ": 9546,
      "বনধন": 9547,
      "কও": 9548,
      "সমপনন": 9549,
      "বরয": 9550,
      "সনযর": 9551,
      "খনর": 9552,
      "নযমত": 9553,
      "বযয": 9554,
      "পরদরশন": 9555,
      "ফলর": 9556,
      "সনম": 9557,
      "করগর": 9558,
      "দরশ": 9559,
      "সমপদ": 9560,
      "ফবরযর": 9561,
      "পঠন": 9562,
      "ch": 9563,
      "ফত": 9564,
      "চলর": 9565,
      "টকন": 9566,
      "টসট": 9567,
      "অপকষ": 9568,
      "সবধনত": 9569,
      "ফজ": 9570,
      "সপতহ": 9571,
      "আরব": 9572,
      "ওস": 9573,
      "যনতর": 9574,
      "শকষরথদর": 9575,
      "২০১৬": 9576,
      "দলল": 9577,
      "আওযমল": 9578,
      "যতন": 9579,
      "পরযজনয": 9580,
      "এসই": 9581,
      "এইচ": 9582,
      "আবদ": 9583,
      "সহতয": 9584,
      "মডকল": 9585,
      "এদর": 9586,
      "হনদ": 9587,
      "সমরক": 9588,
      "১৯৭": 9589,
      "বসরকর": 9590,
      "বসতব": 9591,
      "সরবচচ": 9592,
      "গলক": 9593,
      "লমট": 9594,
      "যদধর": 9595,
      "খদয": 9596,
      "মডল": 9597,
      "ঢকয": 9598,
      "আপ": 9599,
      "উতত": 9600,
      "মননযন": 9601,
      "অবশযই": 9602,
      "সমবশ": 9603,
      "শঙ": 9604,
      "সমমন": 9605,
      "সকরনত": 9606,
      "রসত": 9607,
      "পরকর": 9608,
      "ইসলমর": 9609,
      "বরবর": 9610,
      "রখর": 9611,
      "সবভবক": 9612,
      "যড": 9613,
      "দস": 9614,
      "সনটর": 9615,
      "আলইহ": 9616,
      "ধনক": 9617,
      "করমসচ": 9618,
      "অগর": 9619,
      "and": 9620,
      "কলজর": 9621,
      "কমপনর": 9622,
      "নমন": 9623,
      "ভজ": 9624,
      "অভনয": 9625,
      "নরল": 9626,
      "ধনয": 9627,
      "অথচ": 9628,
      "হঠ": 9629,
      "চরণ": 9630,
      "আকতর": 9631,
      "কলম": 9632,
      "বযপ": 9633,
      "করমদর": 9634,
      "ডকতর": 9635,
      "ফরত": 9636,
      "মনটর": 9637,
      "চনদর": 9638,
      "সবজ": 9639,
      "ot": 9640,
      "অনসর": 9641,
      "ধকর": 9642,
      "তনট": 9643,
      "রজনত": 9644,
      "১৯৯": 9645,
      "ent": 9646,
      "চব": 9647,
      "আননদ": 9648,
      "আট": 9649,
      "যগম": 9650,
      "ৎকর": 9651,
      "00": 9652,
      "অভয": 9653,
      "অবশয": 9654,
      "ঘটছ": 9655,
      "২৯": 9656,
      "নযম": 9657,
      "কথও": 9658,
      "দনক": 9659,
      "বনময": 9660,
      "দচছ": 9661,
      "জঞত": 9662,
      "বতরণ": 9663,
      "জবল": 9664,
      "কযন": 9665,
      "অশগরহণ": 9666,
      "জযগয": 9667,
      "কনড": 9668,
      "ol": 9669,
      "et": 9670,
      "সগরহ": 9671,
      "চযন": 9672,
      "রশদ": 9673,
      "বধন": 9674,
      "মহনগর": 9675,
      "উইকট": 9676,
      "সহযগ": 9677,
      "শখর": 9678,
      "ইনসট": 9679,
      "রপরটর": 9680,
      "ওযন": 9681,
      "বনযগ": 9682,
      "মদন": 9683,
      "মহমদ": 9684,
      "শরফ": 9685,
      "আলর": 9686,
      "জজঞ": 9687,
      "ইনড": 9688,
      "৩৫": 9689,
      "তড": 9690,
      "ভলবস": 9691,
      "গরপ": 9692,
      "আলদ": 9693,
      "দখয": 9694,
      "ফটবল": 9695,
      "সমপরণ": 9696,
      "বতল": 9697,
      "ভবষ": 9698,
      "সবম": 9699,
      "বণজয": 9700,
      "আদয": 9701,
      "মনক": 9702,
      "লজ": 9703,
      "পটর": 9704,
      "ফরক": 9705,
      "রহমনর": 9706,
      "বযহত": 9707,
      "বষট": 9708,
      "খরচ": 9709,
      "দকন": 9710,
      "করযকর": 9711,
      "সযদ": 9712,
      "লখত": 9713,
      "পহড": 9714,
      "তদরক": 9715,
      "অনতত": 9716,
      "আরথক": 9717,
      "পরধনমনতরর": 9718,
      "শট": 9719,
      "কলযণ": 9720,
      "জনগণর": 9721,
      "আপনদর": 9722,
      "সললম": 9723,
      "����": 9724,
      "তলন": 9725,
      "মলর": 9726,
      "পরছ": 9727,
      "নসর": 9728,
      "মতযর": 9729,
      "৬০": 9730,
      "চলচচতর": 9731,
      "বনর": 9732,
      "বরহম": 9733,
      "ঝক": 9734,
      "দরনত": 9735,
      "তলর": 9736,
      "আও": 9737,
      "জঞন": 9738,
      "সললললহ": 9739,
      "তবক": 9740,
      "মহব": 9741,
      "পরচলত": 9742,
      "সমভবন": 9743,
      "ভরপরপত": 9744,
      "টস": 9745,
      "মনস": 9746,
      "বলগ": 9747,
      "সবদকদর": 9748,
      "মসতফ": 9749,
      "উৎপদন": 9750,
      "নও": 9751,
      "হঠৎ": 9752,
      "নউ": 9753,
      "সমরট": 9754,
      "রযছন": 9755,
      "ফস": 9756,
      "পরসথত": 9757,
      "চনয": 9758,
      "গনর": 9759,
      "চরতর": 9760,
      "ভনন": 9761,
      "জলল": 9762,
      "অভব": 9763,
      "যযন": 9764,
      "মনতরণলয": 9765,
      "আহম": 9766,
      "ঙকর": 9767,
      "পথর": 9768,
      "গষঠ": 9769,
      "কছট": 9770,
      "খরপ": 9771,
      "ঝড": 9772,
      "ur": 9773,
      "ফইনল": 9774,
      "দশক": 9775,
      "ia": 9776,
      "পলয": 9777,
      "জপর": 9778,
      "হরণ": 9779,
      "গরপতর": 9780,
      "দষ": 9781,
      "মনষক": 9782,
      "ধরণর": 9783,
      "জডত": 9784,
      "অযনড": 9785,
      "থকলও": 9786,
      "গপন": 9787,
      "ছবর": 9788,
      "রট": 9789,
      "ইযর": 9790,
      "আগন": 9791,
      "সতরর": 9792,
      "ভষয": 9793,
      "অনযদক": 9794,
      "উৎসব": 9795,
      "সরসর": 9796,
      "দলন": 9797,
      "কলকত": 9798,
      "বতন": 9799,
      "পঠয": 9800,
      "ফরয": 9801,
      "করস": 9802,
      "বশবকপ": 9803,
      "আবদর": 9804,
      "পরবস": 9805,
      "বরহ": 9806,
      "সইট": 9807,
      "পডয": 9808,
      "জনরল": 9809,
      "ধরয": 9810,
      "অতযনত": 9811,
      "সগঠনক": 9812,
      "ডস": 9813,
      "সমতর": 9814,
      "আনত": 9815,
      "৩১": 9816,
      "যকতরষটরর": 9817,
      "ফই": 9818,
      "পছনদ": 9819,
      "করতন": 9820,
      "লও": 9821,
      "একমতর": 9822,
      "কমপউটর": 9823,
      "পরতষঠত": 9824,
      "গডর": 9825,
      "কনন": 9826,
      "পবতর": 9827,
      "বলই": 9828,
      "ধরষণ": 9829,
      "পরমরশ": 9830,
      "আযজত": 9831,
      "দখছ": 9832,
      "অঞচল": 9833,
      "আড": 9834,
      "ফসর": 9835,
      "মশন": 9836,
      "বসতবযন": 9837,
      "বরষক": 9838,
      "ঋণ": 9839,
      "সমসত": 9840,
      "বদযলযর": 9841,
      "দরদর": 9842,
      "ষক": 9843,
      "রফ": 9844,
      "কঠন": 9845,
      "মসজদ": 9846,
      "দণড": 9847,
      "পরটর": 9848,
      "বযকতর": 9849,
      "বযকতগত": 9850,
      "রই": 9851,
      "পরবহন": 9852,
      "পকসতনর": 9853,
      "ডব": 9854,
      "গহ": 9855,
      "চছল": 9856,
      "id": 9857,
      "জরমন": 9858,
      "অনরধ": 9859,
      "তযগ": 9860,
      "হটল": 9861,
      "আগরহ": 9862,
      "তরই": 9863,
      "আকরম": 9864,
      "--": 9865,
      "নরভর": 9866,
      "২০১৫": 9867,
      "গছন": 9868,
      "ঘরর": 9869,
      "সকস": 9870,
      "el": 9871,
      "ধরর": 9872,
      "নযশনল": 9873,
      "সরর": 9874,
      "আনদলনর": 9875,
      "সগঠনর": 9876,
      "খতর": 9877,
      "পরশকষণ": 9878,
      "দশটর": 9879,
      "মওলন": 9880,
      "দখর": 9881,
      "সটফ": 9882,
      "অবযহত": 9883,
      "গঞজর": 9884,
      "পরকরয": 9885,
      "বঙল": 9886,
      "ob": 9887,
      "ইউপ": 9888,
      "শশর": 9889,
      "খওয": 9890,
      "the": 9891,
      "মধযমক": 9892,
      "ভততত": 9893,
      "খলত": 9894,
      "সজন": 9895,
      "ভইস": 9896,
      "পথবর": 9897,
      "পরসন": 9898,
      "পরও": 9899,
      "গযছ": 9900,
      "পরতষঠনর": 9901,
      "অরথনতক": 9902,
      "সনদহ": 9903,
      "সমধন": 9904,
      "সহযত": 9905,
      "সহযগত": 9906,
      "ছডও": 9907,
      "ছতরলগর": 9908,
      "শকষরথর": 9909,
      "মছল": 9910,
      "কনয": 9911,
      "এছডও": 9912,
      "একধক": 9913,
      "আরকট": 9914,
      "লগল": 9915,
      "কলক": 9916,
      "শরণর": 9917,
      "কবত": 9918,
      "মমন": 9919,
      "দকর": 9920,
      "শদ": 9921,
      "নরমত": 9922,
      "পরবরতত": 9923,
      "গই": 9924,
      "মযদর": 9925,
      "একদন": 9926,
      "এভব": 9927,
      "চরজ": 9928,
      "ভততক": 9929,
      "নরপদ": 9930,
      "সমনত": 9931,
      "ইতমধয": 9932,
      "সসট": 9933,
      "সবচছ": 9934,
      "মনতরণলযর": 9935,
      "পশক": 9936,
      "পরকষর": 9937,
      "মহসচব": 9938,
      "সশ": 9939,
      "চদ": 9940,
      "লকর": 9941,
      "করতক": 9942,
      "আধনক": 9943,
      "এসস": 9944,
      "সঞ": 9945,
      "ac": 9946,
      "ওভর": 9947,
      "ভকট": 9948,
      "মজবর": 9949,
      "গযন": 9950,
      "গতর": 9951,
      "ইঞ": 9952,
      "উপয": 9953,
      "মযদ": 9954,
      "পদর": 9955,
      "মরজ": 9956,
      "তবও": 9957,
      "পকষর": 9958,
      "সমনর": 9959,
      "সনধন": 9960,
      "তহর": 9961,
      "সভর": 9962,
      "৮০": 9963,
      "খশ": 9964,
      "আদশ": 9965,
      "সনতরস": 9966,
      "অধন": 9967,
      "করমকরতর": 9968,
      "মডয": 9969,
      "হমলর": 9970,
      "পরতবদক": 9971,
      "উকত": 9972,
      "কলব": 9973,
      "সসকতক": 9974,
      "বযরথ": 9975,
      "গরনথ": 9976,
      "১০০": 9977,
      "....": 9978,
      "সমরথন": 9979,
      "যকন": 9980,
      "সপরট": 9981,
      "মরন": 9982,
      "আরক": 9983,
      "ঘটত": 9984,
      "জহর": 9985,
      "আফ": 9986,
      "নগরক": 9987,
      "বলও": 9988,
      "লখক": 9989,
      "to": 9990,
      "৪৫": 9991,
      "ষধ": 9992,
      "চঠ": 9993,
      "th": 9994,
      "একর": 9995,
      "ওযবস": 9996,
      "অযড": 9997,
      "সমগর": 9998,
      "মসম": 9999,
      "অনকট": 10000,
      "ডকর": 10001,
      "ইবন": 10002,
      "অসটর": 10003,
      "অঙগ": 10004,
      "রজন": 10005,
      "সবয": 10006,
      "সঘরষ": 10007,
      "আমল": 10008,
      "ro": 10009,
      "যবর": 10010,
      "Bang": 10011,
      "নযত": 10012,
      "জমত": 10013,
      "ভষণ": 10014,
      "কশল": 10015,
      "মহরত": 10016,
      "Com": 10017,
      "রও": 10018,
      "চরয": 10019,
      "নগরর": 10020,
      "Re": 10021,
      "শঙখল": 10022,
      "তমদর": 10023,
      "যম": 10024,
      "কষক": 10025,
      "ঘম": 10026,
      "ঞচলর": 10027,
      "নরধরণ": 10028,
      "রজর": 10029,
      "রকরড": 10030,
      "আপল": 10031,
      "ag": 10032,
      "সহব": 10033,
      "আইনজব": 10034,
      "উপজলয": 10035,
      "আইনর": 10036,
      "লকজন": 10037,
      "সমজর": 10038,
      "জমল": 10039,
      "কঠর": 10040,
      "করক": 10041,
      "মনন": 10042,
      "চডনত": 10043,
      "সপষট": 10044,
      "আকশ": 10045,
      "আকরনত": 10046,
      "তনতরক": 10047,
      "পষট": 10048,
      "সতরক": 10049,
      "চযম": 10050,
      "বচরপত": 10051,
      "রজশহ": 10052,
      "ভশন": 10053,
      "ফসল": 10054,
      "জনযই": 10055,
      "এটই": 10056,
      "জহন": 10057,
      "পযছন": 10058,
      "সমনয": 10059,
      "টরক": 10060,
      "মনসক": 10061,
      "জনব": 10062,
      "তলনয": 10063,
      "কশন": 10064,
      "টভ": 10065,
      "লত": 10066,
      ".)": 10067,
      "উললখয": 10068,
      "সরত": 10069,
      "রমন": 10070,
      "লমটড": 10071,
      "আহবযক": 10072,
      "আদলতর": 10073,
      "নযয": 10074,
      "বকষভ": 10075,
      "মখয": 10076,
      "ir": 10077,
      "এনড": 10078,
      "’,": 10079,
      "জবর": 10080,
      "সইকল": 10081,
      "বচচ": 10082,
      "সকট": 10083,
      "নওযর": 10084,
      "নজরল": 10085,
      "২০১৪": 10086,
      "জনই": 10087,
      "রতর": 10088,
      "পরজ": 10089,
      "ককষ": 10090,
      "ডজটল": 10091,
      "৭০": 10092,
      "News": 10093,
      "ইনটরনট": 10094,
      "দদর": 10095,
      "ap": 10096,
      "ইম": 10097,
      "চরম": 10098,
      "জমযত": 10099,
      "দশমক": 10100,
      "কনর": 10101,
      "শফ": 10102,
      "ঘণট": 10103,
      "উভয": 10104,
      "যসব": 10105,
      "রসতয": 10106,
      "বতত": 10107,
      "নস": 10108,
      "বসতর": 10109,
      "পরষকর": 10110,
      "নটক": 10111,
      "নরযণ": 10112,
      "শকষর": 10113,
      "এরই": 10114,
      "কলমটর": 10115,
      "গযস": 10116,
      "পঞ": 10117,
      "ইনস": 10118,
      "ore": 10119,
      "বরডর": 10120,
      "কষমতয": 10121,
      "আশরয": 10122,
      "নরদষট": 10123,
      "চকৎসক": 10124,
      "সরবরহ": 10125,
      "বহত": 10126,
      "কষয": 10127,
      "সসর": 10128,
      "কউক": 10129,
      "খট": 10130,
      "কমউন": 10131,
      "টকট": 10132,
      "সবরথ": 10133,
      "রজধন": 10134,
      "ধরময": 10135,
      "কউনসলর": 10136,
      "করআন": 10137,
      "আলক": 10138,
      "চযমপযন": 10139,
      "ফরজ": 10140,
      "কযমপ": 10141,
      "ঈদর": 10142,
      "হবন": 10143,
      "পরতরধ": 10144,
      "দফ": 10145,
      "আওতয": 10146,
      "উননযনর": 10147,
      "কযকজন": 10148,
      "az": 10149,
      "দগ": 10150,
      "পরকলপর": 10151,
      "শম": 10152,
      "আনযর": 10153,
      "ww": 10154,
      "পরসথ": 10155,
      "পদকষপ": 10156,
      "আজকর": 10157,
      "সনধযয": 10158,
      "বযসত": 10159,
      "রধ": 10160,
      "পকর": 10161,
      "বলগর": 10162,
      "অনমত": 10163,
      "চলক": 10164,
      "সমহ": 10165,
      "মযনমর": 10166,
      "ig": 10167,
      "im": 10168,
      "un": 10169,
      "আঘত": 10170,
      "এসআই": 10171,
      "est": 10172,
      "টযনট": 10173,
      "টউ": 10174,
      "মরকট": 10175,
      "তলত": 10176,
      "এগল": 10177,
      "নরযতন": 10178,
      "কণড": 10179,
      "রগর": 10180,
      "শপ": 10181,
      "করকটর": 10182,
      "যবন": 10183,
      "se": 10184,
      "সবকত": 10185,
      "ঘটনসথল": 10186,
      "বলব": 10187,
      "পডল": 10188,
      "পধয": 10189,
      "কখনও": 10190,
      "চলচল": 10191,
      "বসক": 10192,
      "চলব": 10193,
      "কগর": 10194,
      "তমক": 10195,
      "শকতশল": 10196,
      "অধনযক": 10197,
      "ঢল": 10198,
      "নযছন": 10199,
      "পরশসক": 10200,
      "ফযর": 10201,
      "ডটকম": 10202,
      "বপরত": 10203,
      "সদন": 10204,
      "বলছলন": 10205,
      "টরর": 10206,
      "সপরশ": 10207,
      "ইভ": 10208,
      "তহয": 10209,
      "সঘ": 10210,
      "অবসথত": 10211,
      "বযবসথপন": 10212,
      "একদশ": 10213,
      "সবরণ": 10214,
      "৩২": 10215,
      "চযল": 10216,
      "হযরত": 10217,
      "এযর": 10218,
      "’-": 10219,
      "ইর": 10220,
      "ইমম": 10221,
      "সসথর": 10222,
      "দরগ": 10223,
      "লনদন": 10224,
      "জলয": 10225,
      "ফলন": 10226,
      "সরকষণ": 10227,
      "শররক": 10228,
      "সবগত": 10229,
      "ডগর": 10230,
      "জনট": 10231,
      "হসত": 10232,
      "ay": 10233,
      "পরদ": 10234,
      "বশষজঞ": 10235,
      "ঝল": 10236,
      "মযমন": 10237,
      "রখছ": 10238,
      "অনমদন": 10239,
      "করমস": 10240,
      "সরবশষ": 10241,
      "ঠকর": 10242,
      "শশদর": 10243,
      "সবইক": 10244,
      "ul": 10245,
      "গনধ": 10246,
      "মকতযদধর": 10247,
      "শররর": 10248,
      "পএস": 10249,
      "সমরণ": 10250,
      "হউ": 10251,
      "সলগন": 10252,
      "পদধত": 10253,
      "সগল": 10254,
      "চরট": 10255,
      "নরধরত": 10256,
      "পরকষয": 10257,
      "হরর": 10258,
      "আওযমলগর": 10259,
      "ষড": 10260,
      "পরকশল": 10261,
      "টঙগ": 10262,
      "জমর": 10263,
      "বযথ": 10264,
      "বলট": 10265,
      "রহল": 10266,
      "আধ": 10267,
      "ঐতহয": 10268,
      "আক": 10269,
      "সকষম": 10270,
      "পরবরক": 10271,
      "তলয": 10272,
      "চট": 10273,
      "জডয": 10274,
      "বদধর": 10275,
      "হবর": 10276,
      "শনয": 10277,
      "যচছন": 10278,
      "জটর": 10279,
      "আনর": 10280,
      "শতর": 10281,
      "মতই": 10282,
      "নষধ": 10283,
      "শযল": 10284,
      "বযনর": 10285,
      "বরশল": 10286,
      "লগয": 10287,
      "নবন": 10288,
      "পরপর": 10289,
      "চহ": 10290,
      "দরক": 10291,
      "করলও": 10292,
      "অধদপতর": 10293,
      "তণ": 10294,
      "করমচর": 10295,
      "মখমখ": 10296,
      "অভনতর": 10297,
      "নশচয": 10298,
      "অসসথ": 10299,
      "তলকয": 10300,
      "ওযযর": 10301,
      "দরঘদন": 10302,
      "lin": 10303,
      "চযরপরসন": 10304,
      "কগজ": 10305,
      "ফরর": 10306,
      "ফলফল": 10307,
      "হলর": 10308,
      "অলপ": 10309,
      "দযক": 10310,
      "গরসত": 10311,
      "আনন": 10312,
      "টকয": 10313,
      "ওযবসইট": 10314,
      "উনম": 10315,
      "অনষঠনর": 10316,
      "ধনযবদ": 10317,
      "পনথ": 10318,
      "কলস": 10319,
      "বযত": 10320,
      "পনয": 10321,
      "ডএসই": 10322,
      "পলর": 10323,
      "গলও": 10324,
      "কণঠ": 10325,
      "নষট": 10326,
      "কষদর": 10327,
      "সধরন": 10328,
      "করলম": 10329,
      "ছবত": 10330,
      "হফ": 10331,
      "চহদ": 10332,
      "জকর": 10333,
      "মমত": 10334,
      "রসলললহ": 10335,
      "ve": 10336,
      "পরনত": 10337,
      "সধ": 10338,
      "জযক": 10339,
      "তপ": 10340,
      "গও": 10341,
      "৯০": 10342,
      "শসত": 10343,
      "বগন": 10344,
      "রবনদর": 10345,
      "লখছন": 10346,
      "চছনন": 10347,
      "বহল": 10348,
      "শনন": 10349,
      "রষটরপত": 10350,
      "ct": 10351,
      "সহস": 10352,
      "বরজ": 10353,
      "হসপতলর": 10354,
      "বরণন": 10355,
      "হদস": 10356,
      "ht": 10357,
      "রণ": 10358,
      "পচছ": 10359,
      "হসর": 10360,
      "রসতর": 10361,
      "ফনর": 10362,
      "সটশন": 10363,
      "মকতর": 10364,
      "ab": 10365,
      "জজঞস": 10366,
      "আউট": 10367,
      "ডত": 10368,
      "আকরমণ": 10369,
      "পতয": 10370,
      "মটত": 10371,
      "হদয": 10372,
      "করপরশন": 10373,
      "নতদর": 10374,
      "মখর": 10375,
      "সমপত": 10376,
      "পররষটর": 10377,
      "অতথর": 10378,
      "পরভ": 10379,
      "বকলপ": 10380,
      "হনর": 10381,
      "সফট": 10382,
      "Co": 10383,
      "এবরর": 10384,
      "উঠত": 10385,
      "শব": 10386,
      "যহত": 10387,
      "!!": 10388,
      "গরপর": 10389,
      "পরশসনর": 10390,
      "দমন": 10391,
      "বরটশ": 10392,
      "আকরষণ": 10393,
      "অধকশ": 10394,
      "গরব": 10395,
      "পনত": 10396,
      "অবল": 10397,
      "জহঙগর": 10398,
      "উপদষট": 10399,
      "10": 10400,
      "24": 10401,
      "হরন": 10402,
      "পযস": 10403,
      "ঙগন": 10404,
      "দরণ": 10405,
      "কসট": 10406,
      "ডউন": 10407,
      "নমক": 10408,
      "গঠত": 10409,
      "মযজ": 10410,
      "যনস": 10411,
      "সধরণত": 10412,
      "করণই": 10413,
      "মসজ": 10414,
      "হমক": 10415,
      "নগদ": 10416,
      "উললহ": 10417,
      "পষঠ": 10418,
      "নরদর": 10419,
      "আনষঠ": 10420,
      "মযক": 10421,
      "সগরম": 10422,
      "sh": 10423,
      "জটল": 10424,
      "আদ": 10425,
      "NE": 10426,
      "ow": 10427,
      "মসটর": 10428,
      "এরকম": 10429,
      "পরকতক": 10430,
      "টবল": 10431,
      "শসন": 10432,
      "গলয": 10433,
      "ফরনস": 10434,
      "বগড": 10435,
      "সদসযদর": 10436,
      "হজব": 10437,
      "ইউর": 10438,
      "তততব": 10439,
      "ভবনর": 10440,
      "গলন": 10441,
      "শরদধ": 10442,
      "শধমতর": 10443,
      "এশয": 10444,
      "মহরপর": 10445,
      "কযমর": 10446,
      "সঙগত": 10447,
      "ছতরলগ": 10448,
      "আপতত": 10449,
      "বজট": 10450,
      "কমত": 10451,
      "সবদর": 10452,
      "রযর": 10453,
      "আশঙক": 10454,
      "করটর": 10455,
      "১৯৮": 10456,
      "বতর": 10457,
      "সনট": 10458,
      "ফখর": 10459,
      "বযবহত": 10460,
      "পছয": 10461,
      "পষ": 10462,
      "ation": 10463,
      "আসনর": 10464,
      "আযর": 10465,
      "বমনবনদর": 10466,
      "দনজপর": 10467,
      "পরসকল": 10468,
      "টরমপ": 10469,
      "সহর": 10470,
      "ওবয": 10471,
      "…]": 10472,
      "থকবন": 10473,
      "সনতনর": 10474,
      "নজই": 10475,
      "চখর": 10476,
      "মসক": 10477,
      "ফডর": 10478,
      "রহঙগদর": 10479,
      "গযনদ": 10480,
      "৩৬": 10481,
      "সকত": 10482,
      ")-": 10483,
      "কষম": 10484,
      "লখর": 10485,
      "আবদললহ": 10486,
      "গরড": 10487,
      "গরতর": 10488,
      "মদরস": 10489,
      "পরতক": 10490,
      "পররণ": 10491,
      "ওযব": 10492,
      "সরভস": 10493,
      "একক": 10494,
      "দরঘটন": 10495,
      "সমসযর": 10496,
      "পথক": 10497,
      "দও": 10498,
      "কময": 10499,
      "সরট": 10500,
      "সমদর": 10501,
      "আচরণ": 10502,
      "সলতন": 10503,
      "নমজ": 10504,
      "লভর": 10505,
      "মরক": 10506,
      "পরতযশ": 10507,
      "ইসলমক": 10508,
      "eng": 10509,
      "টপ": 10510,
      "চমচ": 10511,
      "৩৩": 10512,
      "সষঠ": 10513,
      "পচর": 10514,
      "অভনত": 10515,
      "নরদশন": 10516,
      "এজনয": 10517,
      "সদদক": 10518,
      "সসকর": 10519,
      "ভরমণ": 10520,
      "খদ": 10521,
      "মযচর": 10522,
      "নময": 10523,
      "সলটর": 10524,
      "কনদরর": 10525,
      "মরগ": 10526,
      "হসইন": 10527,
      "যথষট": 10528,
      "ফকর": 10529,
      "রপন": 10530,
      "পরছন": 10531,
      "খলয": 10532,
      "নযই": 10533,
      "দযছলন": 10534,
      "২০১৩": 10535,
      "সবদদত": 10536,
      "সও": 10537,
      "পদধ": 10538,
      "পরবণ": 10539,
      "র‌যব": 10540,
      "কটয": 10541,
      "for": 10542,
      "সবল": 10543,
      "ঘড": 10544,
      "ভগয": 10545,
      "অভজঞত": 10546,
      "ধবস": 10547,
      "সটডয": 10548,
      "বঙগবনধর": 10549,
      "একস": 10550,
      "মইল": 10551,
      "রচন": 10552,
      "[…]": 10553,
      "দকষ": 10554,
      "চকরর": 10555,
      "আদরশ": 10556,
      "শরষঠ": 10557,
      "বনন": 10558,
      "যভব": 10559,
      "আলমগর": 10560,
      "মশর": 10561,
      "খযর": 10562,
      "গছর": 10563,
      "সমলচন": 10564,
      "বজঞপত": 10565,
      "ছলর": 10566,
      "কযম": 10567,
      "ফইল": 10568,
      "কপড": 10569,
      "৪৮": 10570,
      "বরন": 10571,
      "সটরট": 10572,
      "esh": 10573,
      "ইলকটর": 10574,
      "৫৫": 10575,
      "রজযর": 10576,
      "সথর": 10577,
      "চটটগরমর": 10578,
      "লগন": 10579,
      "পরযগ": 10580,
      "সহত": 10581,
      "সমদধ": 10582,
      "oo": 10583,
      "পরনন": 10584,
      "পলল": 10585,
      "ফরস": 10586,
      "সডকর": 10587,
      "‘‘": 10588,
      "ছবট": 10589,
      "হলক": 10590,
      "সচতন": 10591,
      "বললম": 10592,
      "বকশ": 10593,
      "ইযব": 10594,
      "বযবহরর": 10595,
      "In": 10596,
      "তজ": 10597,
      "ভবত": 10598,
      "বজপ": 10599,
      "এনজ": 10600,
      "ওষধ": 10601,
      "ঘটনট": 10602,
      "সমমত": 10603,
      "মযনমরর": 10604,
      "সমযই": 10605,
      "ওবযদল": 10606,
      "ঘনট": 10607,
      "জপন": 10608,
      "ভদ": 10609,
      "ওদর": 10610,
      "blo": 10611,
      "আবরও": 10612,
      "বজরর": 10613,
      "পরতযগত": 10614,
      "পলত": 10615,
      "সনন": 10616,
      "ইকবল": 10617,
      "জযন": 10618,
      "সবএন": 10619,
      "পরচন": 10620,
      "):": 10621,
      "ডকত": 10622,
      "মনবধ": 10623,
      "পরযযর": 10624,
      "শলপর": 10625,
      "সবধনতর": 10626,
      "দরজ": 10627,
      "WS": 10628,
      "বরগ": 10629,
      "sb": 10630,
      "২ট": 10631,
      "পতক": 10632,
      "ভবষযত": 10633,
      "করযর": 10634,
      "যতনর": 10635,
      "৩৮": 10636,
      "ইঞজনযর": 10637,
      "ননন": 10638,
      "।[": 10639,
      "গযছল": 10640,
      "মযমনসহ": 10641,
      "পরতমনতর": 10642,
      "কছদন": 10643,
      "লডই": 10644,
      "চতরথ": 10645,
      "বঞ": 10646,
      "পও": 10647,
      "জজ": 10648,
      "কনডর": 10649,
      "NEWS": 10650,
      "পটয": 10651,
      "লস": 10652,
      "ছতরদর": 10653,
      "ck": 10654,
      "পরতযক": 10655,
      "চমক": 10656,
      "৩৭": 10657,
      "us": 10658,
      "Read": 10659,
      "um": 10660,
      "কপর": 10661,
      "উপনয": 10662,
      "মনববনধন": 10663,
      "গজপর": 10664,
      "কলয": 10665,
      "শতধক": 10666,
      "নতয": 10667,
      "azar": 10668,
      "উপদন": 10669,
      "মজম": 10670,
      "সনদ": 10671,
      "অঞচলর": 10672,
      "পরসভর": 10673,
      "গডত": 10674,
      "পরজন": 10675,
      "সরজর": 10676,
      "লগব": 10677,
      "সগত": 10678,
      "শহদল": 10679,
      "পরধ": 10680,
      "ইনসটট": 10681,
      "উদধত": 10682,
      "ফউনড": 10683,
      "যবহ": 10684,
      "পরকষত": 10685,
      "ut": 10686,
      "শভচছ": 10687,
      "গণতনতরক": 10688,
      "সনয": 10689,
      "মহবব": 10690,
      "বশরভগ": 10691,
      "৪ট": 10692,
      "৪৭": 10693,
      "গজর": 10694,
      "সবরষটর": 10695,
      "বরক": 10696,
      "আমদন": 10697,
      "নচর": 10698,
      "পততর": 10699,
      "পডব": 10700,
      "ঐতহ": 10701,
      "উলট": 10702,
      "ছতরর": 10703,
      "উঠল": 10704,
      "ঐতহসক": 10705,
      "রক": 10706,
      "পজব": 10707,
      "সমনবয": 10708,
      "তকয": 10709,
      "বভগয": 10710,
      "সরম": 10711,
      "নষদধ": 10712,
      "আনষঠনক": 10713,
      "সরযর": 10714,
      "মৎ": 10715,
      "একশ": 10716,
      "অভভব": 10717,
      "ইসয": 10718,
      "ak": 10719,
      "পরষর": 10720,
      "গণমধযম": 10721,
      "অগন": 10722,
      "Cox": 10723,
      "পতরক": 10724,
      "ইউনভর": 10725,
      "সলন": 10726,
      "ইস": 10727,
      "বচরক": 10728,
      "শমম": 10729,
      "টও": 10730,
      "ডমর": 10731,
      "যবক": 10732,
      "নতই": 10733,
      "সরবক": 10734,
      "বযবধন": 10735,
      "অসখয": 10736,
      "ইসর": 10737,
      "উপসথপন": 10738,
      "em": 10739,
      "জপ": 10740,
      "সগ": 10741,
      "সটই": 10742,
      "সরভ": 10743,
      "পখ": 10744,
      "ইলযনড": 10745,
      "দদন": 10746,
      "শহন": 10747,
      "চছদ": 10748,
      "শরল": 10749,
      "ইউনট": 10750,
      "পরদরশক": 10751,
      "ঞজন": 10752,
      "সনস": 10753,
      "এদন": 10754,
      "ইলশ": 10755,
      "ফখরল": 10756,
      "পধযয": 10757,
      "মঞচ": 10758,
      "করণর": 10759,
      "engal": 10760,
      "সবকছ": 10761,
      "তছড": 10762,
      "ফলত": 10763,
      "কমপল": 10764,
      "sbazar": 10765,
      "সপরম": 10766,
      "দবপ": 10767,
      "যশর": 10768,
      "মহলর": 10769,
      "ককসবজরনউজ": 10770,
      "Coxsbazar": 10771,
      "CoxsbazarNEWS": 10772,
      "সদক": 10773,
      "পরতযগ": 10774,
      "আসনন": 10775,
      "2018": 10776,
      "পলস": 10777,
      "বউ": 10778,
      "মনবধকর": 10779,
      "বকস": 10780,
      "আইড": 10781,
      "বপ": 10782,
      "তবদ": 10783,
      "দলক": 10784,
      "থম": 10785,
      "অরজ": 10786,
      "রশয": 10787,
      "পরফসর": 10788,
      "জগত": 10789,
      "খলযড": 10790,
      "হমলয": 10791,
      "রনন": 10792,
      "বখযত": 10793,
      "অধযকষ": 10794,
      "করনন": 10795,
      "খযন": 10796,
      "ধপ": 10797,
      "বগত": 10798,
      "খবরর": 10799,
      "মভ": 10800,
      "চলমন": 10801,
      "চকৎসর": 10802,
      "টইমস": 10803,
      "পরবতয": 10804,
      "চযনল": 10805,
      "হচছন": 10806,
      "রষটরয": 10807,
      "সলপ": 10808,
      "ওজন": 10809,
      "আরট": 10810,
      "বনদন": 10811,
      "নটর": 10812,
      "উপসথ": 10813,
      "অধক": 10814,
      "১ট": 10815,
      "নহতর": 10816,
      "লগছ": 10817,
      "আফর": 10818,
      "ববল": 10819,
      "দধর": 10820,
      "পতন": 10821,
      "অযপ": 10822,
      "চযত": 10823,
      "গরহণর": 10824,
      "গগল": 10825,
      "মনতরর": 10826,
      "ডউনলড": 10827,
      "১০ট": 10828,
      "পরমন": 10829,
      "থকও": 10830,
      "শযন": 10831,
      "বনদক": 10832,
      "lad": 10833,
      "Bangla": 10834,
      "অভযকত": 10835,
      "৩ট": 10836,
      "সকরয": 10837,
      "সকব": 10838,
      "সপন": 10839,
      "হইকরট": 10840,
      "মঘ": 10841,
      "ওযরক": 10842,
      "ub": 10843,
      "আজদ": 10844,
      "তরণর": 10845,
      "ববহ": 10846,
      "অবদন": 10847,
      "//": 10848,
      "মজব": 10849,
      "সটন": 10850,
      "জফর": 10851,
      "গরহন": 10852,
      "মহত": 10853,
      "জহদ": 10854,
      "কনট": 10855,
      "হকর": 10856,
      "মনয": 10857,
      "বযখয": 10858,
      "সটডযম": 10859,
      "অনকর": 10860,
      "সফলয": 10861,
      "বসনদ": 10862,
      "সহজই": 10863,
      "ফটবলর": 10864,
      "পরণর": 10865,
      "মলভব": 10866,
      "The": 10867,
      "একষতর": 10868,
      "খনদকর": 10869,
      "দযই": 10870,
      "নচছ": 10871,
      "de": 10872,
      "সনল": 10873,
      "জনল": 10874,
      "আবদস": 10875,
      "আলচনয": 10876,
      "Ch": 10877,
      "তরও": 10878,
      "৫০০": 10879,
      "কনদ": 10880,
      "৩৪": 10881,
      "সহল": 10882,
      "লটর": 10883,
      "বপলব": 10884,
      "পঞচ": 10885,
      "ষর": 10886,
      "এখনই": 10887,
      "ঞচলক": 10888,
      "ভযন": 10889,
      "ri": 10890,
      "নষধজঞ": 10891,
      "গযর": 10892,
      "সমপরতক": 10893,
      "হবগঞজ": 10894,
      "পরতবনধ": 10895,
      "বরহমণ": 10896,
      "উডর": 10897,
      "মলনয": 10898,
      "ধরমর": 10899,
      "চহনত": 10900,
      "মসদ": 10901,
      "চধরর": 10902,
      "অবশষ": 10903,
      "কতট": 10904,
      "বপদ": 10905,
      "থকছ": 10906,
      "হও": 10907,
      "কযনসর": 10908,
      "কহন": 10909,
      "tit": 10910,
      "ইনটরনযশনল": 10911,
      "করপরশনর": 10912,
      "মতল": 10913,
      "এসএম": 10914,
      "তলকদর": 10915,
      "পলটন": 10916,
      "নরযণগঞজ": 10917,
      "টরই": 10918,
      "উপহর": 10919,
      "ভগর": 10920,
      "ladesh": 10921,
      "ববচন": 10922,
      "ভযবহ": 10923,
      "৬৫": 10924,
      "তণমল": 10925,
      "খনক": 10926,
      "কমলল": 10927,
      "দযছল": 10928,
      "বঘ": 10929,
      "বকয": 10930,
      "অনতরভকত": 10931,
      "ers": 10932,
      "করমসচর": 10933,
      "পরমক": 10934,
      "ভইযর": 10935,
      "সফটওযযর": 10936,
      "গণতনতর": 10937,
      "বসবস": 10938,
      "তরন": 10939,
      "মলল": 10940,
      "পঠক": 10941,
      "সসদর": 10942,
      "বকষণ": 10943,
      "ফজল": 10944,
      "৩৯": 10945,
      "সপরটস": 10946,
      "ভদর": 10947,
      "বরদদ": 10948,
      "গপল": 10949,
      "পতরর": 10950,
      "সলমন": 10951,
      "আসদ": 10952,
      "লনডন": 10953,
      "সসটম": 10954,
      "শযরবজর": 10955,
      "যথযথ": 10956,
      "কলবর": 10957,
      "ইজ": 10958,
      "মজনর": 10959,
      "সজনয": 10960,
      "দহর": 10961,
      "২০১২": 10962,
      "মষট": 10963,
      "কলপ": 10964,
      "চযলঞজ": 10965,
      "আওযমলগ": 10966,
      "সখযক": 10967,
      "রযল": 10968,
      "……": 10969,
      "পরসর": 10970,
      "Bengal": 10971,
      "বনত": 10972,
      "”।": 10973,
      "বযবসযর": 10974,
      "পররথর": 10975,
      "নতবনদ": 10976,
      "পরকশয": 10977,
      "পরবল": 10978,
      "পরতদবন": 10979,
      "ষডযনতর": 10980,
      "ণয": 10981,
      "ওযনড": 10982,
      "জবদ": 10983,
      "উদযপন": 10984,
      "নজম": 10985,
      "দরবল": 10986,
      "অবক": 10987,
      "ال": 10988,
      "শও": 10989,
      "টলভশন": 10990,
      "কদ": 10991,
      "উপকর": 10992,
      "পজবজর": 10993,
      "কমছ": 10994,
      "bd": 10995,
      "মসলমন": 10996,
      "কখনই": 10997,
      "আঞচলক": 10998,
      "টরসট": 10999,
      "আলহজব": 11000,
      "অনযর": 11001,
      "দনতর": 11002,
      "মরযদ": 11003,
      "সরকরক": 11004,
      "এটক": 11005,
      "৫ট": 11006,
      "কতয": 11007,
      "হমযন": 11008,
      "লমব": 11009,
      "কতব": 11010,
      "পদম": 11011,
      "বসস": 11012,
      "ঝনই": 11013,
      "শকষকর": 11014,
      "পরসত": 11015,
      "বলদশক": 11016,
      "সযল": 11017,
      "টকনফ": 11018,
      "বজঞনর": 11019,
      "করতপকষর": 11020,
      "রজসটর": 11021,
      "কজট": 11022,
      "ment": 11023,
      "ফরদ": 11024,
      "রজনতর": 11025,
      "সবসময": 11026,
      "লখন": 11027,
      "ওক": 11028,
      "মনবক": 11029,
      "দরশন": 11030,
      "পরচ": 11031,
      "পবলক": 11032,
      "পরগরম": 11033,
      "খড": 11034,
      "বলউড": 11035,
      "ওসমন": 11036,
      "দরঘটনয": 11037,
      "হলদ": 11038,
      "কষতগরসত": 11039,
      "সদয": 11040,
      "সনধ": 11041,
      "উনর": 11042,
      "বইযর": 11043,
      "অযল": 11044,
      "our": 11045,
      "ধরই": 11046,
      "হতশ": 11047,
      "পণযর": 11048,
      "কগরস": 11049,
      "কঠম": 11050,
      "সমরথক": 11051,
      "ind": 11052,
      "আমরকর": 11053,
      "সরচ": 11054,
      "বঙগল": 11055,
      "লযনড": 11056,
      "gr": 11057,
      "যগযত": 11058,
      "বজব": 11059,
      "অনধকর": 11060,
      "আজক": 11061,
      "জতসঘ": 11062,
      "ঝর": 11063,
      "ডনর": 11064,
      "হকম": 11065,
      "অসহয": 11066,
      "তলকভকত": 11067,
      "সথগত": 11068,
      "করখন": 11069,
      "ফরনট": 11070,
      "এসছন": 11071,
      "por": 11072,
      "শরপর": 11073,
      "৬ট": 11074,
      "দজন": 11075,
      "সরণ": 11076,
      "বসতত": 11077,
      "পডছন": 11078,
      "অদ": 11079,
      "বশবকপর": 11080,
      "রফকল": 11081,
      "ধত": 11082,
      "ist": 11083,
      "উদদশ": 11084,
      "ভষর": 11085,
      "রহসয": 11086,
      "তখনই": 11087,
      "মৎসয": 11088,
      "সগরহর": 11089,
      "ষকর": 11090,
      "ter": 11091,
      "সইফল": 11092,
      "মলনযতন": 11093,
      "দলম": 11094,
      "আইপ": 11095,
      "দরশক": 11096,
      "খওযর": 11097,
      "মধব": 11098,
      "গষঠর": 11099,
      "অযডভকট": 11100,
      "৭৫": 11101,
      "কমনডর": 11102,
      "বডন": 11103,
      "শসতর": 11104,
      "হসনক": 11105,
      "আফগন": 11106,
      "ডবল": 11107,
      "ককর": 11108,
      "বছই": 11109,
      "ne": 11110,
      "চরচ": 11111,
      "করমকরতদর": 11112,
      "একসচ": 11113,
      "উদহরণ": 11114,
      "লপ": 11115,
      "সবমর": 11116,
      "শরয": 11117,
      "কজই": 11118,
      "মশয": 11119,
      "বধর": 11120,
      "অযকউন": 11121,
      "বযগ": 11122,
      "খতন": 11123,
      "চইত": 11124,
      "ভইয": 11125,
      "তনতরর": 11126,
      "১৯৬": 11127,
      "৪২": 11128,
      "মযট": 11129,
      "ফড": 11130,
      "অসবকর": 11131,
      "আলচনর": 11132,
      "গরত": 11133,
      "ছডই": 11134,
      "মমর": 11135,
      "ess": 11136,
      "ধরষণর": 11137,
      "বলড": 11138,
      "বরজল": 11139,
      "নতকরমদর": 11140,
      "রখছন": 11141,
      "চকৎসকর": 11142,
      "পসত": 11143,
      "অযপল": 11144,
      "একসঙগ": 11145,
      "ce": 11146,
      "হযর": 11147,
      "পজর": 11148,
      "তরফ": 11149,
      "অশল": 11150,
      "সনবহন": 11151,
      "দরবয": 11152,
      "দখছন": 11153,
      "বতরক": 11154,
      "ইমরন": 11155,
      "দচছন": 11156,
      "কলকতর": 11157,
      "মশরর": 11158,
      "ইনর": 11159,
      "সবকষর": 11160,
      "পনরয": 11161,
      "সকটর": 11162,
      "ছটট": 11163,
      "নখজ": 11164,
      "রবনদরনথ": 11165,
      "নরপকষ": 11166,
      "ov": 11167,
      "আলচত": 11168,
      "bang": 11169,
      "বচত": 11170,
      "পলনর": 11171,
      "মলযন": 11172,
      "দদক": 11173,
      "মরয": 11174,
      "উললখযগয": 11175,
      "লদর": 11176,
      "পরকশর": 11177,
      "দখব": 11178,
      "ধরব": 11179,
      "link": 11180,
      "শহব": 11181,
      "বরষর": 11182,
      "গরফ": 11183,
      "জতসঘর": 11184,
      "গডয": 11185,
      "কযট": 11186,
      "পসর": 11187,
      "সযম": 11188,
      "পপর": 11189,
      "বরকত": 11190,
      "সতযই": 11191,
      "দযন": 11192,
      "ডভল": 11193,
      "মনই": 11194,
      "বনমলয": 11195,
      "৯ট": 11196,
      "দডযছ": 11197,
      "কণডর": 11198,
      "পরচলনয": 11199,
      "মছর": 11200,
      "আহমদর": 11201,
      "অরথমনতর": 11202,
      "বযপরট": 11203,
      "তরপরও": 11204,
      "কটত": 11205,
      "হফজ": 11206,
      "op": 11207,
      "নতকরমর": 11208,
      "ববতত": 11209,
      "হলম": 11210,
      "সটল": 11211,
      "অভজঞ": 11212,
      "হলল": 11213,
      "ইনসটটউট": 11214,
      "আযত": 11215,
      "কসম": 11216,
      "পরবহ": 11217,
      "সসব": 11218,
      "যচই": 11219,
      "অরধ": 11220,
      "মঞজর": 11221,
      "আলপ": 11222,
      "ইলর": 11223,
      "ওরফ": 11224,
      "news": 11225,
      "শরমকদর": 11226,
      "নদত": 11227,
      "সরকষত": 11228,
      "২০১০": 11229,
      "ঘষণর": 11230,
      "পদক": 11231,
      "বঞচত": 11232,
      "৮ট": 11233,
      "কছকষণ": 11234,
      "সনমর": 11235,
      "নটয": 11236,
      "ধরবহ": 11237,
      "শড": 11238,
      "19": 11239,
[...]
