<unk>	0
<s>	0
</s>	0
th	-0
▁th	-1
▁the	-2
▁a	-3
nd	-4
▁s	-5
▁h	-6
▁o	-7
re	-8
▁w	-9
in	-10
▁and	-11
▁of	-12
er	-13
es	-14
ou	-15
▁b	-16
or	-17
to	-18
▁m	-19
en	-20
▁f	-21
ll	-22
is	-23
at	-24
▁c	-25
on	-26
▁v	-27
▁I	-28
ed	-29
▁d	-30
▁in	-31
ha	-32
▁A	-33
▁to	-34
ing	-35
▁he	-36
▁n	-37
▁p	-38
it	-39
▁ha	-40
▁wi	-41
▁that	-42
le	-43
ay	-44
▁y	-45
an	-46
▁sha	-47
om	-48
▁be	-49
se	-50
▁wh	-51
de	-52
ar	-53
ke	-54
▁g	-55
as	-56
im	-57
ord	-58
ue	-59
ne	-60
▁T	-61
▁L	-62
▁vn	-63
▁And	-64
▁l	-65
ut	-66
▁t	-67
▁no	-68
ie	-69
▁vnto	-70
▁e	-71
▁his	-72
▁shall	-73
▁for	-74
ere	-75
▁Th	-76
ch	-77
▁Lord	-78
gh	-79
▁him	-80
od	-81
el	-82
am	-83
st	-84
▁is	-85
▁they	-86
▁them	-87
▁with	-88
ir	-89
▁ye	-90
▁not	-91
ce	-92
▁G	-93
ow	-94
au	-95
▁S	-96
ght	-97
ore	-98
ent	-99
ra	-100
ther	-101
▁thou	-102
id	-103
ine	-104
▁it	-105
▁all	-106
ld	-107
▁vp	-108
▁me	-109
▁re	-110
▁sa	-111
▁you	-112
ur	-113
ich	-114
▁B	-115
uer	-116
▁was	-117
ea	-118
▁God	-119
▁say	-120
▁thy	-121
and	-122
est	-123
▁as	-124
▁which	-125
▁there	-126
ion	-127
ri	-128
▁an	-129
▁com	-130
▁their	-131
▁haue	-132
▁my	-133
▁se	-134
ah	-135
▁fr	-136
▁thee	-137
fore	-138
ro	-139
nes	-140
eth	-141
us	-142
▁sh	-143
▁son	-144
ame	-145
▁man	-146
▁P	-147
▁from	-148
lt	-149
lde	-150
▁H	-151
▁will	-152
we	-153
▁M	-154
▁K	-155
if	-156
▁E	-157
ter	-158
▁Is	-159
ake	-160
▁go	-161
▁fa	-162
uen	-163
▁st	-164
▁are	-165
▁k	-166
rou	-167
hi	-168
▁vpon	-169
▁out	-170
em	-171
▁but	-172
▁were	-173
so	-174
▁King	-175
be	-176
al	-177
▁sp	-178
rael	-179
▁Israel	-180
▁Then	-181
iue	-182
▁W	-183
ho	-184
▁by	-185
ple	-186
▁this	-187
▁al	-188
ly	-189
▁when	-190
are	-191
ren	-192
et	-193
▁day	-194
ga	-195
▁N	-196
ers	-197
▁The	-198
▁C	-199
ab	-200
ight	-201
les	-202
▁hath	-203
ad	-204
ate	-205
ong	-206
▁F	-207
ation	-208
▁we	-209
▁had	-210
fe	-211
ast	-212
▁hou	-213
▁pe	-214
▁aga	-215
▁peo	-216
▁people	-217
pt	-218
ide	-219
▁le	-220
▁sonne	-221
ant	-222
▁hand	-223
▁do	-224
il	-225
▁her	-226
ill	-227
nt	-228
▁into	-229
▁your	-230
ep	-231
▁off	-232
▁one	-233
owe	-234
all	-235
art	-236
ge	-237
▁D	-238
▁house	-239
os	-240
▁came	-241
iu	-242
▁ne	-243
▁wor	-244
▁she	-245
▁come	-246
▁am	-247
our	-248
▁chi	-249
one	-250
ph	-251
▁For	-252
▁before	-253
▁land	-254
▁ma	-255
ring	-256
ard	-257
▁thing	-258
▁also	-259
▁on	-260
▁O	-261
▁hee	-262
▁ab	-263
▁euer	-264
▁men	-265
▁But	-266
red	-267
▁said	-268
la	-269
itie	-270
▁shalt	-271
ome	-272
▁child	-273
▁ho	-274
▁so	-275
ause	-276
inst	-277
▁against	-278
oy	-279
ies	-280
lbe	-281
▁ser	-282
▁pr	-283
▁shalbe	-284
▁children	-285
▁comm	-286
▁Wh	-287
iah	-288
▁cou	-289
▁euen	-290
▁at	-291
▁af	-292
▁vs	-293
▁then	-294
ru	-295
reth	-296
ken	-297
ite	-298
▁tw	-299
▁father	-300
nde	-301
▁made	-302
▁su	-303
▁con	-304
▁went	-305
ked	-306
▁de	-307
oke	-308
ered	-309
res	-310
▁sonnes	-311
▁saying	-312
out	-313
ould	-314
▁or	-315
▁kn	-316
ites	-317
te	-318
▁seru	-319
ither	-320
ith	-321
ath	-322
reat	-323
▁pla	-324
pp	-325
▁our	-326
ct	-327
ise	-328
cause	-329
▁hast	-330
▁ri	-331
ish	-332
▁li	-333
▁great	-334
▁fo	-335
▁mou	-336
▁may	-337
lo	-338
ene	-339
▁fou	-340
▁thine	-341
ous	-342
ud	-343
▁ouer	-344
ces	-345
▁Be	-346
▁let	-347
ist	-348
▁make	-349
▁Dau	-350
▁did	-351
▁who	-352
▁Dauid	-353
▁if	-354
▁after	-355
▁euery	-356
▁He	-357
▁So	-358
ned	-359
▁ear	-360
owne	-361
ale	-362
way	-363
▁Ies	-364
▁r	-365
ull	-366
▁ac	-367
▁things	-368
cke	-369
▁seruant	-370
sed	-371
▁because	-372
▁heart	-373
▁these	-374
▁downe	-375
▁therefore	-376
▁earth	-377
▁mine	-378
▁Iesus	-379
▁saide	-380
rought	-381
erefore	-382
of	-383
▁giue	-384
ied	-385
nder	-386
riest	-387
▁ar	-388
me	-389
▁see	-390
▁bur	-391
▁doe	-392
▁Ch	-393
▁iu	-394
▁Priest	-395
epe	-396
▁among	-397
auen	-398
▁sin	-399
holde	-400
ime	-401
▁fe	-402
aine	-403
▁Iud	-404
led	-405
▁Z	-406
▁bo	-407
ire	-408
▁Ier	-409
▁away	-410
▁put	-411
▁like	-412
▁call	-413
▁way	-414
eare	-415
ree	-416
▁acc	-417
nesse	-418
asse	-419
ig	-420
▁goe	-421
▁brought	-422
▁right	-423
▁sto	-424
▁nor	-425
ues	-426
oses	-427
▁dea	-428
▁Moses	-429
▁thereof	-430
▁should	-431
▁citie	-432
▁sayd	-433
▁wat	-434
▁R	-435
sel	-436
sw	-437
▁command	-438
▁(	-439
▁two	-440
▁neither	-441
▁Ab	-442
ile	-443
▁take	-444
▁Iudah	-445
aue	-446
▁Ie	-447
▁mu	-448
usale	-449
▁answ	-450
▁dest	-451
▁Io	-452
▁cha	-453
usalem	-454
▁know	-455
▁sel	-456
▁where	-457
▁lo	-458
ning	-459
▁hu	-460
ses	-461
▁what	-462
aught	-463
kes	-464
qu	-465
▁pray	-466
▁bre	-467
ording	-468
▁any	-469
▁bring	-470
▁tooke	-471
▁wil	-472
▁Eg	-473
▁sw	-474
▁good	-475
ement	-476
▁yeere	-477
▁heauen	-478
itt	-479
▁more	-480
ede	-481
cked	-482
pe	-483
▁according	-484
ypt	-485
▁Egypt	-486
▁As	-487
▁vnder	-488
other	-489
ran	-490
ub	-491
▁might	-492
yed	-493
▁lif	-494
▁sent	-495
ic	-496
ng	-497
oyce	-498
▁del	-499
▁offring	-500
ac	-501
▁dayes	-502
▁place	-503
▁word	-504
▁bro	-505
▁Thou	-506
▁heard	-507
▁sou	-508
▁ex	-509
▁time	-510
roph	-511
▁sayde	-512
▁iud	-513
▁fathers	-514
ines	-515
▁rem	-516
mb	-517
▁destro	-518
▁Ierusalem	-519
▁called	-520
▁answered	-521
▁gl	-522
oue	-523
▁wicked	-524
▁Sh	-525
▁king	-526
ak	-527
li	-528
▁Ar	-529
▁ke	-530
ance	-531
▁beg	-532
▁about	-533
▁set	-534
▁heare	-535
▁againe	-536
▁mee	-537
eake	-538
ward	-539
tie	-540
▁Chr	-541
ations	-542
▁eu	-543
ence	-544
▁hund	-545
ure	-546
▁per	-547
▁Therefore	-548
▁tur	-549
ot	-550
▁ey	-551
▁mount	-552
▁pre	-553
▁host	-554
▁lande	-555
▁wom	-556
rough	-557
▁dis	-558
▁yet	-559
▁hundreth	-560
▁eate	-561
▁other	-562
▁cast	-563
eous	-564
aul	-565
▁sm	-566
iuen	-567
▁des	-568
▁ow	-569
▁daught	-570
ob	-571
▁through	-572
irst	-573
▁Christ	-574
ete	-575
▁yee	-576
apt	-577
▁Am	-578
▁ro	-579
ities	-580
orth	-581
▁seuen	-582
▁done	-583
▁thous	-584
▁en	-585
▁thousand	-586
▁breth	-587
ment	-588
▁fire	-589
eb	-590
▁Kings	-591
▁righteous	-592
▁spake	-593
▁owne	-594
▁brethren	-595
rin	-596
well	-597
▁giuen	-598
ret	-599
lood	-600
ci	-601
orne	-602
▁holy	-603
▁saith	-604
eu	-605
▁cr	-606
arde	-607
▁many	-608
▁three	-609
▁first	-610
▁gaue	-611
▁bee	-612
▁If	-613
▁app	-614
▁wo	-615
▁can	-616
▁Al	-617
▁iudg	-618
▁glor	-619
▁offer	-620
▁speake	-621
▁dwell	-622
▁dep	-623
▁selfe	-624
rophet	-625
ol	-626
ern	-627
hold	-628
▁i	-629
▁bu	-630
ber	-631
ice	-632
ag	-633
▁beholde	-634
▁tr	-635
▁head	-636
▁sinne	-637
▁pow	-638
euer	-639
ather	-640
▁Ia	-641
▁gr	-642
ised	-643
▁euill	-644
▁tri	-645
int	-646
▁eyes	-647
▁name	-648
ul	-649
▁La	-650
▁wr	-651
▁feare	-652
▁Thus	-653
ham	-654
ort	-655
▁life	-656
▁cities	-657
um	-658
orde	-659
▁fam	-660
▁knowe	-661
tur	-662
dome	-663
▁blood	-664
▁depart	-665
▁po	-666
▁burnt	-667
arre	-668
▁seruants	-669
iuer	-670
▁none	-671
▁retur	-672
▁capt	-673
▁nowe	-674
▁same	-675
▁mouth	-676
cri	-677
▁art	-678
▁Name	-679
▁without	-680
▁ch	-681
▁voyce	-682
▁They	-683
ltar	-684
▁lay	-685
▁worke	-686
▁deu	-687
hab	-688
lesh	-689
▁would	-690
▁flesh	-691
erc	-692
▁prin	-693
▁bread	-694
ft	-695
▁sil	-696
ote	-697
aken	-698
▁Let	-699
▁tre	-700
▁Saul	-701
des	-702
▁wordes	-703
ose	-704
eace	-705
▁rece	-706
▁worde	-707
▁commanded	-708
▁water	-709
gether	-710
bes	-711
▁co	-712
irit	-713
▁wal	-714
ims	-715
alom	-716
ai	-717
sh	-718
▁ent	-719
ane	-720
▁la	-721
entie	-722
▁wife	-723
▁bet	-724
ction	-725
▁sawe	-726
▁Prophet	-727
▁ru	-728
▁Pha	-729
▁sle	-730
▁Beholde	-731
her	-732
▁mid	-733
▁brother	-734
un	-735
▁drin	-736
▁peace	-737
▁Also	-738
▁thir	-739
▁Tab	-740
ode	-741
soeuer	-742
▁another	-743
▁si	-744
▁cause	-745
full	-746
▁destroy	-747
▁both	-748
▁together	-749
▁fall	-750
▁altar	-751
ernac	-752
ger	-753
▁ra	-754
▁Nowe	-755
▁enem	-756
▁whom	-757
oth	-758
ched	-759
iefe	-760
▁death	-761
▁iudgement	-762
ua	-763
▁dead	-764
▁hande	-765
▁soule	-766
ia	-767
aines	-768
▁bles	-769
▁When	-770
▁merc	-771
pen	-772
warde	-773
▁hie	-774
iued	-775
▁Leu	-776
▁olde	-777
▁Who	-778
▁foure	-779
▁drinke	-780
▁himsel	-781
▁pro	-782
▁thus	-783
▁mo	-784
▁count	-785
inde	-786
▁mult	-787
ouer	-788
▁beast	-789
ans	-790
▁sight	-791
▁stand	-792
reg	-793
▁sea	-794
▁cons	-795
▁himselfe	-796
▁light	-797
wes	-798
▁foorth	-799
ude	-800
▁inc	-801
▁reig	-802
arie	-803
esse	-804
ernacle	-805
▁found	-806
gth	-807
igh	-808
▁part	-809
regation	-810
lou	-811
aron	-812
▁face	-813
▁fie	-814
▁Aaron	-815
▁wra	-816
▁Iaak	-817
▁keepe	-818
▁vnc	-819
▁pres	-820
▁Iaakob	-821
lder	-822
▁liue	-823
ongregation	-824
itten	-825
▁faith	-826
stand	-827
▁side	-828
ec	-829
▁fiue	-830
ble	-831
▁Phi	-832
▁rou	-833
▁bui	-834
▁mor	-835
▁comp	-836
▁whome	-837
▁commandement	-838
▁In	-839
▁true	-840
az	-841
▁siluer	-842
▁rest	-843
▁god	-844
▁tru	-845
▁What	-846
▁left	-847
▁Congregation	-848
▁forth	-849
▁wrath	-850
▁kingdome	-851
▁rei	-852
▁pl	-853
▁woman	-854
ings	-855
▁famil	-856
▁loue	-857
▁sayth	-858
▁taken	-859
▁mother	-860
▁night	-861
▁This	-862
▁bene	-863
xe	-864
▁lou	-865
▁daughter	-866
▁bes	-867
wel	-868
abel	-869
▁Sam	-870
▁ini	-871
leane	-872
lee	-873
ined	-874
rong	-875
▁fru	-876
▁mon	-877
▁ten	-878
▁wilder	-879
ert	-880
ron	-881
osh	-882
▁Tabernacle	-883
▁whe	-884
▁golde	-885
▁sheepe	-886
▁vnt	-887
▁cont	-888
▁those	-889
▁moneth	-890
▁sl	-891
oulde	-892
▁iniqu	-893
▁Sp	-894
▁exce	-895
▁passe	-896
▁deliue	-897
sion	-898
▁gra	-899
itude	-900
▁strong	-901
ates	-902
▁pos	-903
anct	-904
▁car	-905
▁deliuer	-906
▁twentie	-907
alomon	-908
▁Salomon	-909
▁princes	-910
arken	-911
iel	-912
▁spo	-913
▁inher	-914
▁im	-915
owed	-916
▁dec	-917
▁hor	-918
ified	-919
▁power	-920
▁much	-921
▁chiefe	-922
▁turned	-923
oe	-924
▁ioy	-925
▁ple	-926
ished	-927
▁stran	-928
▁selues	-929
▁rep	-930
▁sec	-931
▁open	-932
rength	-933
oh	-934
ind	-935
▁sub	-936
▁Eph	-937
illed	-938
▁long	-939
▁hands	-940
▁Lawe	-941
▁yong	-942
▁nations	-943
che	-944
onne	-945
▁strength	-946
▁sc	-947
att	-948
▁ly	-949
list	-950
▁dwel	-951
▁posses	-952
▁Philist	-953
loth	-954
enant	-955
▁middes	-956
▁four	-957
▁prou	-958
▁written	-959
▁mar	-960
▁Babel	-961
▁Re	-962
▁Sonne	-963
▁hostes	-964
▁departed	-965
▁deliuered	-966
ister	-967
▁fell	-968
▁shew	-969
▁couenant	-970
▁seene	-971
ound	-972
han	-973
ff	-974
▁Phara	-975
▁multitude	-976
▁now	-977
▁waters	-978
▁turne	-979
▁Wherefore	-980
▁te	-981
▁wit	-982
▁beare	-983
▁disci	-984
▁spoken	-985
▁Pharaoh	-986
▁gate	-987
ade	-988
▁eare	-989
▁Father	-990
▁enemies	-991
▁vnderstand	-992
▁die	-993
▁borne	-994
ples	-995
▁seede	-996
▁handes	-997
▁inhab	-998
▁Leuites	-999
▁Ang	-1000
▁pur	-1001
▁wa	-1002
▁fif	-1003
▁res	-1004
▁Beth	-1005
ase	-1006
▁Angel	-1007
▁toward	-1008
▁lam	-1009
▁lift	-1010
able	-1011
▁Ieho	-1012
▁sacri	-1013
▁seeke	-1014
ier	-1015
sen	-1016
fter	-1017
▁Eli	-1018
▁cub	-1019
▁cut	-1020
▁sacrif	-1021
▁kne	-1022
aster	-1023
▁That	-1024
▁wall	-1025
▁feete	-1026
▁yeeres	-1027
▁commeth	-1028
▁inhabit	-1029
▁end	-1030
▁wine	-1031
▁neere	-1032
▁whose	-1033
seph	-1034
▁gath	-1035
▁Philistims	-1036
▁vntill	-1037
▁therein	-1038
▁daughters	-1039
cer	-1040
▁Ben	-1041
thing	-1042
▁Iewes	-1043
ared	-1044
▁hoste	-1045
▁gen	-1046
raham	-1047
▁riuer	-1048
▁walke	-1049
▁Ioseph	-1050
▁Abraham	-1051
▁nothing	-1052
▁foll	-1053
ued	-1054
▁spirit	-1055
▁returne	-1056
▁El	-1057
▁reioyce	-1058
weene	-1059
▁asse	-1060
▁inherit	-1061
▁betweene	-1062
▁iniquitie	-1063
▁hon	-1064
▁nom	-1065
▁aboue	-1066
▁doore	-1067
nne	-1068
▁full	-1069
▁meate	-1070
▁disciples	-1071
▁It	-1072
▁iust	-1073
▁world	-1074
▁ad	-1075
iled	-1076
▁gods	-1077
▁remem	-1078
▁tribe	-1079
▁To	-1080
▁har	-1081
▁grou	-1082
▁such	-1083
▁well	-1084
▁places	-1085
▁gar	-1086
zz	-1087
owes	-1088
▁Now	-1089
selues	-1090
▁sworde	-1091
ged	-1092
▁whole	-1093
▁stoode	-1094
▁destroyed	-1095
▁suff	-1096
ute	-1097
▁prep	-1098
▁cloth	-1099
▁fielde	-1100
▁themselues	-1101
king	-1102
▁gener	-1103
▁serue	-1104
▁smote	-1105
▁workes	-1106
▁eat	-1107
▁Arke	-1108
▁Thes	-1109
▁coun	-1110
▁oy	-1111
▁cert	-1112
▁dwelt	-1113
mon	-1114
shi	-1115
kiah	-1116
▁cur	-1117
▁countre	-1118
▁pit	-1119
▁vis	-1120
▁gathered	-1121
ee	-1122
den	-1123
▁shee	-1124
▁mightie	-1125
abb	-1126
atte	-1127
▁bod	-1128
▁After	-1129
▁though	-1130
▁cor	-1131
▁doeth	-1132
▁inheritance	-1133
age	-1134
▁decl	-1135
▁saue	-1136
▁receiue	-1137
▁Priestes	-1138
oint	-1139
▁Mo	-1140
▁br	-1141
▁fl	-1142
▁Tem	-1143
ib	-1144
omin	-1145
▁poore	-1146
uel	-1147
▁conf	-1148
▁These	-1149
cerning	-1150
ach	-1151
▁My	-1152
▁morning	-1153
ames	-1154
ifie	-1155
oked	-1156
▁forg	-1157
▁inhabitant	-1158
oc	-1159
ons	-1160
▁Sha	-1161
▁warre	-1162
▁trueth	-1163
▁tolde	-1164
for	-1165
▁Man	-1166
▁trou	-1167
▁bare	-1168
▁wilt	-1169
per	-1170
▁begate	-1171
cha	-1172
▁wise	-1173
▁pleas	-1174
▁countrey	-1175
▁dre	-1176
▁sure	-1177
▁tree	-1178
▁some	-1179
▁Iosh	-1180
▁twel	-1181
▁sword	-1182
▁Behold	-1183
ner	-1184
▁sk	-1185
▁thr	-1186
▁stone	-1187
▁Ioshua	-1188
▁oyle	-1189
▁behold	-1190
▁certaine	-1191
iam	-1192
itle	-1193
▁Can	-1194
▁tea	-1195
ments	-1196
▁Moab	-1197
▁round	-1198
▁Priests	-1199
dom	-1200
▁Pe	-1201
with	-1202
▁arm	-1203
▁pra	-1204
ledge	-1205
▁bull	-1206
▁cour	-1207
▁gone	-1208
▁howe	-1209
▁glory	-1210
▁cubites	-1211
esh	-1212
▁ver	-1213
▁East	-1214
▁rich	-1215
▁how	-1216
▁sor	-1217
lders	-1218
▁char	-1219
▁mercie	-1220
▁wee	-1221
atter	-1222
▁wayes	-1223
▁contin	-1224
▁fruite	-1225
▁Because	-1226
ust	-1227
▁trust	-1228
▁childe	-1229
ash	-1230
ions	-1231
▁tell	-1232
▁Ephra	-1233
▁onely	-1234
ond	-1235
▁We	-1236
▁ba	-1237
aiah	-1238
iles	-1239
▁min	-1240
▁ende	-1241
ages	-1242
ense	-1243
athan	-1244
▁Iord	-1245
▁sate	-1246
▁blessed	-1247
▁wildernesse	-1248
▁An	-1249
▁ob	-1250
ches	-1251
▁hel	-1252
attell	-1253
▁Temple	-1254
▁broken	-1255
▁returned	-1256
▁mountaines	-1257
aan	-1258
▁All	-1259
▁sal	-1260
▁sau	-1261
▁booke	-1262
▁litle	-1263
▁shewe	-1264
▁worshi	-1265
ians	-1266
▁women	-1267
▁cho	-1268
▁vncleane	-1269
▁qu	-1270
gers	-1271
rose	-1272
▁rec	-1273
ip	-1274
imon	-1275
sell	-1276
leeue	-1277
▁There	-1278
▁stones	-1279
ours	-1280
ures	-1281
▁arose	-1282
▁twelue	-1283
gue	-1284
▁inst	-1285
▁sinnes	-1286
▁beleeue	-1287
▁offering	-1288
▁aff	-1289
▁bord	-1290
▁kept	-1291
▁began	-1292
▁enter	-1293
▁farre	-1294
▁thinges	-1295
ap	-1296
▁Iz	-1297
▁tim	-1298
▁tou	-1299
right	-1300
ls	-1301
▁sixe	-1302
▁vine	-1303
▁Iorden	-1304
▁within	-1305
▁receiued	-1306
▁tal	-1307
▁Ephraim	-1308
▁families	-1309
▁Which	-1310
ruction	-1311
▁throne	-1312
wise	-1313
▁ord	-1314
ourne	-1315
▁very	-1316
▁iudge	-1317
▁reigne	-1318
▁reigned	-1319
rie	-1320
▁More	-1321
abbath	-1322
▁thirtie	-1323
▁proph	-1324
▁captiu	-1325
▁charet	-1326
▁nomber	-1327
▁sla	-1328
▁pers	-1329
▁slay	-1330
▁tong	-1331
▁shoulde	-1332
▁Ne	-1333
▁saw	-1334
iamin	-1335
▁dece	-1336
▁here	-1337
▁spoy	-1338
▁Elders	-1339
▁Sabbath	-1340
▁offrings	-1341
ely	-1342
ison	-1343
▁clou	-1344
▁abomin	-1345
▁houses	-1346
▁shewed	-1347
ts	-1348
oam	-1349
▁ram	-1350
▁meas	-1351
▁being	-1352
▁desol	-1353
▁gather	-1354
▁master	-1355
ze	-1356
▁hal	-1357
▁Aram	-1358
▁gold	-1359
▁towarde	-1360
▁counsell	-1361
pet	-1362
ighb	-1363
▁def	-1364
▁obe	-1365
▁till	-1366
▁glorie	-1367
▁neighb	-1368
aal	-1369
sha	-1370
oles	-1371
▁sayeth	-1372
▁sacrifice	-1373
▁cl	-1374
band	-1375
sels	-1376
▁hus	-1377
iuing	-1378
▁kind	-1379
▁Spirit	-1380
▁bl	-1381
▁trees	-1382
▁knowen	-1383
▁Prophets	-1384
▁thousande	-1385
▁concerning	-1386
▁Goe	-1387
▁Sou	-1388
▁Take	-1389
▁kill	-1390
▁wash	-1391
▁goeth	-1392
pes	-1393
ious	-1394
eared	-1395
▁darken	-1396
▁husband	-1397
▁Beniamin	-1398
▁Of	-1399
▁yere	-1400
▁Sanct	-1401
▁South	-1402
▁Dan	-1403
▁hid	-1404
▁ves	-1405
▁Peter	-1406
▁feast	-1407
▁Canaan	-1408
▁knowledge	-1409
▁inhabitants	-1410
alle	-1411
miah	-1412
▁Ion	-1413
▁Paul	-1414
ointed	-1415
▁valle	-1416
wh	-1417
alme	-1418
ased	-1419
oynt	-1420
assed	-1421
▁North	-1422
▁sunne	-1423
▁looked	-1424
ost	-1425
▁bar	-1426
▁dra	-1427
▁tent	-1428
uation	-1429
▁assemb	-1430
▁committ	-1431
▁righteousnesse	-1432
men	-1433
▁vt	-1434
▁send	-1435
▁burne	-1436
▁breake	-1437
ye	-1438
med	-1439
▁fors	-1440
▁sing	-1441
▁affli	-1442
▁finde	-1443
▁id	-1444
▁She	-1445
ereth	-1446
▁read	-1447
▁Sanctu	-1448
▁incense	-1449
haz	-1450
uall	-1451
▁sep	-1452
▁sig	-1453
▁tow	-1454
▁Zion	-1455
▁tran	-1456
▁deuou	-1457
▁fiftie	-1458
▁slaine	-1459
▁thought	-1460
▁Moreouer	-1461
▁mountaine	-1462
iz	-1463
irc	-1464
ole	-1465
▁cau	-1466
▁yea	-1467
▁fled	-1468
▁looke	-1469
▁trans	-1470
▁commandements	-1471
ala	-1472
ired	-1473
uted	-1474
▁Neb	-1475
▁Iere	-1476
ppe	-1477
▁afra	-1478
▁pill	-1479
▁least	-1480
▁maner	-1481
▁shame	-1482
▁founde	-1483
ters	-1484
▁ref	-1485
asseh	-1486
▁most	-1487
▁backe	-1488
▁while	-1489
▁Manasseh	-1490
shur	-1491
▁ble	-1492
▁pie	-1493
▁Asshur	-1494
▁surely	-1495
ten	-1496
▁Ham	-1497
▁bou	-1498
▁cam	-1499
▁prom	-1500
▁whosoeuer	-1501
▁Sanctuarie	-1502
up	-1503
aph	-1504
▁ful	-1505
▁swe	-1506
ircum	-1507
▁begin	-1508
▁eight	-1509
▁wised	-1510
entiles	-1511
▁vessels	-1512
▁Ieremiah	-1513
esc	-1514
ray	-1515
ises	-1516
▁rul	-1517
ilead	-1518
▁Ioab	-1519
▁halfe	-1520
▁Gilead	-1521
▁remaine	-1522
▁Ad	-1523
mber	-1524
▁Hier	-1525
▁sake	-1526
▁couer	-1527
▁stret	-1528
▁times	-1529
▁thence	-1530
▁saluation	-1531
▁vnderstanding	-1532
gres	-1533
▁Aga	-1534
▁stea	-1535
ircumc	-1536
▁anger	-1537
▁sanct	-1538
▁treas	-1539
▁wiues	-1540
▁valley	-1541
▁prophec	-1542
▁Gentiles	-1543
▁transgres	-1544
▁Why	-1545
▁asked	-1546
▁filled	-1547
▁pillar	-1548
▁rememb	-1549
▁Hierusalem	-1550
▁body	-1551
▁wood	-1552
▁built	-1553
▁fight	-1554
▁prison	-1555
▁fourtie	-1556
▁stre	-1557
▁heath	-1558
▁opened	-1559
▁perish	-1560
▁wherein	-1561
▁wisedome	-1562
ali	-1563
ape	-1564
fort	-1565
▁Thy	-1566
▁court	-1567
▁grace	-1568
▁incre	-1569
▁slewe	-1570
▁Samuel	-1571
oued	-1572
▁could	-1573
▁sheke	-1574
▁ground	-1575
▁plague	-1576
▁declare	-1577
hn	-1578
alt	-1579
▁Se	-1580
cept	-1581
▁flo	-1582
irite	-1583
▁able	-1584
▁knewe	-1585
▁nation	-1586
▁familie	-1587
ges	-1588
hah	-1589
ift	-1590
▁Ieh	-1591
▁heathen	-1592
▁committed	-1593
▁Iohn	-1594
▁fine	-1595
▁eares	-1596
▁gates	-1597
▁sister	-1598
▁answere	-1599
▁stranger	-1600
▁generation	-1601
ced	-1602
leeu	-1603
▁why	-1604
▁fast	-1605
▁rise	-1606
▁rose	-1607
▁Samar	-1608
▁praise	-1609
▁tongue	-1610
ry	-1611
▁glad	-1612
▁woulde	-1613
▁comfort	-1614
▁righteousnes	-1615
lie	-1616
▁Scri	-1617
he	-1618
▁Es	-1619
▁da	-1620
▁fat	-1621
▁lab	-1622
▁hope	-1623
▁desolate	-1624
▁Where	-1625
▁helpe	-1626
▁brasse	-1627
▁caused	-1628
▁chosen	-1629
▁minister	-1630
▁prepared	-1631
▁throughout	-1632
mpet	-1633
sing	-1634
▁Baal	-1635
▁Come	-1636
▁Heze	-1637
▁Ammon	-1638
▁meete	-1639
▁cleane	-1640
▁follow	-1641
▁trumpet	-1642
▁captiuitie	-1643
abl	-1644
bell	-1645
▁second	-1646
▁Hezekiah	-1647
sec	-1648
ppes	-1649
▁must	-1650
▁Heare	-1651
▁rebell	-1652
▁sought	-1653
▁walked	-1654
▁destruction	-1655
isha	-1656
▁Hee	-1657
▁bec	-1658
▁mes	-1659
▁rede	-1660
▁beleeu	-1661
▁Sea	-1662
▁mone	-1663
▁pure	-1664
▁stri	-1665
▁wildernes	-1666
▁money	-1667
▁instru	-1668
▁suffer	-1669
▁Samaria	-1670
els	-1671
▁Edom	-1672
▁Izha	-1673
▁flee	-1674
▁neuer	-1675
▁border	-1676
▁honour	-1677
▁beastes	-1678
bu	-1679
▁eye	-1680
erely	-1681
▁shut	-1682
▁sore	-1683
▁spea	-1684
▁test	-1685
▁teach	-1686
▁possesse	-1687
ease	-1688
ides	-1689
▁than	-1690
▁smite	-1691
▁compan	-1692
aile	-1693
uers	-1694
▁desp	-1695
▁lord	-1696
▁third	-1697
▁vtter	-1698
▁giueth	-1699
▁sweete	-1700
▁charets	-1701
▁present	-1702
▁whatsoeuer	-1703
ckes	-1704
▁pros	-1705
▁winde	-1706
▁excell	-1707
▁beginning	-1708
erub	-1709
▁fau	-1710
eding	-1711
▁port	-1712
ication	-1713
▁Againe	-1714
▁messen	-1715
▁worlde	-1716
ason	-1717
lech	-1718
▁hat	-1719
▁Bles	-1720
▁cryed	-1721
▁prayse	-1722
▁hearken	-1723
ian	-1724
elah	-1725
resp	-1726
▁Chur	-1727
▁heal	-1728
▁mans	-1729
▁exalt	-1730
▁field	-1731
▁tresp	-1732
▁heauens	-1733
▁whether	-1734
▁beleeued	-1735
▁captaines	-1736
▁Ma	-1737
aint	-1738
aues	-1739
ones	-1740
uing	-1741
▁sit	-1742
▁van	-1743
olish	-1744
▁aske	-1745
▁coast	-1746
▁ordin	-1747
▁subur	-1748
▁entred	-1749
▁seuenth	-1750
pped	-1751
▁pri	-1752
▁rebu	-1753
▁hearts	-1754
▁maketh	-1755
▁trouble	-1756
▁Ionathan	-1757
▁neighbour	-1758
erue	-1759
ners	-1760
▁fal	-1761
▁tem	-1762
▁wis	-1763
▁dyed	-1764
▁euil	-1765
▁clothes	-1766
▁couered	-1767
▁garment	-1768
▁presence	-1769
▁possession	-1770
ign	-1771
mes	-1772
hath	-1773
▁esc	-1774
▁rod	-1775
attel	-1776
ounded	-1777
▁Izhak	-1778
▁daies	-1779
▁leaue	-1780
▁charge	-1781
▁consum	-1782
▁riches	-1783
▁sinned	-1784
▁Blessed	-1785
ocke	-1786
▁fore	-1787
▁past	-1788
▁horse	-1789
▁loued	-1790
▁desire	-1791
▁horses	-1792
cc	-1793
xt	-1794
mer	-1795
▁No	-1796
ried	-1797
▁Abs	-1798
▁ang	-1799
▁ris	-1800
▁dust	-1801
▁build	-1802
▁spoyle	-1803
▁Absalom	-1804
▁Ps	-1805
zzar	-1806
▁bed	-1807
▁loe	-1808
▁cond	-1809
▁fulf	-1810
▁lest	-1811
▁stra	-1812
▁eaten	-1813
▁saued	-1814
▁touch	-1815
▁better	-1816
▁liuing	-1817
▁prince	-1818
▁tribes	-1819
▁witnes	-1820
▁foolish	-1821
yr	-1822
▁Az	-1823
amed	-1824
ieth	-1825
▁Bar	-1826
▁est	-1827
▁minde	-1828
▁viney	-1829
▁blesse	-1830
▁pieces	-1831
▁suburbes	-1832
not	-1833
ying	-1834
▁bra	-1835
urely	-1836
▁high	-1837
▁stat	-1838
▁doest	-1839
▁prayer	-1840
▁whither	-1841
▁Egyptians	-1842
▁appointed	-1843
▁exceeding	-1844
▁wickednesse	-1845
ike	-1846
ult	-1847
uth	-1848
▁buy	-1849
▁opp	-1850
▁Nebu	-1851
inesse	-1852
▁Surely	-1853
▁enemie	-1854
▁seeing	-1855
▁sleepe	-1856
oboam	-1857
▁bones	-1858
▁foote	-1859
▁still	-1860
▁redeem	-1861
▁Neither	-1862
zer	-1863
host	-1864
ling	-1865
mble	-1866
▁lin	-1867
hamed	-1868
▁lawe	-1869
▁worth	-1870
by	-1871
▁Ah	-1872
▁Go	-1873
ifull	-1874
▁Phar	-1875
▁keep	-1876
▁stood	-1877
▁cannot	-1878
▁famine	-1879
▁ashamed	-1880
▁Ieroboam	-1881
nded	-1882
▁How	-1883
▁forn	-1884
▁newe	-1885
▁wast	-1886
▁Psalme	-1887
▁secret	-1888
use	-1889
▁sn	-1890
azar	-1891
ained	-1892
aring	-1893
▁Esau	-1894
▁skin	-1895
▁alone	-1896
▁plant	-1897
▁oppres	-1898
▁afraide	-1899
▁battell	-1900
▁knoweth	-1901
▁vpright	-1902
▁captaine	-1903
▁Ap	-1904
▁Ca	-1905
kest	-1906
nant	-1907
▁Gos	-1908
▁repro	-1909
▁words	-1910
▁hauing	-1911
▁portion	-1912
eba	-1913
ton	-1914
ient	-1915
▁dou	-1916
▁seu	-1917
▁bapt	-1918
▁last	-1919
▁thor	-1920
▁yron	-1921
▁troub	-1922
▁vaine	-1923
▁idoles	-1924
▁iourne	-1925
▁bullocke	-1926
▁followed	-1927
▁remember	-1928
icke	-1929
ught	-1930
▁gir	-1931
▁West	-1932
▁frie	-1933
▁obey	-1934
asting	-1935
▁remnant	-1936
▁consumed	-1937
ck	-1938
ma	-1939
▁vi	-1940
dowe	-1941
▁wro	-1942
lesse	-1943
mbers	-1944
▁thin	-1945
▁Saint	-1946
▁curse	-1947
▁Cherub	-1948
▁cloude	-1949
und	-1950
ouse	-1951
teth	-1952
ured	-1953
▁law	-1954
▁led	-1955
▁bran	-1956
▁poll	-1957
▁heede	-1958
▁small	-1959
▁watch	-1960
▁prepare	-1961
▁shekels	-1962
▁worship	-1963
▁affliction	-1964
ary	-1965
run	-1966
phat	-1967
▁Han	-1968
▁Mic	-1969
▁Zeb	-1970
▁ray	-1971
▁Howe	-1972
▁names	-1973
dest	-1974
▁Abi	-1975
▁Gad	-1976
▁bli	-1977
▁Ahab	-1978
▁drun	-1979
▁corne	-1980
▁holde	-1981
▁ought	-1982
▁signe	-1983
▁caried	-1984
▁person	-1985
▁seruice	-1986
▁thither	-1987
▁increase	-1988
▁continuall	-1989
▁iudgements	-1990
▁generations	-1991
ster	-1992
▁gre	-1993
▁gift	-1994
▁hate	-1995
▁requ	-1996
▁Ghost	-1997
▁cease	-1998
▁sicke	-1999
▁liueth	-2000
▁matter	-2001
ffe	-2002
chad	-2003
read	-2004
▁Say	-2005
▁get	-2006
▁Shall	-2007
▁scatt	-2008
▁condem	-2009
▁pillars	-2010
▁wrought	-2011
▁wherewith	-2012
nged	-2013
▁Gal	-2014
▁Heb	-2015
▁Law	-2016
ances	-2017
aniah	-2018
▁grie	-2019
nezzar	-2020
▁Iehoi	-2021
▁houre	-2022
▁aduers	-2023
▁Nebuchad	-2024
the	-2025
▁ed	-2026
rupt	-2027
uben	-2028
▁bond	-2029
▁hide	-2030
▁alway	-2031
▁graue	-2032
imelech	-2033
▁Angels	-2034
▁beside	-2035
▁cattell	-2036
▁pitched	-2037
▁Pharises	-2038
▁likewise	-2039
eah	-2040
▁lot	-2041
▁par	-2042
▁reg	-2043
which	-2044
▁song	-2045
▁false	-2046
▁Reuben	-2047
▁Na	-2048
edar	-2049
ices	-2050
▁dye	-2051
▁mur	-2052
▁crie	-2053
▁mour	-2054
▁House	-2055
▁separ	-2056
▁offred	-2057
▁rounde	-2058
▁serued	-2059
▁prosper	-2060
▁vanitie	-2061
▁wisdome	-2062
ils	-2063
ram	-2064
▁Ele	-2065
▁His	-2066
▁tab	-2067
cious	-2068
▁wind	-2069
oynted	-2070
▁image	-2071
▁sende	-2072
▁bulloc	-2073
▁passed	-2074
ari	-2075
ros	-2076
ents	-2077
utes	-2078
▁Her	-2079
▁por	-2080
▁exec	-2081
▁euerl	-2082
▁feared	-2083
▁faithfull	-2084
▁wherefore	-2085
▁darkenesse	-2086
▁euerlasting	-2087
hob	-2088
tone	-2089
ience	-2090
▁Amor	-2091
▁Gosp	-2092
▁died	-2093
▁abide	-2094
▁friend	-2095
▁labour	-2096
▁powred	-2097
▁riuers	-2098
▁taught	-2099
▁garments	-2100
▁seuentie	-2101
ircumcised	-2102
ush	-2103
cted	-2104
ided	-2105
iues	-2106
osed	-2107
side	-2108
▁cal	-2109
▁den	-2110
nders	-2111
ouern	-2112
rings	-2113
▁Shem	-2114
▁disc	-2115
▁trib	-2116
▁aliue	-2117
▁brake	-2118
▁rocke	-2119
▁plaine	-2120
▁repent	-2121
▁soules	-2122
▁mothers	-2123
▁wickednes	-2124
ps	-2125
xed	-2126
▁By	-2127
▁Sy	-2128
▁pala	-2129
▁rule	-2130
▁vali	-2131
▁Calde	-2132
▁Daniel	-2133
▁prophet	-2134
▁valiant	-2135
▁forsaken	-2136
▁messengers	-2137
▁instruments	-2138
aut	-2139
owen	-2140
▁Ahi	-2141
▁Not	-2142
▁cle	-2143
▁fig	-2144
▁raine	-2145
▁waite	-2146
▁Gospel	-2147
▁vision	-2148
▁statutes	-2149
omp	-2150
yrus	-2151
▁Ish	-2152
▁bas	-2153
otten	-2154
▁Euen	-2155
▁Giue	-2156
▁Like	-2157
▁flou	-2158
▁nine	-2159
▁prof	-2160
▁Apost	-2161
▁beaut	-2162
▁deede	-2163
▁reioy	-2164
▁sware	-2165
shaphat	-2166
▁burden	-2167
▁compas	-2168
▁fourth	-2169
▁strange	-2170
▁prophecie	-2171
▁stretched	-2172
▁treasures	-2173
▁Iehoshaphat	-2174
▁At	-2175
▁hur	-2176
ariah	-2177
▁prea	-2178
▁shep	-2179
▁vill	-2180
▁Passe	-2181
▁hence	-2182
▁tenth	-2183
▁lambes	-2184
▁troubled	-2185
bit	-2186
▁ve	-2187
▁Ahaz	-2188
▁band	-2189
▁named	-2190
▁write	-2191
▁Church	-2192
▁accept	-2193
▁barres	-2194
▁deuoure	-2195
▁measure	-2196
▁witnesse	-2197
▁scattered	-2198
rs	-2199
rom	-2200
orah	-2201
▁cry	-2202
▁noy	-2203
▁war	-2204
rance	-2205
▁heau	-2206
▁shie	-2207
▁supp	-2208
▁aston	-2209
▁layde	-2210
▁resto	-2211
▁runne	-2212
▁Lordes	-2213
▁gouern	-2214
▁preach	-2215
▁thankes	-2216
▁whereof	-2217
▁fulfilled	-2218
ins	-2219
man	-2220
uch	-2221
aunt	-2222
▁Mer	-2223
▁bri	-2224
▁pot	-2225
▁red	-2226
▁wea	-2227
▁bowe	-2228
▁gird	-2229
▁perf	-2230
▁Hebron	-2231
▁Amorites	-2232
▁Passeouer	-2233
▁strangers	-2234
▁abomination	-2235
bed	-2236
hon	-2237
ider	-2238
onde	-2239
thel	-2240
▁Leb	-2241
▁bey	-2242
▁ele	-2243
ision	-2244
oweth	-2245
teene	-2246
▁fish	-2247
▁hous	-2248
▁wept	-2249
▁flood	-2250
▁heads	-2251
▁waste	-2252
▁Galile	-2253
▁battel	-2254
▁builde	-2255
▁goates	-2256
▁corrupt	-2257
▁iourney	-2258
▁knowest	-2259
▁spirite	-2260
▁abominations	-2261
har	-2262
erie	-2263
▁free	-2264
▁hurt	-2265
▁bound	-2266
▁table	-2267
▁Master	-2268
▁except	-2269
▁rulers	-2270
▁thinke	-2271
▁chamber	-2272
▁exalted	-2273
▁appeared	-2274
▁branches	-2275
ume	-2276
▁Ho	-2277
▁Or	-2278
ales	-2279
▁ran	-2280
▁Leui	-2281
▁arme	-2282
▁ship	-2283
ceiued	-2284
▁habit	-2285
▁white	-2286
▁blinde	-2287
▁fauour	-2288
▁mayest	-2289
▁multip	-2290
▁persec	-2291
▁Eleazar	-2292
▁clothed	-2293
▁pleasant	-2294
▁speaketh	-2295
▁vineyard	-2296
▁offerings	-2297
▁shouldest	-2298
▁compassion	-2299
▁ordinances	-2300
op	-2301
hel	-2302
edes	-2303
▁Ram	-2304
▁sitt	-2305
auened	-2306
▁Leban	-2307
▁Selah	-2308
▁faces	-2309
rection	-2310
▁healed	-2311
▁prayed	-2312
▁walles	-2313
▁greater	-2314
▁precious	-2315
▁villages	-2316
▁trespasse	-2317
▁lie	-2318
▁path	-2319
▁reue	-2320
▁woor	-2321
▁going	-2322
▁inter	-2323
▁buried	-2324
▁dreame	-2325
▁fallen	-2326
▁morowe	-2327
▁steade	-2328
▁offered	-2329
ayed	-2330
riah	-2331
▁Rem	-2332
▁sho	-2333
ought	-2334
▁nomb	-2335
▁arise	-2336
▁armie	-2337
▁cedar	-2338
▁cried	-2339
▁mercy	-2340
▁doores	-2341
▁Lebanon	-2342
▁defiled	-2343
▁worshipped	-2344
▁remembrance	-2345
ted	-2346
ited	-2347
uous	-2348
▁net	-2349
▁With	-2350
▁hill	-2351
▁rent	-2352
▁abund	-2353
▁wings	-2354
▁Speake	-2355
▁hither	-2356
▁kingdom	-2357
▁testimon	-2358
▁assembled	-2359
ago	-2360
hai	-2361
arke	-2362
ened	-2363
▁Har	-2364
▁Mid	-2365
▁bir	-2366
▁bow	-2367
▁obs	-2368
eping	-2369
▁once	-2370
eareth	-2371
▁abode	-2372
▁lorde	-2373
▁hornes	-2374
▁lament	-2375
▁reward	-2376
▁comming	-2377
▁continually	-2378
ok	-2379
cus	-2380
ful	-2381
ily	-2382
irg	-2383
now	-2384
etes	-2385
iour	-2386
▁Iob	-2387
itter	-2388
loued	-2389
▁fort	-2390
▁sear	-2391
▁creat	-2392
▁foole	-2393
▁ruler	-2394
▁Though	-2395
▁flocke	-2396
▁fought	-2397
▁loueth	-2398
▁beloued	-2399
▁deuided	-2400
▁forsake	-2401
▁promise	-2402
▁Abimelech	-2403
ace	-2404
nah	-2405
xen	-2406
aped	-2407
chem	-2408
▁fin	-2409
aliah	-2410
ordes	-2411
▁care	-2412
▁draw	-2413
▁mind	-2414
▁purs	-2415
▁Simon	-2416
▁bowed	-2417
▁noyse	-2418
▁Eliiah	-2419
▁Midian	-2420
▁baptiz	-2421
▁grasse	-2422
▁interp	-2423
▁season	-2424
▁stande	-2425
ablished	-2426
▁Likewise	-2427
▁sanctified	-2428
ens	-2429
hor	-2430
let	-2431
mpt	-2432
asph	-2433
enth	-2434
ulch	-2435
▁Ash	-2436
▁cup	-2437
▁fil	-2438
▁doct	-2439
▁gard	-2440
▁hung	-2441
▁mids	-2442
▁trau	-2443
asphem	-2444
▁besee	-2445
▁lippes	-2446
▁marcha	-2447
▁taketh	-2448
▁breadth	-2449
▁sepulch	-2450
▁deuoured	-2451
▁Cherubims	-2452
ang	-2453
long	-2454
most	-2455
rust	-2456
▁Art	-2457
▁Ios	-2458
▁See	-2459
mbled	-2460
▁knew	-2461
▁lyon	-2462
▁vnle	-2463
▁Feare	-2464
▁Rehob	-2465
▁lambe	-2466
▁liued	-2467
▁slept	-2468
▁rebuke	-2469
▁sauour	-2470
▁thirde	-2471
▁fruites	-2472
▁Aramites	-2473
▁blasphem	-2474
▁pleasure	-2475
▁confounded	-2476
▁Ep	-2477
adab	-2478
icho	-2479
nago	-2480
ough	-2481
used	-2482
▁Sar	-2483
▁behi	-2484
▁oxen	-2485
▁slew	-2486
▁told	-2487
▁marue	-2488
▁seeth	-2489
▁since	-2490
▁wrote	-2491
▁Synago	-2492
▁caryed	-2493
▁floure	-2494
▁golden	-2495
▁office	-2496
▁weight	-2497
▁Iericho	-2498
▁Scribes	-2499
▁declared	-2500
▁mourning	-2501
▁preached	-2502
▁streetes	-2503
▁sanctifie	-2504
ada	-2505
mish	-2506
▁Dam	-2507
▁cre	-2508
alaam	-2509
ureth	-2510
▁lear	-2511
stance	-2512
▁Arise	-2513
▁feede	-2514
▁wombe	-2515
▁youth	-2516
▁Balaam	-2517
▁crowne	-2518
▁images	-2519
▁minist	-2520
▁visite	-2521
thelesse	-2522
▁diddest	-2523
▁thereon	-2524
▁Caldeans	-2525
▁bringeth	-2526
▁chambers	-2527
▁substance	-2528
nto	-2529
tes	-2530
▁hy	-2531
eath	-2532
▁top	-2533
▁beat	-2534
▁Abner	-2535
▁Abram	-2536
▁Micha	-2537
▁asses	-2538
▁solde	-2539
▁iudged	-2540
▁killed	-2541
▁raised	-2542
▁Shechem	-2543
▁blemish	-2544
▁Apostles	-2545
▁baptized	-2546
▁couering	-2547
▁dwelleth	-2548
▁polluted	-2549
ks	-2550
cai	-2551
kah	-2552
ated	-2553
urne	-2554
▁Bas	-2555
▁act	-2556
▁enc	-2557
▁inn	-2558
▁edge	-2559
▁fift	-2560
▁Neuer	-2561
▁behel	-2562
▁filth	-2563
▁haste	-2564
▁score	-2565
▁forget	-2566
▁please	-2567
▁moneths	-2568
▁vtterly	-2569
▁blessing	-2570
▁darkenes	-2571
▁remained	-2572
▁transgression	-2573
av	-2574
ped	-2575
ahel	-2576
anes	-2577
more	-2578
▁Haz	-2579
▁Pil	-2580
▁Shi	-2581
▁ter	-2582
oynes	-2583
ruest	-2584
▁Iehu	-2585
▁Test	-2586
▁othe	-2587
▁virg	-2588
▁Damas	-2589
▁Morde	-2590
▁sprin	-2591
▁Spirite	-2592
▁dwelling	-2593
▁endureth	-2594
▁prophets	-2595
▁Whosoeuer	-2596
▁remembred	-2597
▁Canaanites	-2598
▁foundation	-2599
▁sacrifices	-2600
ain	-2601
▁Bo	-2602
apht	-2603
iest	-2604
▁Asa	-2605
▁Gib	-2606
▁dil	-2607
▁ste	-2608
umber	-2609
▁bell	-2610
▁post	-2611
▁doctr	-2612
▁necke	-2613
▁powre	-2614
▁whore	-2615
aughter	-2616
▁Bashan	-2617
▁Elisha	-2618
▁bitter	-2619
▁thirst	-2620
tonement	-2621
▁haruest	-2622
▁Damascus	-2623
▁iniquities	-2624
akim	-2625
oram	-2626
▁dri	-2627
▁mis	-2628
▁sat	-2629
ition	-2630
▁curt	-2631
▁hold	-2632
▁yoke	-2633
lation	-2634
▁Tyrus	-2635
▁adult	-2636
▁dilig	-2637
▁leade	-2638
▁linen	-2639
▁sound	-2640
▁beasts	-2641
▁eateth	-2642
▁loynes	-2643
▁ouerth	-2644
▁rather	-2645
▁wonder	-2646
standing	-2647
▁obserue	-2648
▁Mordecai	-2649
▁consider	-2650
▁glorious	-2651
▁mercifull	-2652
▁vnleauened	-2653
withstanding	-2654
oun	-2655
▁En	-2656
aked	-2657
▁Lab	-2658
▁Sat	-2659
▁dig	-2660
▁ind	-2661
▁stu	-2662
ckets	-2663
iting	-2664
▁From	-2665
▁Zede	-2666
▁abro	-2667
▁Pilate	-2668
▁appeare	-2669
▁borders	-2670
▁euening	-2671
▁Zedekiah	-2672
▁despised	-2673
▁atonement	-2674
▁interpret	-2675
▁kingdomes	-2676
hem	-2677
isf	-2678
▁Lo	-2679
▁Zi	-2680
lest	-2681
▁Con	-2682
▁Sin	-2683
▁Zer	-2684
▁arr	-2685
▁plu	-2686
ength	-2687
heard	-2688
resse	-2689
▁Hitt	-2690
▁lust	-2691
▁offe	-2692
▁seem	-2693
▁growe	-2694
▁loude	-2695
▁foules	-2696
▁satisf	-2697
▁coastes	-2698
▁desired	-2699
▁horsemen	-2700
▁straight	-2701
▁bullockes	-2702
For	-2703
aim	-2704
arm	-2705
lon	-2706
▁Si	-2707
▁vo	-2708
nall	-2709
▁Gil	-2710
▁bla	-2711
▁diu	-2712
▁mir	-2713
▁oxe	-2714
▁pat	-2715
might	-2716
oured	-2717
▁need	-2718
▁spot	-2719
ablish	-2720
▁Bring	-2721
▁faile	-2722
▁hated	-2723
▁layed	-2724
▁neede	-2725
▁offic	-2726
▁ready	-2727
▁talke	-2728
▁weake	-2729
▁become	-2730
▁deuils	-2731
▁height	-2732
▁length	-2733
▁mourne	-2734
▁obeyed	-2735
▁prouin	-2736
▁sweare	-2737
▁worthy	-2738
▁kindled	-2739
▁shadowe	-2740
▁promised	-2741
▁speaking	-2742
.)	-2743
uke	-2744
▁Eb	-2745
▁St	-2746
▁Miz	-2747
▁Per	-2748
▁Sod	-2749
▁cru	-2750
▁fol	-2751
ently	-2752
iuers	-2753
▁Amen	-2754
▁Haue	-2755
▁Herod	-2756
▁Satan	-2757
▁Zebul	-2758
▁faint	-2759
▁fruit	-2760
▁goate	-2761
▁order	-2762
▁perfe	-2763
▁preua	-2764
▁shout	-2765
▁Script	-2766
▁altars	-2767
▁bought	-2768
▁drunken	-2769
▁stretch	-2770
▁continue	-2771
▁doctrine	-2772
▁inherite	-2773
▁trumpets	-2774
▁seruantes	-2775
▁shepheard	-2776
ubl	-2777
▁Gi	-2778
adok	-2779
aund	-2780
dden	-2781
gues	-2782
▁Doe	-2783
▁age	-2784
▁fur	-2785
▁lep	-2786
▁ven	-2787
imeon	-2788
▁conc	-2789
▁home	-2790
▁Napht	-2791
▁Sodom	-2792
▁Zadok	-2793
▁blewe	-2794
▁drewe	-2795
▁harlo	-2796
mightie	-2797
▁escape	-2798
▁garden	-2799
▁sudden	-2800
▁thrust	-2801
▁whence	-2802
▁iustice	-2803
▁sockets	-2804
▁spoyled	-2805
▁abundance	-2806
▁excelleth	-2807
▁habitation	-2808
▁interpretation	-2809
bel	-2810
eph	-2811
▁ap	-2812
beit	-2813
beon	-2814
pent	-2815
▁lye	-2816
ueene	-2817
▁Neth	-2818
▁crue	-2819
▁next	-2820
▁Amale	-2821
▁Elias	-2822
▁Ephod	-2823
▁Ester	-2824
▁Lords	-2825
▁deepe	-2826
andlest	-2827
▁Dauids	-2828
▁Iosiah	-2829
▁deceit	-2830
▁indign	-2831
▁purple	-2832
▁sorowe	-2833
▁speare	-2834
▁verely	-2835
▁Saintes	-2836
▁greatly	-2837
▁grounde	-2838
▁heareth	-2839
▁Iehoiada	-2840
▁compasse	-2841
▁sepulchre	-2842
▁slaughter	-2843
na	-2844
ele	-2845
iat	-2846
▁Ke	-2847
▁Ph	-2848
idon	-2849
mael	-2850
resh	-2851
▁six	-2852
▁tar	-2853
ament	-2854
arres	-2855
▁fier	-2856
▁lips	-2857
▁ming	-2858
▁Laban	-2859
▁actes	-2860
▁campe	-2861
▁innoc	-2862
▁snare	-2863
▁Amalek	-2864
▁Simeon	-2865
▁commit	-2866
▁deuide	-2867
▁palace	-2868
▁changed	-2869
▁rewarde	-2870
▁smitten	-2871
▁starres	-2872
▁willing	-2873
▁wonders	-2874
▁Naphtali	-2875
▁officers	-2876
▁reioyced	-2877
▁neighbours	-2878
▁rebellious	-2879
ilt	-2880
non	-2881
nts	-2882
ofe	-2883
▁Ko	-2884
▁Oh	-2885
secr	-2886
tham	-2887
uery	-2888
▁Had	-2889
▁lod	-2890
▁mil	-2891
aries	-2892
chish	-2893
▁Beer	-2894
▁Noah	-2895
▁auth	-2896
▁forb	-2897
▁hang	-2898
▁imag	-2899
▁ioye	-2900
▁pest	-2901
▁Altar	-2902
▁Euery	-2903
▁Haman	-2904
▁endes	-2905
▁faire	-2906
▁maide	-2907
▁naked	-2908
▁ouerc	-2909
▁risen	-2910
▁roote	-2911
▁silke	-2912
▁subie	-2913
▁became	-2914
▁beyond	-2915
▁coulde	-2916
▁number	-2917
▁rammes	-2918
▁signes	-2919
▁sprink	-2920
▁townes	-2921
▁Azariah	-2922
▁behinde	-2923
▁burning	-2924
▁consecr	-2925
▁consume	-2926
▁touched	-2927
▁Pharaohs	-2928
▁Rehoboam	-2929
▁houshold	-2930
▁suddenly	-2931
▁indignation	-2932
ass	-2933
had	-2934
irm	-2935
och	-2936
▁Ai	-2937
avid	-2938
ible	-2939
▁Bal	-2940
▁Kir	-2941
▁Tim	-2942
▁inf	-2943
▁shi	-2944
▁vse	-2945
ldest	-2946
▁cruc	-2947
▁disp	-2948
▁fill	-2949
▁purp	-2950
▁step	-2951
oritie	-2952
▁David	-2953
▁Ioash	-2954
▁abhor	-2955
▁darke	-2956
▁domin	-2957
▁kings	-2958
▁milke	-2959
▁sacke	-2960
▁sorow	-2961
▁spare	-2962
▁teeth	-2963
▁vncle	-2964
▁vntil	-2965
▁Nathan	-2966
▁Saying	-2967
▁abound	-2968
▁angrie	-2969
▁camels	-2970
▁Ishmael	-2971
▁captiue	-2972
▁charged	-2973
▁counted	-2974
▁escaped	-2975
▁masters	-2976
▁mingled	-2977
▁parable	-2978
▁sinners	-2979
▁talents	-2980
▁forgiuen	-2981
▁grieuous	-2982
▁seruaunt	-2983
▁witnesses	-2984
hes	-2985
▁er	-2986
▁ass	-2987
▁bot	-2988
▁met	-2989
▁too	-2990
▁Prin	-2991
▁sixt	-2992
geance	-2993
ilence	-2994
ntaine	-2995
▁Remem	-2996
▁board	-2997
▁dayly	-2998
▁drawe	-2999
▁shake	-3000
▁tenne	-3001
▁wilde	-3002
▁accomp	-3003
▁breath	-3004
▁corner	-3005
▁either	-3006
▁eldest	-3007
▁shield	-3008
▁sworne	-3009
▁beautie	-3010
▁persons	-3011
▁forgotten	-3012
▁fornication	-3013
bus	-3014
gal	-3015
ias	-3016
omm	-3017
▁gu	-3018
▁ign	-3019
▁kis	-3020
▁pun	-3021
▁spe	-3022
▁wid	-3023
ceiue	-3024
soone	-3025
yther	-3026
▁Izre	-3027
▁Pray	-3028
▁chan	-3029
▁eter	-3030
▁quic	-3031
▁salt	-3032
▁stir	-3033
▁thre	-3034
ouered	-3035
teenth	-3036
▁Their	-3037
▁heale	-3038
▁ignor	-3039
▁tempt	-3040
▁Gibeah	-3041
▁Kohath	-3042
▁cubite	-3043
▁cursed	-3044
▁ioyned	-3045
▁lifted	-3046
▁postes	-3047
▁proude	-3048
▁washed	-3049
▁wheate	-3050
▁beseech	-3051
▁cloudes	-3052
▁content	-3053
▁heartes	-3054
▁ouerthr	-3055
▁pleased	-3056
▁thornes	-3057
urrection	-3058
▁Remember	-3059
▁finished	-3060
▁gouernour	-3061
▁satisfied	-3062
ircumcision	-3063
▁authoritie	-3064
▁pestilence	-3065
▁Notwithstanding	-3066
bon	-3067
son	-3068
sue	-3069
▁Te	-3070
nest	-3071
oura	-3072
udea	-3073
▁Gre	-3074
▁Nab	-3075
▁old	-3076
▁sta	-3077
arlet	-3078
erued	-3079
▁cary	-3080
▁fewe	-3081
▁shed	-3082
▁Asher	-3083
▁Iudea	-3084
▁Phili	-3085
▁besie	-3086
▁pride	-3087
▁raise	-3088
▁ramme	-3089
▁spred	-3090
▁stead	-3091
▁vaile	-3092
▁weepe	-3093
▁Izreel	-3094
▁afraid	-3095
▁maiest	-3096
▁Zebulun	-3097
▁created	-3098
▁seconde	-3099
▁redeemed	-3100
▁suffered	-3101
▁wickedly	-3102
▁Concerning	-3103
▁instruction	-3104
▁Neuerthelesse	-3105
▁Ez	-3106
▁Wo	-3107
▁dr	-3108
hash	-3109
inth	-3110
onic	-3111
ower	-3112
roue	-3113
▁Ged	-3114
▁One	-3115
▁ded	-3116
▁equ	-3117
▁occ	-3118
ideon	-3119
quire	-3120
▁Mine	-3121
▁empt	-3122
▁hard	-3123
▁shar	-3124
▁Iebus	-3125
▁bodie	-3126
▁liber	-3127
▁liues	-3128
▁manif	-3129
▁shine	-3130
▁Gibeon	-3131
▁Gideon	-3132
▁Saints	-3133
▁beaten	-3134
▁defile	-3135
▁delite	-3136
▁diuers	-3137
▁grauen	-3138
▁greene	-3139
▁slayne	-3140
▁spread	-3141
▁woorde	-3142
▁nombred	-3143
▁skarlet	-3144
▁measured	-3145
▁afflicted	-3146
▁excellent	-3147
▁glorified	-3148
dra	-3149
ead	-3150
has	-3151
lay	-3152
idue	-3153
iram	-3154
▁Bel	-3155
▁Whi	-3156
▁fay	-3157
▁sim	-3158
aking	-3159
lehem	-3160
rible	-3161
teine	-3162
▁Gers	-3163
▁Make	-3164
▁orde	-3165
▁sell	-3166
▁viol	-3167
hariah	-3168
▁Asaph	-3169
▁Shime	-3170
▁afray	-3171
▁foode	-3172
▁lying	-3173
▁moone	-3174
▁moued	-3175
▁rings	-3176
▁sides	-3177
▁voice	-3178
▁yeres	-3179
▁fooles	-3180
▁giftes	-3181
▁perfor	-3182
▁sealed	-3183
▁besides	-3184
▁corners	-3185
▁execute	-3186
▁keepeth	-3187
▁residue	-3188
▁scatter	-3189
▁astonied	-3190
▁afterward	-3191
▁compassed	-3192
▁iustified	-3193
▁possessed	-3194
▁vncircumcised	-3195
ket	-3196
lah	-3197
nen	-3198
▁ol	-3199
▁bos	-3200
▁due	-3201
iteth	-3202
▁meat	-3203
▁sole	-3204
mediat	-3205
▁Balak	-3206
▁couet	-3207
▁holie	-3208
▁earely	-3209
▁harden	-3210
▁linnen	-3211
▁partes	-3212
▁accompl	-3213
▁fieldes	-3214
▁whereby	-3215
▁woorkes	-3216
▁captiues	-3217
▁commaund	-3218
▁dominion	-3219
▁eternall	-3220
▁immediat	-3221
▁separate	-3222
▁trauaile	-3223
▁Afterward	-3224
▁assemblie	-3225
▁comforted	-3226
▁conceiued	-3227
▁vengeance	-3228
uge	-3229
▁On	-3230
▁ce	-3231
iiah	-3232
▁Eth	-3233
▁Lot	-3234
▁Pra	-3235
▁ben	-3236
▁bye	-3237
▁mel	-3238
▁nat	-3239
▁rob	-3240
aziah	-3241
erers	-3242
sheba	-3243
▁Carm	-3244
▁Holy	-3245
▁auen	-3246
▁fing	-3247
▁murm	-3248
▁proc	-3249
edient	-3250
▁Iames	-3251
▁Ishai	-3252
▁Rahel	-3253
▁early	-3254
▁laide	-3255
▁lyeth	-3256
▁ranne	-3257
▁smoke	-3258
▁Shimei	-3259
▁blacke	-3260
▁readie	-3261
▁refuge	-3262
▁strife	-3263
▁talked	-3264
▁teache	-3265
▁arrowes	-3266
▁behelde	-3267
▁deceiue	-3268
▁restore	-3269
▁turneth	-3270
▁deceiued	-3271
▁rebelled	-3272
▁treasure	-3273
▁Almightie	-3274
▁increased	-3275
▁prophecied	-3276
gre	-3277
iet	-3278
▁yn	-3279
eles	-3280
gges	-3281
iath	-3282
iers	-3283
othe	-3284
pell	-3285
tome	-3286
uent	-3287
unto	-3288
▁hew	-3289
▁imp	-3290
cloth	-3291
ittim	-3292
rosie	-3293
▁Mesh	-3294
▁asce	-3295
▁drie	-3296
▁lang	-3297
▁play	-3298
▁Riuer	-3299
▁ashes	-3300
▁goest	-3301
▁lawes	-3302
▁proce	-3303
▁waies	-3304
▁Gilgal	-3305
▁decree	-3306
▁eleuen	-3307
▁forest	-3308
▁widowe	-3309
▁Benaiah	-3310
▁Kiriath	-3311
▁forgiue	-3312
▁neyther	-3313
▁perfect	-3314
▁refused	-3315
▁silence	-3316
▁streete	-3317
▁weeping	-3318
▁woordes	-3319
▁writing	-3320
▁anointed	-3321
▁innocent	-3322
▁leprosie	-3323
▁Synagogue	-3324
▁appoynted	-3325
▁receiueth	-3326
▁resurrection	-3327
gn	-3328
yd	-3329
onc	-3330
rah	-3331
sac	-3332
zar	-3333
enes	-3334
ware	-3335
▁Hor	-3336
▁Sal	-3337
▁ban	-3338
▁kid	-3339
hanan	-3340
rosse	-3341
▁Seir	-3342
▁dist	-3343
teined	-3344
▁bride	-3345
▁calfe	-3346
▁chast	-3347
▁foule	-3348
▁issue	-3349
▁mayde	-3350
▁mirac	-3351
▁piece	-3352
▁armour	-3353
▁cleaue	-3354
▁forbid	-3355
▁hencef	-3356
▁humble	-3357
▁reason	-3358
▁reconc	-3359
▁saieth	-3360
▁counsel	-3361
▁serpent	-3362
▁walketh	-3363
▁Shemaiah	-3364
▁companie	-3365
▁preserue	-3366
andlesticke	-3367
▁circumcised	-3368
And	-3369
mah	-3370
pah	-3371
adan	-3372
aded	-3373
ging	-3374
hort	-3375
iced	-3376
lied	-3377
otes	-3378
ting	-3379
▁Zec	-3380
▁fel	-3381
▁lau	-3382
▁new	-3383
ailes	-3384
▁Gath	-3385
▁Gods	-3386
▁Hast	-3387
▁Hesh	-3388
▁hell	-3389
▁magn	-3390
sachar	-3391
▁binde	-3392
▁canst	-3393
▁chuse	-3394
▁short	-3395
ishment	-3396
kenesse	-3397
onicles	-3398
▁Merari	-3399
▁Praise	-3400
▁bosome	-3401
▁breast	-3402
▁concub	-3403
▁deuill	-3404
▁rising	-3405
▁tribul	-3406
▁Amaziah	-3407
▁beneath	-3408
▁humbled	-3409
▁perfite	-3410
▁Issachar	-3411
▁besought	-3412
▁manifest	-3413
▁oblation	-3414
▁prouoked	-3415
▁Zechariah	-3416
▁beleeueth	-3417
▁Chronicles	-3418
▁tabernacle	-3419
▁aduersaries	-3420
▁established	-3421
ocr	-3422
▁ca	-3423
aleb	-3424
▁Are	-3425
▁Hag	-3426
▁Ied	-3427
▁iel	-3428
▁kin	-3429
▁tra	-3430
▁wel	-3431
▁win	-3432
antly	-3433
▁Iesh	-3434
▁nour	-3435
enance	-3436
enesse	-3437
▁Ephah	-3438
▁Marie	-3439
▁chose	-3440
▁loose	-3441
▁quiet	-3442
▁wrong	-3443
▁Hamath	-3444
▁anoynt	-3445
▁bright	-3446
▁course	-3447
▁digged	-3448
▁grapes	-3449
▁harlot	-3450
▁ielous	-3451
▁lampes	-3452
▁regard	-3453
▁search	-3454
▁shekel	-3455
▁staffe	-3456
▁Heshbon	-3457
▁assoone	-3458
▁entring	-3459
▁planted	-3460
▁prouoke	-3461
▁redeeme	-3462
▁tribute	-3463
▁vnclean	-3464
▁shoulder	-3465
▁terrible	-3466
▁toucheth	-3467
▁crucified	-3468
ker	-3469
cing	-3470
okes	-3471
pect	-3472
pocr	-3473
ueth	-3474
▁Iab	-3475
▁Put	-3476
▁enu	-3477
▁fre	-3478
▁hol	-3479
cient	-3480
iment	-3481
iseth	-3482
owing	-3483
ursed	-3484
▁drag	-3485
▁sowe	-3486
▁tith	-3487
▁Caleb	-3488
▁Korah	-3489
▁Sarah	-3490
▁Sihon	-3491
▁angry	-3492
▁carke	-3493
▁deale	-3494
▁flame	-3495
▁goods	-3496
▁heape	-3497
▁heate	-3498
▁horne	-3499
▁males	-3500
▁pitch	-3501
▁riche	-3502
▁sould	-3503
▁suppl	-3504
▁toppe	-3505
▁vexed	-3506
▁buryed	-3507
▁exhort	-3508
▁hanged	-3509
▁heauie	-3510
▁others	-3511
▁Ahaziah	-3512
▁precept	-3513
▁purpose	-3514
▁pursued	-3515
▁rebuked	-3516
▁require	-3517
▁sitteth	-3518
▁tongues	-3519
▁Churches	-3520
▁anoynted	-3521
▁confesse	-3522
▁measures	-3523
▁Iehoiakim	-3524
▁continued	-3525
▁ordinance	-3526
▁remaineth	-3527
ael	-3528
oll	-3529
tah	-3530
▁Me	-3531
unne	-3532
▁Kad	-3533
▁Sau	-3534
▁dro	-3535
▁els	-3536
▁fed	-3537
▁int	-3538
▁med	-3539
▁pay	-3540
▁sum	-3541
icate	-3542
ullam	-3543
under	-3544
▁Adon	-3545
▁Duke	-3546
▁High	-3547
▁Matt	-3548
▁Pers	-3549
▁best	-3550
▁hony	-3551
▁pron	-3552
▁stay	-3553
▁stub	-3554
▁subd	-3555
▁Turne	-3556
▁apart	-3557
▁lyons	-3558
▁recom	-3559
▁waxed	-3560
▁buylde	-3561
▁cattel	-3562
▁girded	-3563
▁loosed	-3564
▁skinne	-3565
▁whiles	-3566
▁Sauiour	-3567
▁raiment	-3568
▁moreouer	-3569
▁patience	-3570
▁fortified	-3571
▁testimonies	-3572
uah	-3573
ilah	-3574
raft	-3575
▁Ces	-3576
fully	-3577
rfore	-3578
▁Ebre	-3579
▁Obed	-3580
▁appe	-3581
▁caue	-3582
▁clay	-3583
▁clen	-3584
▁doth	-3585
▁lowe	-3586
▁male	-3587
▁molt	-3588
▁Greci	-3589
▁Sinai	-3590
▁coura	-3591
▁fatte	-3592
▁tents	-3593
▁Samson	-3594
▁appare	-3595
▁armies	-3596
▁caught	-3597
▁didest	-3598
▁emptie	-3599
▁fellow	-3600
▁latter	-3601
▁mooued	-3602
▁perpet	-3603
▁teares	-3604
▁tentes	-3605
▁alwayes	-3606
▁bondage	-3607
▁conside	-3608
▁letters	-3609
▁mercies	-3610
▁pronoun	-3611
▁seeketh	-3612
▁steward	-3613
▁thereby	-3614
▁Hittites	-3615
▁Testimon	-3616
▁ordeined	-3617
▁restored	-3618
▁standing	-3619
▁therfore	-3620
▁messenger	-3621
cie	-3622
der	-3623
▁Ba	-3624
▁Do	-3625
▁aw	-3626
know	-3627
race	-3628
term	-3629
that	-3630
upon	-3631
▁Did	-3632
▁Hil	-3633
▁Ken	-3634
▁Mou	-3635
▁Whe	-3636
▁bad	-3637
▁boy	-3638
▁mad	-3639
adiah	-3640
▁Leah	-3641
▁Sham	-3642
▁lost	-3643
erfore	-3644
mbling	-3645
▁Shilo	-3646
▁brest	-3647
▁encre	-3648
▁marke	-3649
▁murth	-3650
▁palme	-3651
▁price	-3652
▁ceased	-3653
▁determ	-3654
▁fierce	-3655
▁hilles	-3656
▁learne	-3657
▁louing	-3658
▁molten	-3659
▁report	-3660
▁tables	-3661
▁ynough	-3662
▁Princes	-3663
▁appoint	-3664
▁courage	-3665
▁porters	-3666
▁trusted	-3667
▁condemne	-3668
▁euermore	-3669
▁recompen	-3670
▁wouldest	-3671
▁inhabited	-3672
▁ministred	-3673
▁twentieth	-3674
▁vineyarde	-3675
bt	-3676
gr	-3677
nu	-3678
dle	-3679
hib	-3680
ont	-3681
rib	-3682
zeb	-3683
▁Su	-3684
▁cu	-3685
asho	-3686
erer	-3687
gran	-3688
head	-3689
orie	-3690
tten	-3691
▁Del	-3692
▁Tar	-3693
▁ast	-3694
▁bus	-3695
▁cus	-3696
▁exp	-3697
areth	-3698
ilous	-3699
▁dewe	-3700
▁line	-3701
▁pome	-3702
▁wand	-3703
▁Iudas	-3704
▁Ramah	-3705
▁Sauls	-3706
▁Zidon	-3707
▁disob	-3708
▁doing	-3709
▁ninth	-3710
▁reede	-3711
▁sakes	-3712
▁worme	-3713
▁wroth	-3714
▁Carmel	-3715
▁bodies	-3716
▁broade	-3717
▁hypocr	-3718
▁letter	-3719
▁refuse	-3720
▁sounde	-3721
▁treade	-3722
▁despise	-3723
▁hearing	-3724
▁profite	-3725
▁spirits	-3726
▁wheeles	-3727
▁wounded	-3728
▁Eastward	-3729
▁begotten	-3730
▁brothers	-3731
▁offended	-3732
▁pomegran	-3733
▁reproche	-3734
▁reueiled	-3735
▁touching	-3736
▁Philistim	-3737
▁adulterie	-3738
▁destroied	-3739
▁multiplie	-3740
▁prisoners	-3741
▁therewith	-3742
▁thousands	-3743
▁Testimonie	-3744
▁multiplied	-3745
▁countenance	-3746
▁fatherlesse	-3747
ni	-3748
kam	-3749
pit	-3750
rof	-3751
tho	-3752
ants	-3753
arge	-3754
atch	-3755
cion	-3756
kers	-3757
leth	-3758
onia	-3759
phan	-3760
▁Mar	-3761
▁Our	-3762
▁Ser	-3763
▁col	-3764
auest	-3765
▁Here	-3766
▁Mach	-3767
▁Rebe	-3768
▁crye	-3769
▁layd	-3770
▁lies	-3771
▁temp	-3772
▁vowe	-3773
▁weap	-3774
idence	-3775
nation	-3776
▁desce	-3777
▁kinde	-3778
▁knees	-3779
▁oliue	-3780
▁solem	-3781
▁space	-3782
▁towne	-3783
▁towre	-3784
beloued	-3785
▁Abisha	-3786
▁bandes	-3787
▁clense	-3788
▁common	-3789
▁confir	-3790
▁disple	-3791
▁formed	-3792
▁nought	-3793
▁plucke	-3794
▁Hilkiah	-3795
▁Howbeit	-3796
▁Shittim	-3797
▁company	-3798
▁members	-3799
▁palaces	-3800
▁singers	-3801
▁tremble	-3802
▁widowes	-3803
▁Gedaliah	-3804
▁Sabbaths	-3805
▁ouercome	-3806
▁testifie	-3807
▁Scripture	-3808
▁curtaines	-3809
▁goodnesse	-3810
▁oppressed	-3811
▁diligently	-3812
▁exceedingly	-3813
▁transgressed	-3814
era	-3815
ler	-3816
pha	-3817
phe	-3818
say	-3819
abas	-3820
eene	-3821
iall	-3822
ship	-3823
urie	-3824
▁Amm	-3825
▁Iac	-3826
▁Lam	-3827
▁Mal	-3828
▁Mes	-3829
▁Nay	-3830
▁Par	-3831
▁bid	-3832
▁che	-3833
▁reu	-3834
▁tid	-3835
athar	-3836
▁Merc	-3837
▁laid	-3838
▁shad	-3839
▁sort	-3840
cience	-3841
escore	-3842
uerosh	-3843
▁Ahash	-3844
▁Sheba	-3845
▁Thine	-3846
▁afore	-3847
▁aside	-3848
▁buylt	-3849
▁folde	-3850
▁helde	-3851
▁herit	-3852
▁reape	-3853
▁wages	-3854
▁wound	-3855
ndersto	-3856
ompence	-3857
▁Aarons	-3858
▁Isaiah	-3859
▁Prayse	-3860
▁acknow	-3861
▁belong	-3862
▁bounde	-3863
▁bowels	-3864
▁change	-3865
▁gauest	-3866
▁heades	-3867
▁health	-3868
▁partak	-3869
▁yonger	-3870
▁builded	-3871
▁childre	-3872
▁flockes	-3873
▁lawfull	-3874
▁prophes	-3875
▁regarde	-3876
▁remoued	-3877
▁Abiathar	-3878
▁besieged	-3879
▁miracles	-3880
▁standeth	-3881
▁violence	-3882
▁vndersto	-3883
▁hearkened	-3884
▁willingly	-3885
▁determined	-3886
▁immediatly	-3887
▁marueilous	-3888
▁sackecloth	-3889
▁sacrificed	-3890
▁threescore	-3891
▁welbeloued	-3892
▁Ahashuerosh	-3893
▁straightway	-3894
▁tribulation	-3895
og	-3896
ani	-3897
iop	-3898
▁Ex	-3899
▁ie	-3900
anah	-3901
gell	-3902
quen	-3903
test	-3904
zzah	-3905
▁Aho	-3906
▁Gom	-3907
▁Hur	-3908
▁Iph	-3909
▁Mac	-3910
▁Tir	-3911
▁Wee	-3912
▁Zac	-3913
▁bud	-3914
▁dry	-3915
▁saf	-3916
epeth	-3917
sible	-3918
▁Elis	-3919
▁Know	-3920
▁Wilt	-3921
▁blew	-3922
▁bold	-3923
▁waxe	-3924
ashopp	-3925
essell	-3926
osheth	-3927
▁beene	-3928
▁belly	-3929
▁carie	-3930
▁depth	-3931
▁driue	-3932
▁harpe	-3933
▁paths	-3934
▁plate	-3935
▁praye	-3936
▁simil	-3937
▁summe	-3938
▁Ethiop	-3939
▁Ieshua	-3940
▁Shiloh	-3941
▁alread	-3942
▁comand	-3943
▁floods	-3944
▁former	-3945
▁iudges	-3946
▁meanes	-3947
▁shaken	-3948
▁Rebekah	-3949
▁Shaphan	-3950
▁calleth	-3951
▁chaines	-3952
▁fornace	-3953
▁passeth	-3954
▁plagues	-3955
▁praysed	-3956
▁shielde	-3957
▁solemne	-3958
▁subiect	-3959
▁tidings	-3960
▁vessell	-3961
▁worketh	-3962
▁disciple	-3963
▁oppresse	-3964
▁Iebusites	-3965
▁condemned	-3966
▁prouinces	-3967
▁souldiers	-3968
▁acceptable	-3969
▁recompence	-3970
▁testimonie	-3971
▁foundations	-3972
ds	-3973
▁Ge	-3974
asen	-3975
asha	-3976
deth	-3977
uage	-3978
yeth	-3979
▁Ner	-3980
▁Nun	-3981
▁Woe	-3982
▁aud	-3983
▁fir	-3984
▁vit	-3985
after	-3986
nabas	-3987
▁Elam	-3988
▁Iewe	-3989
▁Kish	-3990
▁alto	-3991
▁aray	-3992
▁hote	-3993
▁mens	-3994
▁publ	-3995
▁remo	-3996
▁want	-3997
▁yles	-3998
edonia	-3999
inadab	-4000
▁armes	-4001
▁bough	-4002
▁haile	-4003
▁heaue	-4004
▁honie	-4005
▁laugh	-4006
▁lieth	-4007
▁tarie	-4008
▁Cursed	-4009
▁chapit	-4010
▁crying	-4011
▁desert	-4012
▁drunke	-4013
▁entrie	-4014
▁fishes	-4015
▁hateth	-4016
▁taried	-4017
▁beareth	-4018
▁sitting	-4019
▁thorowe	-4020
▁Barnabas	-4021
▁Hananiah	-4022
▁couetous	-4023
▁grashopp	-4024
▁hardened	-4025
▁language	-4026
▁libertie	-4027
▁repented	-4028
▁stablish	-4029
▁thoughts	-4030
▁windowes	-4031
▁Macedonia	-4032
▁appeareth	-4033
▁fearefull	-4034
▁separated	-4035
▁altogether	-4036
▁conscience	-4037
▁henceforth	-4038
▁strengthen	-4039
▁circumcision	-4040
▁supplication	-4041
▁transgressions	-4042
dd	-4043
oz	-4044
wo	-4045
aun	-4046
eem	-4047
log	-4048
▁od	-4049
owre	-4050
▁Ath	-4051
▁Esh	-4052
▁Nah	-4053
▁Naz	-4054
▁Rei	-4055
▁dim	-4056
▁mal	-4057
▁run	-4058
▁sic	-4059
iezer	-4060
ushan	-4061
▁Maac	-4062
▁Naam	-4063
▁dire	-4064
▁find	-4065
▁scri	-4066
chiefe	-4067
otheus	-4068
▁Iacob	-4069
▁Whose	-4070
▁commu	-4071
▁figge	-4072
▁grewe	-4073
▁guide	-4074
▁inner	-4075
▁pitie	-4076
▁rayne	-4077
▁reade	-4078
▁seate	-4079
▁seest	-4080
▁swall	-4081
▁visit	-4082
▁Angell	-4083
▁Iphtah	-4084
▁Persia	-4085
▁brasen	-4086
▁crosse	-4087
▁cruell	-4088
▁deedes	-4089
▁double	-4090
▁drawen	-4091
▁facion	-4092
▁floore	-4093
▁girdle	-4094
▁inward	-4095
▁sayest	-4096
▁suffic	-4097
▁thresh	-4098
▁woorke	-4099
▁Iehoram	-4100
▁abroade	-4101
▁friends	-4102
▁fulfill	-4103
▁mouthes	-4104
▁reueren	-4105
▁sorowes	-4106
▁worthie	-4107
▁Nazareth	-4108
▁heritage	-4109
▁performe	-4110
▁persecut	-4111
▁Timotheus	-4112
▁preaching	-4113
▁considered	-4114
▁desolation	-4115
▁stablished	-4116
▁inhabitantes	-4117
ty	-4118
ded	-4119
oah	-4120
▁Le	-4121
▁TH	-4122
cess	-4123
irle	-4124
ltie	-4125
rest	-4126
uiah	-4127
▁Hin	-4128
▁Pre	-4129
▁dog	-4130
▁eag	-4131
kened	-4132
pered	-4133
shish	-4134
usion	-4135
▁Adam	-4136
▁Tell	-4137
▁frow	-4138
▁kine	-4139
▁kins	-4140
▁lyes	-4141
▁only	-4142
▁quen	-4143
▁seas	-4144
▁whel	-4145
▁Keepe	-4146
▁Lambe	-4147
▁conte	-4148
▁contr	-4149
▁vowes	-4150
▁Kadesh	-4151
▁Michah	-4152
▁Ramoth	-4153
▁leauen	-4154
▁minded	-4155
▁sharpe	-4156
▁twaine	-4157
▁waited	-4158
▁whirle	-4159
ernacles	-4160
ications	-4161
▁Gershon	-4162
▁Shallum	-4163
▁causeth	-4164
▁clensed	-4165
▁commest	-4166
▁custome	-4167
▁falleth	-4168
▁folowed	-4169
▁knowing	-4170
▁respect	-4171
▁walking	-4172
▁Moabites	-4173
▁couereth	-4174
▁marchand	-4175
▁perished	-4176
▁preuaile	-4177
▁Ammonites	-4178
▁mischiefe	-4179
▁reioycing	-4180
▁thoughtes	-4181
▁beautifull	-4182
▁confidence	-4183
▁spirituall	-4184
hu	-4185
ili	-4186
may	-4187
ura	-4188
wed	-4189
▁Ob	-4190
arim	-4191
baal	-4192
erah	-4193
line	-4194
much	-4195
neth	-4196
rete	-4197
ries	-4198
shem	-4199
▁Acc	-4200
▁Ach	-4201
▁Ant	-4202
▁Ara	-4203
▁Hus	-4204
▁Lib	-4205
auing	-4206
hadad	-4207
rinke	-4208
taine	-4209
zziah	-4210
▁dise	-4211
▁lose	-4212
▁ment	-4213
▁oynt	-4214
▁priu	-4215
▁Names	-4216
▁birth	-4217
▁hired	-4218
▁store	-4219
▁worse	-4220
▁Baasha	-4221
▁Baruch	-4222
▁Leuite	-4223
▁esteem	-4224
▁graues	-4225
▁louers	-4226
▁makest	-4227
▁mighty	-4228
▁necess	-4229
▁odours	-4230
▁record	-4231
▁shoute	-4232
▁tender	-4233
▁wearie	-4234
▁Zeruiah	-4235
▁ancient	-4236
▁beyonde	-4237
▁forward	-4238
▁grieued	-4239
▁imagine	-4240
▁mention	-4241
▁prayers	-4242
▁shippes	-4243
▁tempest	-4244
▁tempted	-4245
▁thereto	-4246
▁whereon	-4247
ification	-4248
▁heauenly	-4249
▁fountaine	-4250
▁housholde	-4251
▁marchants	-4252
▁perceiued	-4253
▁persecute	-4254
▁preuailed	-4255
▁aduersarie	-4256
▁correction	-4257
▁gouernours	-4258
▁perpetuall	-4259
▁sufficient	-4260
▁vineyardes	-4261
▁disobedient	-4262
▁marchandise	-4263
▁prosperitie	-4264
▁Candlesticke	-4265
▁z	-4266
bar	-4267
ief	-4268
izz	-4269
mor	-4270
ual	-4271
▁Ek	-4272
abad	-4273
epha	-4274
mmer	-4275
nowe	-4276
▁Deb	-4277
▁Dep	-4278
▁Eun	-4279
▁Hiu	-4280
▁Tam	-4281
▁bac	-4282
▁cla	-4283
▁fet	-4284
▁moe	-4285
▁oft	-4286
▁pal	-4287
▁sad	-4288
▁sie	-4289
▁til	-4290
▁zea	-4291
grees	-4292
iding	-4293
ireth	-4294
ndeth	-4295
oking	-4296
▁Ezra	-4297
▁Shim	-4298
▁drew	-4299
▁quar	-4300
▁spar	-4301
▁tary	-4302
▁tast	-4303
aseiah	-4304
inehas	-4305
▁Amnon	-4306
▁Arnon	-4307
▁Nebat	-4308
▁blowe	-4309
▁consp	-4310
▁denie	-4311
▁forso	-4312
▁occup	-4313
▁sowen	-4314
▁vines	-4315
ocation	-4316
▁camest	-4317
▁comely	-4318
▁contem	-4319
▁gotten	-4320
▁landes	-4321
▁loaues	-4322
▁therof	-4323
▁truely	-4324
iliation	-4325
thermore	-4326
▁Abishai	-4327
▁Iohanan	-4328
▁Reioyce	-4329
▁abhorre	-4330
▁appoynt	-4331
▁consent	-4332
▁degrees	-4333
▁feastes	-4334
▁ioyfull	-4335
▁ouerlay	-4336
▁pollute	-4337
▁putteth	-4338
▁shepher	-4339
▁vnright	-4340
▁Phinehas	-4341
▁commande	-4342
▁perceiue	-4343
▁prouince	-4344
▁secretly	-4345
▁Meshullam	-4346
▁Testament	-4347
▁confusion	-4348
▁shoulders	-4349
▁companions	-4350
▁corruption	-4351
▁vnderstande	-4352
▁vnrighteous	-4353
▁accomplished	-4354
▁reconciliation	-4355
cks	-4356
ity	-4357
peh	-4358
ahaz	-4359
ally	-4360
erbe	-4361
esus	-4362
phel	-4363
phir	-4364
rels	-4365
▁Ber	-4366
▁Hel	-4367
▁dam	-4368
▁lad	-4369
▁nay	-4370
▁tum	-4371
▁val	-4372
arius	-4373
encie	-4374
▁Ashd	-4375
▁Publ	-4376
▁Sing	-4377
▁Will	-4378
▁eunu	-4379
▁pear	-4380
▁rams	-4381
▁whor	-4382
ainely	-4383
ifying	-4384
ommeth	-4385
▁Cesar	-4386
▁Ekron	-4387
▁Grace	-4388
▁Zerah	-4389
▁craft	-4390
▁deuil	-4391
▁fault	-4392
▁force	-4393
▁forme	-4394
▁large	-4395
▁morow	-4396
▁quest	-4397
▁remay	-4398
▁seeme	-4399
▁thigh	-4400
▁waues	-4401
shemesh	-4402
▁Darius	-4403
▁Hazael	-4404
▁Iabesh	-4405
▁Iotham	-4406
▁Mizpah	-4407
▁Mizpeh	-4408
▁Seeing	-4409
▁astray	-4410
▁basket	-4411
▁birdes	-4412
▁cordes	-4413
▁finger	-4414
▁infirm	-4415
▁kissed	-4416
▁mindes	-4417
▁mocked	-4418
▁profit	-4419
▁resist	-4420
▁thanke	-4421
▁tumult	-4422
▁wasted	-4423
▁Lachish	-4424
▁boardes	-4425
▁conuers	-4426
▁handmay	-4427
▁proceed	-4428
▁prolong	-4429
▁rayment	-4430
▁reproch	-4431
▁request	-4432
▁singing	-4433
▁visited	-4434
▁withdra	-4435
▁Maaseiah	-4436
▁Michaiah	-4437
▁accepted	-4438
▁bullocks	-4439
▁crueltie	-4440
▁dedicate	-4441
▁executed	-4442
▁precepts	-4443
▁sprinkle	-4444
▁According	-4445
▁kindnesse	-4446
▁marueiled	-4447
▁reuerence	-4448
▁vprightly	-4449
▁Afterwarde	-4450
▁recompense	-4451
▁similitude	-4452
▁transgresse	-4453
ES	-4454
fl	-4455
ug	-4456
add	-4457
end	-4458
erd	-4459
lth	-4460
ppa	-4461
sol	-4462
tle	-4463
yre	-4464
▁Zo	-4465
enty	-4466
ires	-4467
▁Iub	-4468
▁Loe	-4469
▁Sis	-4470
▁fem	-4471
▁mus	-4472
▁som	-4473
▁vnp	-4474
ables	-4475
chiah	-4476
ileth	-4477
immon	-4478
ining	-4479
kenes	-4480
udent	-4481
▁Amas	-4482
▁Boaz	-4483
▁Cast	-4484
▁Whom	-4485
▁bury	-4486
▁coup	-4487
▁heap	-4488
▁vsed	-4489
sayers	-4490
▁Cyrus	-4491
▁Hiram	-4492
▁Ioram	-4493
▁Peace	-4494
▁admon	-4495
▁dried	-4496
▁dryed	-4497
▁elder	-4498
▁ended	-4499
▁lacke	-4500
▁meane	-4501
▁mocke	-4502
▁porch	-4503
▁quick	-4504
▁scour	-4505
▁seale	-4506
▁steps	-4507
▁vpper	-4508
izzites	-4509
▁Ashdod	-4510
▁Machir	-4511
▁Tables	-4512
▁abroad	-4513
▁afrayd	-4514
▁amased	-4515
▁anoint	-4516
▁beeues	-4517
▁betray	-4518
▁driuen	-4519
▁female	-4520
▁figges	-4521
▁groues	-4522
▁hunger	-4523
▁keeper	-4524
▁needie	-4525
▁poster	-4526
▁procla	-4527
▁render	-4528
▁salute	-4529
▁shadow	-4530
▁tithes	-4531
▁Iosephs	-4532
▁Shushan	-4533
▁distrib	-4534
▁dreames	-4535
▁feareth	-4536
▁killeth	-4537
▁ninetie	-4538
▁nombers	-4539
▁oppress	-4540
▁sisters	-4541
▁virgine	-4542
▁weapons	-4543
▁Iehoahaz	-4544
▁Tarshish	-4545
▁audience	-4546
▁creeping	-4547
▁curtaine	-4548
▁forsooke	-4549
▁required	-4550
▁establish	-4551
▁Amalekites	-4552
▁Midianites	-4553
▁Perizzites	-4554
▁Synagogues	-4555
▁consecrate	-4556
▁discouered	-4557
▁transgress	-4558
▁deliuerance	-4559
▁lamentation	-4560
▁pomegranates	-4561
ba	-4562
go	-4563
uz	-4564
ve	-4565
cle	-4566
idd	-4567
iff	-4568
met	-4569
omi	-4570
▁Og	-4571
▁Om	-4572
bles	-4573
isme	-4574
oted	-4575
umme	-4576
▁Mah	-4577
▁Men	-4578
▁cun	-4579
▁emb	-4580
▁tor	-4581
▁voy	-4582
grome	-4583
ranke	-4584
▁Bath	-4585
▁Coun	-4586
▁Rabb	-4587
▁Sheb	-4588
▁beha	-4589
▁defe	-4590
▁dish	-4591
▁doue	-4592
▁grow	-4593
▁idol	-4594
▁trod	-4595
▁wing	-4596
▁Iezeb	-4597
▁Knowe	-4598
▁Nabal	-4599
▁Tamar	-4600
▁boast	-4601
▁broad	-4602
▁buyld	-4603
▁cuppe	-4604
▁deare	-4605
▁dyeth	-4606
▁elect	-4607
▁firre	-4608
▁iewel	-4609
▁lodge	-4610
▁proue	-4611
▁roare	-4612
▁snowe	-4613
▁swell	-4614
▁swift	-4615
▁Iubile	-4616
▁Iudges	-4617
▁Naboth	-4618
▁Public	-4619
▁breach	-4620
▁eating	-4621
▁freely	-4622
▁graunt	-4623
▁griefe	-4624
▁hasted	-4625
▁kinred	-4626
▁peruer	-4627
▁shippe	-4628
▁sommer	-4629
▁stoned	-4630
▁thicke	-4631
▁twenty	-4632
▁wealth	-4633
▁Hearken	-4634
▁boughes	-4635
▁cunning	-4636
▁equitie	-4637
▁pasture	-4638
▁quickly	-4639
▁sinneth	-4640
▁skinnes	-4641
▁visions	-4642
▁Ethiopia	-4643
▁apparell	-4644
▁building	-4645
▁forehead	-4646
▁withered	-4647
▁Mountaine	-4648
▁concubine	-4649
▁eighteene	-4650
▁lightning	-4651
▁Scriptures	-4652
▁afterwarde	-4653
▁bridegrome	-4654
▁fellowship	-4655
▁posteritie	-4656
ix	-4657
kon	-4658
ley	-4659
rhe	-4660
tha	-4661
zah	-4662
ably	-4663
aily	-4664
imed	-4665
ukes	-4666
▁Elk	-4667
▁Has	-4668
▁Ked	-4669
▁Rab	-4670
▁Sil	-4671
▁Tob	-4672
▁det	-4673
▁hed	-4674
▁low	-4675
▁myr	-4676
▁ren	-4677
babel	-4678
entur	-4679
ffect	-4680
ichri	-4681
imoth	-4682
louth	-4683
uring	-4684
▁Asia	-4685
▁Aske	-4686
▁Seer	-4687
▁conu	-4688
▁fame	-4689
▁gall	-4690
▁hall	-4691
▁lion	-4692
▁rage	-4693
▁safe	-4694
▁sand	-4695
▁sigh	-4696
▁vile	-4697
asmuch	-4698
isheth	-4699
mption	-4700
thamar	-4701
though	-4702
▁Azzah	-4703
▁Counc	-4704
▁Eliab	-4705
▁Naomi	-4706
▁Teman	-4707
▁Zerub	-4708
▁appro	-4709
▁armed	-4710
▁bolde	-4711
▁cakes	-4712
▁daily	-4713
▁garde	-4714
▁kisse	-4715
▁lesse	-4716
▁lower	-4717
▁medit	-4718
▁memor	-4719
▁noone	-4720
▁roule	-4721
▁sorie	-4722
▁thres	-4723
ination	-4724
▁Achish	-4725
▁Centur	-4726
▁Kinges	-4727
▁barren	-4728
▁calues	-4729
▁conuer	-4730
▁direct	-4731
▁effect	-4732
▁endure	-4733
▁equall	-4734
▁euerie	-4735
▁giuing	-4736
▁goodly	-4737
▁handma	-4738
▁herbes	-4739
▁iewels	-4740
▁maides	-4741
▁pledge	-4742
▁sinner	-4743
▁timber	-4744
▁touche	-4745
▁troden	-4746
▁twined	-4747
▁vtmost	-4748
▁windes	-4749
▁Ebrewes	-4750
▁Elkanah	-4751
▁Hittite	-4752
▁Iezebel	-4753
▁Ithamar	-4754
▁beganne	-4755
▁disease	-4756
▁hearted	-4757
▁inquire	-4758
▁matters	-4759
▁shortly	-4760
▁steppes	-4761
▁trespas	-4762
▁whirlew	-4763
▁whoring	-4764
▁Grecians	-4765
▁Salomons	-4766
▁baptisme	-4767
▁drinking	-4768
▁dwellest	-4769
▁encrease	-4770
▁friendes	-4771
▁glorifie	-4772
▁murmured	-4773
▁oyntment	-4774
▁parables	-4775
▁reserued	-4776
▁stewarde	-4777
▁Northside	-4778
▁hundreths	-4779
▁ministers	-4780
▁murtherer	-4781
▁partakers	-4782
▁prospered	-4783
▁Zerubbabel	-4784
▁heauinesse	-4785
▁hypocrites	-4786
▁punishment	-4787
▁redemption	-4788
▁habitations	-4789
▁ouerthrowen	-4790
pr	-4791
aac	-4792
rew	-4793
aias	-4794
chin	-4795
▁Hem	-4796
▁Hez	-4797
▁Mag	-4798
▁Ret	-4799
▁Zim	-4800
▁pen	-4801
▁soi	-4802
asion	-4803
istle	-4804
onour	-4805
pheth	-4806
▁Arab	-4807
▁Eunu	-4808
▁Hath	-4809
▁Ioel	-4810
▁Shel	-4811
▁flie	-4812
▁lame	-4813
▁laye	-4814
▁nest	-4815
▁ride	-4816
▁scor	-4817
▁stor	-4818
habiah	-4819
▁Doeth	-4820
▁Isaac	-4821
▁Iudge	-4822
▁Looke	-4823
▁Nadab	-4824
▁Table	-4825
▁beard	-4826
▁besto	-4827
▁broyd	-4828
▁burie	-4829
▁chief	-4830
▁doubt	-4831
▁dumme	-4832
▁idole	-4833
▁parte	-4834
▁persw	-4835
▁rodde	-4836
▁sucke	-4837
▁thund	-4838
▁token	-4839
▁warde	-4840
▁weary	-4841
edience	-4842
ntaines	-4843
ourable	-4844
▁Abiiah	-4845
▁Ahikam	-4846
▁Before	-4847
▁Depart	-4848
▁Esaias	-4849
▁denied	-4850
▁dragon	-4851
▁dranke	-4852
▁harpes	-4853
▁honest	-4854
▁inuent	-4855
▁making	-4856
▁rockes	-4857
▁slouth	-4858
▁speach	-4859
▁stayed	-4860
▁steale	-4861
▁stirre	-4862
▁striue	-4863
▁Deliuer	-4864
▁Hiuites	-4865
▁Obadiah	-4866
▁Returne	-4867
▁afrayde	-4868
▁consult	-4869
▁defence	-4870
▁froward	-4871
▁looketh	-4872
▁offence	-4873
▁openeth	-4874
▁stirred	-4875
▁subdued	-4876
▁swordes	-4877
▁workers	-4878
▁Abrahams	-4879
▁husbands	-4880
▁ignorant	-4881
▁maiestie	-4882
▁soiourne	-4883
▁streight	-4884
▁Nethaniah	-4885
▁conspired	-4886
▁gathereth	-4887
▁gladnesse	-4888
▁magnified	-4889
▁prophesie	-4890
▁reioyceth	-4891
▁whoredome	-4892
▁deceitfull	-4893
▁ministerie	-4894
▁persecuted	-4895
▁repentance	-4896
▁subiection	-4897
▁wonderfull	-4898
▁filthinesse	-4899
▁condemnation	-4900
▁strengthened	-4901
▁vncleannesse	-4902
oa	-4903
alm	-4904
god	-4905
hud	-4906
kin	-4907
sam	-4908
who	-4909
▁Ly	-4910
▁Ol	-4911
▁cy	-4912
▁pi	-4913
ases	-4914
emen	-4915
fast	-4916
hama	-4917
ioch	-4918
itus	-4919
mell	-4920
neis	-4921
roth	-4922
what	-4923
▁Bil	-4924
▁Hen	-4925
▁Out	-4926
▁Rec	-4927
▁THE	-4928
▁Zib	-4929
▁dem	-4930
▁pac	-4931
▁roy	-4932
atiah	-4933
ccoth	-4934
iuest	-4935
ldron	-4936
ppeth	-4937
raine	-4938
▁Ahim	-4939
▁Amon	-4940
▁Dest	-4941
▁Eden	-4942
▁Many	-4943
▁Mich	-4944
▁cens	-4945
▁cost	-4946
▁exam	-4947
▁halt	-4948
▁hunt	-4949
▁mout	-4950
▁pare	-4951
▁stil	-4952
▁ware	-4953
alitie	-4954
arance	-4955
iochia	-4956
ission	-4957
pelled	-4958
▁Aholi	-4959
▁Hazor	-4960
▁Mesha	-4961
▁Onely	-4962
▁While	-4963
▁bands	-4964
▁conso	-4965
▁dealt	-4966
▁doues	-4967
▁enuie	-4968
▁noble	-4969
▁parts	-4970
▁poole	-4971
▁reuen	-4972
▁rowes	-4973
▁smell	-4974
▁tower	-4975
▁twise	-4976
▁vowed	-4977
▁wheat	-4978
linesse	-4979
ouertie	-4980
▁Gather	-4981
▁Sisera	-4982
▁accuse	-4983
▁afarre	-4984
▁bearer	-4985
▁cedars	-4986
▁deales	-4987
▁foures	-4988
▁hatred	-4989
▁holdes	-4990
▁myrrhe	-4991
▁natura	-4992
▁pleade	-4993
▁quicke	-4994
▁raysed	-4995
▁riseth	-4996
▁rootes	-4997
▁shoote	-4998
▁spring	-4999
▁womans	-5000
▁Apostle	-5001
▁Gomorah	-5002
▁Succoth	-5003
▁accused	-5004
▁bearing	-5005
▁courtes	-5006
▁deceite	-5007
▁enquire	-5008
▁falsely	-5009
▁findeth	-5010
▁gladnes	-5011
▁goodnes	-5012
▁kinsman	-5013
▁learned	-5014
▁mourned	-5015
▁prudent	-5016
▁springs	-5017
▁stumble	-5018
▁thunder	-5019
▁virgins	-5020
▁wentest	-5021
▁Egyptian	-5022
▁abhorred	-5023
▁beseeche	-5024
▁breaketh	-5025
▁breaking	-5026
▁communed	-5027
▁eunuches	-5028
▁fifteene	-5029
▁prouerbe	-5030
▁punished	-5031
▁searched	-5032
▁stronger	-5033
▁teaching	-5034
▁workemen	-5035
▁Antiochia	-5036
▁childrens	-5037
▁confirmed	-5038
▁countreys	-5039
▁despiseth	-5040
▁nourished	-5041
▁preserued	-5042
▁pronounce	-5043
▁appearance	-5044
▁fountaines	-5045
▁consolation	-5046
▁vnderstoode	-5047
▁conuersation	-5048
vt	-5049
cip	-5050
iar	-5051
keh	-5052
lag	-5053
rog	-5054
urn	-5055
▁Ra	-5056
▁gy	-5057
Nowe	-5058
aire	-5059
area	-5060
ding	-5061
geth	-5062
iful	-5063
iter	-5064
iust	-5065
mite	-5066
omer	-5067
omme	-5068
rour	-5069
ushi	-5070
▁Get	-5071
▁Ith	-5072
▁Mel	-5073
▁amb	-5074
▁bal	-5075
▁cop	-5076
▁cro	-5077
▁dar	-5078
▁der	-5079
▁eas	-5080
▁exc	-5081
aioth	-5082
aried	-5083
aroth	-5084
cerne	-5085
ealog	-5086
inims	-5087
itute	-5088
▁Hore	-5089
▁Lift	-5090
▁Maha	-5091
▁Omri	-5092
▁Shob	-5093
▁babe	-5094
▁colt	-5095
▁crow	-5096
▁hire	-5097
▁lead	-5098
▁maid	-5099
▁pull	-5100
▁reap	-5101
▁robe	-5102
▁skir	-5103
▁soft	-5104
▁sted	-5105
icious	-5106
▁Whome	-5107
▁coate	-5108
▁denne	-5109
▁dimin	-5110
▁godly	-5111
▁groue	-5112
▁howle	-5113
▁lions	-5114
▁noise	-5115
▁sooth	-5116
▁spent	-5117
▁traua	-5118
▁zeale	-5119
thophel	-5120
▁Keilah	-5121
▁Manoah	-5122
▁Michal	-5123
▁Rimmon	-5124
▁Shelah	-5125
▁Tirzah	-5126
▁ascend	-5127
▁barley	-5128
▁beheld	-5129
▁bellie	-5130
▁bondes	-5131
▁fasted	-5132
▁follie	-5133
▁kindle	-5134
▁longer	-5135
▁lottes	-5136
▁lustes	-5137
▁maydes	-5138
▁neckes	-5139
▁priest	-5140
▁safely	-5141
▁scorne	-5142
▁seruat	-5143
▁thiefe	-5144
▁thorow	-5145
▁vniust	-5146
▁voyces	-5147
▁vsurie	-5148
▁Ephesus	-5149
▁Fathers	-5150
▁Iaakobs	-5151
▁Mercise	-5152
▁Whether	-5153
▁burdens	-5154
▁casteth	-5155
▁dreamed	-5156
▁earnest	-5157
▁earthqu	-5158
▁fellowe	-5159
▁fingers	-5160
▁flatter	-5161
▁floweth	-5162
▁garison	-5163
▁kindred	-5164
▁parents	-5165
▁recorde	-5166
▁secrete	-5167
▁seemeth	-5168
▁Adoniiah	-5169
▁Philippe	-5170
▁desireth	-5171
▁discouer	-5172
▁eleuenth	-5173
▁fastened	-5174
▁fellowes	-5175
▁genealog	-5176
▁instruct	-5177
▁occasion	-5178
▁pouertie	-5179
▁purified	-5180
▁sentence	-5181
▁shieldes	-5182
▁sixteene	-5183
▁stedfast	-5184
▁trembled	-5185
▁vitailes	-5186
▁watchman	-5187
▁Centurion	-5188
▁Nethinims	-5189
▁carkeises	-5190
▁chapiters	-5191
▁countreis	-5192
▁destitute	-5193
▁destroyer	-5194
▁ignorance	-5195
▁iourneyed	-5196
▁pleasures	-5197
▁sprinkled	-5198
▁Ahithophel	-5199
▁committeth	-5200
▁displeased	-5201
▁slouthfull	-5202
▁trespassed	-5203
aum	-5204
cep	-5205
chi	-5206
ida	-5207
oes	-5208
ueh	-5209
▁Ag	-5210
▁Ta	-5211
▁Tr	-5212
▁ag	-5213
agge	-5214
alon	-5215
anne	-5216
cell	-5217
core	-5218
gail	-5219
geon	-5220
inke	-5221
lath	-5222
lues	-5223
oure	-5224
phaz	-5225
riel	-5226
roer	-5227
utie	-5228
▁Bab	-5229
▁Bes	-5230
▁Bvt	-5231
▁Med	-5232
▁Zep	-5233
▁adu	-5234
▁bru	-5235
▁dow	-5236
▁few	-5237
▁pet	-5238
▁rid	-5239
▁woe	-5240
aneel	-5241
ickes	-5242
ittle	-5243
ption	-5244
racle	-5245
uthun	-5246
zziel	-5247
▁Abel	-5248
▁Call	-5249
▁Elah	-5250
▁Gesh	-5251
▁Ieph	-5252
▁Kain	-5253
▁Prep	-5254
▁Rise	-5255
▁adde	-5256
▁chee	-5257
▁cymb	-5258
▁daye	-5259
▁erre	-5260
▁firm	-5261
▁help	-5262
▁lean	-5263
▁melt	-5264
▁moue	-5265
▁ones	-5266
▁roll	-5267
▁tare	-5268
▁vexe	-5269
haniah	-5270
iearim	-5271
▁Anath	-5272
▁Aroer	-5273
▁Gersh	-5274
▁Haran	-5275
▁Heman	-5276
▁Horeb	-5277
▁Ionah	-5278
▁Sidon	-5279
▁Stand	-5280
▁accus	-5281
▁awake	-5282
▁begat	-5283
▁colde	-5284
▁coles	-5285
▁const	-5286
▁eagle	-5287
▁foref	-5288
▁heire	-5289
▁ioyne	-5290
▁leane	-5291
▁ouers	-5292
▁paine	-5293
▁plent	-5294
▁roofe	-5295
▁roume	-5296
▁siege	-5297
▁swine	-5298
▁tread	-5299
▁vngod	-5300
▁weigh	-5301
▁works	-5302
▁Ahiiah	-5303
▁Asahel	-5304
▁Baalim	-5305
▁Except	-5306
▁Rechab	-5307
▁burned	-5308
▁growen	-5309
▁heapes	-5310
▁helped	-5311
▁nobles	-5312
▁ouerfl	-5313
▁played	-5314
▁rested	-5315
▁robbed	-5316
▁sawest	-5317
▁scribe	-5318
▁spared	-5319
▁spices	-5320
fulnesse	-5321
▁Abigail	-5322
▁Iehoash	-5323
▁Wherein	-5324
▁Whither	-5325
▁asunder	-5326
▁brethre	-5327
▁burneth	-5328
▁caldron	-5329
▁carkeis	-5330
▁crooked	-5331
▁dragons	-5332
▁dwelled	-5333
▁fasting	-5334
▁further	-5335
▁haddest	-5336
▁halowed	-5337
▁hungrie	-5338
▁iudgeth	-5339
▁kidneis	-5340
▁quicken	-5341
▁running	-5342
▁setteth	-5343
▁sheweth	-5344
▁striken	-5345
▁stubble	-5346
▁theeues	-5347
▁torment	-5348
▁windowe	-5349
▁Athaliah	-5350
▁Christes	-5351
▁Eliashib	-5352
▁Elishama	-5353
▁Westward	-5354
▁assemble	-5355
▁broydred	-5356
▁diligent	-5357
▁drinketh	-5358
▁greatest	-5359
▁iustifie	-5360
▁naturall	-5361
▁possible	-5362
▁regarded	-5363
▁sweareth	-5364
▁trusteth	-5365
▁Prophetes	-5366
▁filthines	-5367
▁firmament	-5368
▁following	-5369
▁fourteene	-5370
▁threshing	-5371
▁trembling	-5372
▁Israelites	-5373
▁abominable	-5374
▁accomplish	-5375
▁concubines	-5376
▁fourescore	-5377
▁husbandmen	-5378
▁profitable	-5379
▁vncleannes	-5380
▁acknowledge	-5381
▁afflictions	-5382
▁foolishnesse	-5383
▁fornications	-5384
▁neuerthelesse	-5385
di	-5386
io	-5387
kk	-5388
uc	-5389
bah	-5390
dal	-5391
ets	-5392
fer	-5393
roy	-5394
xes	-5395
▁Er	-5396
ards	-5397
emin	-5398
itub	-5399
itud	-5400
kets	-5401
obah	-5402
rewe	-5403
rite	-5404
seth	-5405
uish	-5406
when	-5407
ylon	-5408
▁Cap	-5409
▁Fur	-5410
▁Ger	-5411
▁Mir	-5412
▁ate	-5413
▁blo	-5414
▁enl	-5415
▁fly	-5416
▁rum	-5417
▁squ	-5418
▁tel	-5419
▁vex	-5420
▁vtt	-5421
akest	-5422
inely	-5423
itted	-5424
onite	-5425
phath	-5426
toole	-5427
unneh	-5428
▁Acha	-5429
▁Alas	-5430
▁Anak	-5431
▁Eber	-5432
▁Gitt	-5433
▁Nine	-5434
▁None	-5435
▁Rome	-5436
▁Some	-5437
▁Ziba	-5438
▁affe	-5439
▁agre	-5440
▁bone	-5441
▁bush	-5442
▁dout	-5443
▁eche	-5444
▁feeb	-5445
▁flor	-5446
▁rode	-5447
▁scep	-5448
▁stam	-5449
▁succ	-5450
▁wond	-5451
ernaum	-5452
itudes	-5453
rained	-5454
shakeh	-5455
sterie	-5456
▁Amasa	-5457
▁Amram	-5458
▁Hadad	-5459
▁Medes	-5460
▁Nahor	-5461
▁Sarai	-5462
▁amend	-5463
▁bases	-5464
▁deafe	-5465
▁lands	-5466
▁leper	-5467
▁often	-5468
▁proud	-5469
▁songs	-5470
▁speed	-5471
▁torne	-5472
▁yours	-5473
aration	-5474
ouraged	-5475
▁Ahitub	-5476
▁Beware	-5477
▁Iehiel	-5478
▁Libnah	-5479
▁Naaman	-5480
▁Perath	-5481
▁arches	-5482
▁brooke	-5483
▁cleare	-5484
▁fierie	-5485
▁footes	-5486
▁helper	-5487
▁hookes	-5488
▁hungry	-5489
▁little	-5490
▁lockes	-5491
▁lodged	-5492
▁middle	-5493
▁moueth	-5494
▁nature	-5495
▁openly	-5496
▁porche	-5497
▁presum	-5498
▁purged	-5499
▁pursue	-5500
▁reines	-5501
▁soiour	-5502
▁soweth	-5503
▁starre	-5504
▁stuffe	-5505
▁taking	-5506
▁temple	-5507
▁theirs	-5508
▁thrise	-5509
▁welles	-5510
▁wheele	-5511
▁winter	-5512
▁Amariah	-5513
▁Babylon	-5514
▁Destroy	-5515
▁Epistle	-5516
▁Maachah	-5517
▁abideth	-5518
▁already	-5519
▁anguish	-5520
▁draweth	-5521
▁filthie	-5522
▁floures	-5523
▁labours	-5524
▁miserie	-5525
▁praying	-5526
▁prayses	-5527
▁preache	-5528
▁refresh	-5529
▁seeking	-5530
▁speares	-5531
▁stopped	-5532
▁valleis	-5533
▁Ieduthun	-5534
▁ascended	-5535
▁creature	-5536
▁diseases	-5537
▁ielousie	-5538
▁mysterie	-5539
▁obedient	-5540
▁obteined	-5541
▁proceede	-5542
▁quarters	-5543
▁quenched	-5544
▁redeemer	-5545
▁somewhat	-5546
▁speakest	-5547
▁thankesg	-5548
▁troubles	-5549
▁withdraw	-5550
▁Ahimelech	-5551
▁Capernaum	-5552
▁Iephunneh	-5553
▁Mattaniah	-5554
▁Rabshakeh	-5555
▁Southside	-5556
▁affection	-5557
▁consulted	-5558
▁fortresse	-5559
▁fruitfull	-5560
▁memoriall	-5561
▁sorowfull	-5562
▁Publicanes	-5563
▁Reubenites	-5564
▁aduersitie	-5565
▁blasphemed	-5566
▁oppression	-5567
▁pronounced	-5568
▁thousandes	-5569
▁visitation	-5570
▁Furthermore	-5571
▁Tabernacles	-5572
▁counsellers	-5573
▁footestoole	-5574
▁grashoppers	-5575
▁infirmities	-5576
▁whithersoeuer	-5577
bs	-5578
fo	-5579
aaz	-5580
abe	-5581
cah	-5582
con	-5583
hip	-5584
ife	-5585
lam	-5586
nan	-5587
nce	-5588
tre	-5589
uff	-5590
umm	-5591
▁De	-5592
▁fi	-5593
▁gi	-5594
▁gn	-5595
▁hi	-5596
▁mi	-5597
amah	-5598
arch	-5599
ater	-5600
auer	-5601
edne	-5602
klag	-5603
llen	-5604
meel	-5605
rect	-5606
ront	-5607
▁Arp	-5608
▁Bet	-5609
▁Cor	-5610
▁Dib	-5611
▁Hos	-5612
▁Iah	-5613
▁Iok	-5614
▁Ioz	-5615
▁Mep	-5616
▁Mil	-5617
▁Set	-5618
▁Shu	-5619
▁Two	-5620
▁Zel	-5621
▁att	-5622
▁dun	-5623
▁gif	-5624
▁oke	-5625
▁orn	-5626
▁vnf	-5627
▁wed	-5628
aanah	-5629
andle	-5630
areah	-5631
drach	-5632
eable	-5633
roued	-5634
uteth	-5635
where	-5636
zarus	-5637
▁Asht	-5638
▁Bapt	-5639
▁Gosh	-5640
▁Lest	-5641
▁Mary	-5642
▁Ziph	-5643
▁back	-5644
▁bade	-5645
▁cake	-5646
▁cart	-5647
▁dark	-5648
▁diff	-5649
▁eies	-5650
▁nost	-5651
▁rods	-5652
▁sold	-5653
▁sust	-5654
▁yeel	-5655
dition	-5656
ednego	-5657
ration	-5658
▁Adoni	-5659
▁Hagar	-5660
▁Ierub	-5661
▁Merib	-5662
▁Seuen	-5663
▁Titus	-5664
▁Zimri	-5665
▁along	-5666
▁balde	-5667
▁betra	-5668
▁brims	-5669
▁conce	-5670
▁desir	-5671
▁ensam	-5672
▁erred	-5673
▁folke	-5674
▁girde	-5675
▁harme	-5676
▁herbe	-5677
▁hewen	-5678
▁holes	-5679
▁maker	-5680
▁rauen	-5681
▁shaue	-5682
▁soone	-5683
▁state	-5684
▁taste	-5685
▁wholy	-5686
hanters	-5687
▁Hermon	-5688
▁Hezron	-5689
▁Mephib	-5690
▁Miriam	-5691
▁Philip	-5692
▁Salute	-5693
▁Tobiah	-5694
▁Whence	-5695
▁Ziklag	-5696
▁beware	-5697
▁boards	-5698
▁closed	-5699
▁failed	-5700
▁hammer	-5701
▁handle	-5702
▁hideth	-5703
▁naught	-5704
▁offend	-5705
▁praied	-5706
▁presse	-5707
▁propha	-5708
▁shooke	-5709
▁snares	-5710
▁stocke	-5711
▁toppes	-5712
▁towres	-5713
▁twelft	-5714
▁vessel	-5715
▁virgin	-5716
▁Ahimaaz	-5717
▁Eliphaz	-5718
▁Gospell	-5719
▁Lazarus	-5720
▁Meshach	-5721
▁Michael	-5722
▁Nebuzar	-5723
▁Nineueh	-5724
▁Seraiah	-5725
▁afflict	-5726
▁baskets	-5727
▁besiege	-5728
▁charger	-5729
▁harlots	-5730
▁perfour	-5731
▁plucked	-5732
▁princip	-5733
▁purifie	-5734
▁putting	-5735
▁scepter	-5736
▁smiteth	-5737
▁stature	-5738
▁stripes	-5739
▁towards	-5740
▁vncouer	-5741
▁Abednego	-5742
▁Anathoth	-5743
▁Eastside	-5744
▁Shadrach	-5745
▁Therfore	-5746
▁admonish	-5747
▁cymbales	-5748
▁derision	-5749
▁esteemed	-5750
▁inwardes	-5751
▁magnifie	-5752
▁nostrels	-5753
▁remooued	-5754
▁teacheth	-5755
▁thirstie	-5756
▁watchmen	-5757
▁blaspheme	-5758
▁brimstone	-5759
▁businesse	-5760
▁fifteenth	-5761
▁followeth	-5762
▁forefront	-5763
▁gathering	-5764
▁malicious	-5765
▁ouersight	-5766
▁presented	-5767
▁suffering	-5768
▁vncouered	-5769
▁astonished	-5770
▁deliuereth	-5771
▁earthquake	-5772
▁fourteenth	-5773
▁inuentions	-5774
▁comandement	-5775
▁Mephibosheth	-5776
▁astonishment	-5777
IN	-5778
wa	-5779
ys	-5780
afe	-5781
don	-5782
gah	-5783
ioy	-5784
pon	-5785
▁Bu	-5786
▁di	-5787
▁ty	-5788
addu	-5789
agon	-5790
ayle	-5791
edan	-5792
gate	-5793
hazi	-5794
lius	-5795
oman	-5796
raim	-5797
rowe	-5798
shua	-5799
▁Ass	-5800
▁Mak	-5801
▁Mat	-5802
▁Ped	-5803
▁Rez	-5804
▁Rom	-5805
▁Sho	-5806
▁aua	-5807
▁clo	-5808
▁daw	-5809
▁eue	-5810
▁hud	-5811
▁lac	-5812
▁nar	-5813
▁tro	-5814
ahsha	-5815
ardon	-5816
ashur	-5817
asure	-5818
ately	-5819
eries	-5820
haiah	-5821
horon	-5822
inate	-5823
night	-5824
▁Bani	-5825
▁Bela	-5826
▁Bere	-5827
▁Comm	-5828
▁Hele	-5829
▁Iair	-5830
▁Send	-5831
▁Shal	-5832
▁base	-5833
▁ease	-5834
▁foot	-5835
▁inqu	-5836
▁kall	-5837
▁ring	-5838
▁shot	-5839
▁sick	-5840
▁sone	-5841
▁sorc	-5842
▁timb	-5843
▁vict	-5844
erable	-5845
itions	-5846
ptuous	-5847
reated	-5848
▁Debir	-5849
▁Gezer	-5850
▁Iahaz	-5851
▁Nazar	-5852
▁Pekah	-5853
▁Pries	-5854
▁Saddu	-5855
▁almes	-5856
▁beget	-5857
▁blind	-5858
▁cloke	-5859
▁cloud	-5860
▁diuor	-5861
▁droue	-5862
▁gifts	-5863
▁liuer	-5864
▁meeke	-5865
▁merie	-5866
▁point	-5867
▁reach	-5868
▁rough	-5869
▁ruled	-5870
▁ships	-5871
▁slowe	-5872
▁vnbel	-5873
ahshash	-5874
utation	-5875
▁Ephron	-5876
▁Geshur	-5877
▁Goshen	-5878
▁Hushai	-5879
▁Iordan	-5880
▁Kareah	-5881
▁Pashur	-5882
▁Scribe	-5883
▁almost	-5884
▁auenge	-5885
▁banket	-5886
▁behind	-5887
▁bidden	-5888
▁boldly	-5889
▁bulles	-5890
▁candle	-5891
▁chaffe	-5892
▁chased	-5893
▁duetie	-5894
▁elders	-5895
▁famous	-5896
▁feeble	-5897
▁gyants	-5898
▁hinder	-5899
▁lordes	-5900
▁nether	-5901
▁oracle	-5902
▁pathes	-5903
▁placed	-5904
▁royall	-5905
▁speede	-5906
▁square	-5907
▁staues	-5908
▁strait	-5909
▁strawe	-5910
▁stroue	-5911
▁talent	-5912
▁wander	-5913
▁weekes	-5914
▁Baptist	-5915
▁Eliezer	-5916
▁Gershom	-5917
▁auenged	-5918
▁badgers	-5919
▁bottome	-5920
▁descend	-5921
▁hudreth	-5922
▁plentie	-5923
▁protest	-5924
▁publish	-5925
▁recouer	-5926
▁roaring	-5927
▁seasons	-5928
▁succour	-5929
▁suffred	-5930
▁wearied	-5931
▁whelpes	-5932
▁yongest	-5933
▁Sadduces	-5934
▁alreadie	-5935
▁chiefest	-5936
▁clothing	-5937
▁comanded	-5938
▁contrary	-5939
▁creepeth	-5940
▁darkened	-5941
▁discerne	-5942
▁hangings	-5943
▁hitherto	-5944
▁laboured	-5945
▁midnight	-5946
▁mightest	-5947
▁pleaseth	-5948
▁portions	-5949
▁promises	-5950
▁rewarded	-5951
▁speedily	-5952
▁victorie	-5953
▁Ashtaroth	-5954
▁Eastwarde	-5955
▁Ierubbaal	-5956
▁acknowled	-5957
▁companion	-5958
▁handmayde	-5959
▁rebellion	-5960
▁stumbling	-5961
▁tentation	-5962
▁testified	-5963
▁whereunto	-5964
▁whereupon	-5965
▁wonderous	-5966
▁Artahshash	-5967
▁commandeth	-5968
▁destroyeth	-5969
▁greatnesse	-5970
▁grieuously	-5971
▁honourable	-5972
▁proclaimed	-5973
▁sepulchres	-5974
▁trespasses	-5975
▁conuocation	-5976
▁whirlewinde	-5977
▁candlesticke	-5978
▁congregation	-5979
▁consecration	-5980
▁ministration	-5981
▁thankesgiuing	-5982
▁vncircumcision	-5983
AN	-5984
ta	-5985
but	-5986
ddo	-5987
hum	-5988
isc	-5989
nom	-5990
tai	-5991
tam	-5992
umb	-5993
▁Eu	-5994
▁ia	-5995
adak	-5996
arme	-5997
atha	-5998
aued	-5999
ffer	-6000
iage	-6001
inne	-6002
nath	-6003
rich	-6004
skin	-6005
tell	-6006
▁Ale	-6007
▁Bee	-6008
▁Boz	-6009
▁Chi	-6010
▁Dec	-6011
▁Hod	-6012
▁Nor	-6013
▁Rib	-6014
▁Sit	-6015
▁Tek	-6016
▁mom	-6017
▁sed	-6018
▁vnw	-6019
aires	-6020
ander	-6021
berie	-6022
emini	-6023
estus	-6024
herib	-6025
innes	-6026
opard	-6027
pents	-6028
riiah	-6029
shing	-6030
thers	-6031
waies	-6032
whose	-6033
▁Agag	-6034
▁Amoz	-6035
▁Cert	-6036
▁Cons	-6037
▁Hash	-6038
▁Iddo	-6039
▁Iuda	-6040
▁Nebo	-6041
▁Neto	-6042
▁Ruth	-6043
▁Sane	-6044
▁Saue	-6045
▁amog	-6046
▁anon	-6047
▁bind	-6048
▁daun	-6049
▁dign	-6050
▁dogs	-6051
▁down	-6052
▁drop	-6053
▁emer	-6054
▁feed	-6055
▁loud	-6056
▁myre	-6057
▁pals	-6058
▁pass	-6059
▁ripe	-6060
▁stro	-6061
▁vert	-6062
▁vest	-6063
hanaim	-6064
melech	-6065
orrupt	-6066
oureth	-6067
theles	-6068
urance	-6069
▁Barak	-6070
▁Eglon	-6071
▁Hamor	-6072
▁Hanan	-6073
▁Least	-6074
▁Michm	-6075
▁Ophir	-6076
▁Proph	-6077
▁Repha	-6078
▁Sheph	-6079
▁Silas	-6080
▁barly	-6081
▁benef	-6082
▁bless	-6083
▁bonde	-6084
▁boule	-6085
▁calam	-6086
▁cocke	-6087
▁decre	-6088
▁doers	-6089
▁estim	-6090
▁fierc	-6091
▁freed	-6092
▁gaine	-6093
▁gnash	-6094
▁gouer	-6095
▁hewed	-6096
▁marry	-6097
▁repay	-6098
▁ruine	-6099
▁sowed	-6100
▁stubb	-6101
▁tooth	-6102
▁value	-6103
▁verie	-6104
▁wayte	-6105
auement	-6106
ossible	-6107
▁Andrew	-6108
▁Festus	-6109
▁Hannah	-6110
▁Iemini	-6111
▁Martha	-6112
▁Melchi	-6113
▁Rabbah	-6114
▁Should	-6115
▁ambass	-6116
▁basens	-6117
▁beames	-6118
▁bowles	-6119
▁brinke	-6120
▁clothe	-6121
▁coates	-6122
▁confes	-6123
▁easier	-6124
▁fourty	-6125
▁heires	-6126
▁malice	-6127
▁moment	-6128
▁needle	-6129
▁pardon	-6130
▁ruleth	-6131
▁sackes	-6132
▁seemed	-6133
▁seuent	-6134
▁sixtie	-6135
▁subdue	-6136
▁violes	-6137
▁Ephrath	-6138
▁Gadites	-6139
▁Iedaiah	-6140
▁alwaies	-6141
▁apparel	-6142
▁assured	-6143
▁auenger	-6144
▁courses	-6145
▁cursing	-6146
▁entreth	-6147
▁faileth	-6148
▁florish	-6149
▁friende	-6150
▁keeping	-6151
▁kindnes	-6152
▁perfume	-6153
▁pitcher	-6154
▁preuent	-6155
▁repaire	-6156
▁runneth	-6157
▁sayings	-6158
▁serueth	-6159
▁shining	-6160
▁shouted	-6161
▁valleys	-6162
▁Abinadab	-6163
▁Iehoshua	-6164
▁Mahanaim	-6165
▁Priestho	-6166
▁Remaliah	-6167
▁Westside	-6168
▁assembly	-6169
▁confirme	-6170
▁counsels	-6171
▁dignitie	-6172
▁foreskin	-6173
▁heardest	-6174
▁leauened	-6175
▁marchant	-6176
▁meditate	-6177
▁mightily	-6178
▁petition	-6179
▁plainely	-6180
▁prisoner	-6181
▁swelling	-6182
▁towardes	-6183
▁vexation	-6184
▁Nethaneel	-6185
▁Saneherib	-6186
▁compelled	-6187
▁departing	-6188
▁dwellings	-6189
▁encreased	-6190
▁likenesse	-6191
▁obedience	-6192
▁questions	-6193
▁seruaunts	-6194
▁thirteene	-6195
▁vineyards	-6196
▁vttermost	-6197
▁Kohathites	-6198
▁Merciseate	-6199
▁Whatsoeuer	-6200
▁blasphemie	-6201
▁diuination	-6202
▁estimation	-6203
▁foolishnes	-6204
▁grashopper	-6205
▁housholdes	-6206
▁ouerthrowe	-6207
▁shepheards	-6208
▁whomsoeuer	-6209
▁bitternesse	-6210
▁contentions	-6211
▁excellencie	-6212
▁righteously	-6213
▁Artahshashte	-6214
▁presumptuous	-6215
▁couetousnesse	-6216
ti	-6217
gad	-6218
gai	-6219
ius	-6220
lfe	-6221
lig	-6222
rez	-6223
ria	-6224
▁OF	-6225
▁yu	-6226
adah	-6227
arth	-6228
ayne	-6229
char	-6230
eled	-6231
enai	-6232
erne	-6233
etie	-6234
gidd	-6235
hear	-6236
leel	-6237
lers	-6238
mans	-6239
omas	-6240
oubt	-6241
rias	-6242
some	-6243
▁Bez	-6244
▁Cha	-6245
▁Dra	-6246
▁Hau	-6247
▁Lay	-6248
▁Pel	-6249
▁Pen	-6250
▁Syr	-6251
▁bab	-6252
▁bin	-6253
▁cer	-6254
▁imm	-6255
▁lil	-6256
almun	-6257
amech	-6258
anias	-6259
edeus	-6260
ences	-6261
erest	-6262
iling	-6263
ising	-6264
koned	-6265
ntill	-6266
rippa	-6267
rours	-6268
tenth	-6269
uaded	-6270
uages	-6271
▁Anah	-6272
▁Barz	-6273
▁Both	-6274
▁Ebed	-6275
▁Ieth	-6276
▁Open	-6277
▁bott	-6278
▁dres	-6279
▁fold	-6280
▁give	-6281
▁goat	-6282
▁hind	-6283
▁idle	-6284
▁mean	-6285
▁mort	-6286
▁ouen	-6287
▁ours	-6288
▁reie	-6289
▁rowe	-6290
▁sang	-6291
▁saye	-6292
▁show	-6293
▁subt	-6294
▁ward	-6295
▁wher	-6296
▁yest	-6297
arezer	-6298
athite	-6299
dalene	-6300
erence	-6301
fulnes	-6302
▁Abihu	-6303
▁Apoll	-6304
▁Canst	-6305
▁Dagon	-6306
▁Dedan	-6307
▁Doubt	-6308
▁Great	-6309
▁Hazar	-6310
▁Huram	-6311
▁Iehon	-6312
▁Iehoz	-6313
▁Ierah	-6314
▁Kedar	-6315
▁Marke	-6316
▁Ornan	-6317
▁Paran	-6318
▁Shamm	-6319
▁Shele	-6320
▁Sheth	-6321
▁Sunne	-6322
▁Zebah	-6323
▁Zobah	-6324
▁bagge	-6325
▁beame	-6326
▁beate	-6327
▁bowes	-6328
▁catch	-6329
▁digge	-6330
▁doung	-6331
▁enioy	-6332
▁feele	-6333
▁fifth	-6334
▁fully	-6335
▁hisse	-6336
▁hosts	-6337
▁maint	-6338
▁maist	-6339
▁purge	-6340
▁south	-6341
▁spies	-6342
▁spots	-6343
▁tithe	-6344
▁traue	-6345
▁tried	-6346
▁viole	-6347
▁warne	-6348
▁widow	-6349
▁wooll	-6350
because	-6351
bosheth	-6352
ertaine	-6353
▁Better	-6354
▁Gehazi	-6355
▁Lamech	-6356
▁Megidd	-6357
▁Oliues	-6358
▁Pharez	-6359
▁Thomas	-6360
▁Zalmun	-6361
▁Zichri	-6362
▁arrowe	-6363
▁breade	-6364
▁bricke	-6365
▁cryeth	-6366
▁defend	-6367
▁dissol	-6368
▁dresse	-6369
▁finish	-6370
▁flight	-6371
▁flying	-6372
▁giuest	-6373
▁heares	-6374
▁intent	-6375
▁leaues	-6376
▁maried	-6377
▁marrie	-6378
▁ouerse	-6379
▁palsie	-6380
▁region	-6381
▁rehear	-6382
▁remoue	-6383
▁resort	-6384
▁seates	-6385
▁shooes	-6386
▁spoile	-6387
▁supper	-6388
▁theefe	-6389
▁warres	-6390
▁wholes	-6391
▁yuorie	-6392
inations	-6393
▁Agrippa	-6394
▁Eliakim	-6395
▁Ionadab	-6396
▁Knowest	-6397
▁Prepare	-6398
▁breasts	-6399
▁carnall	-6400
▁carpent	-6401
▁correct	-6402
▁earings	-6403
▁fainted	-6404
▁hanging	-6405
▁healing	-6406
▁hundred	-6407
▁imputed	-6408
▁incline	-6409
▁keepers	-6410
▁knewest	-6411
▁laboure	-6412
▁lacking	-6413
▁leadeth	-6414
▁lighten	-6415
▁married	-6416
▁remooue	-6417
▁safetie	-6418
▁saidest	-6419
▁seruile	-6420
▁strings	-6421
▁vngodly	-6422
▁vpwarde	-6423
▁wrapped	-6424
▁Eunuches	-6425
▁Ierimoth	-6426
▁Wherfore	-6427
▁Zebedeus	-6428
▁builders	-6429
▁candlest	-6430
▁coupling	-6431
▁deliteth	-6432
▁familiar	-6433
▁forwarde	-6434
▁gracious	-6435
▁lamented	-6436
▁occupied	-6437
▁offereth	-6438
▁pastures	-6439
▁pauement	-6440
▁presents	-6441
▁quickely	-6442
▁reigneth	-6443
▁remayned	-6444
▁reproued	-6445
▁serpents	-6446
▁sleepeth	-6447
▁thinkest	-6448
▁vanities	-6449
▁Hadarezer	-6450
▁Izreelite	-6451
▁Magdalene	-6452
▁Northward	-6453
▁Southward	-6454
▁anointing	-6455
▁assurance	-6456
▁becommeth	-6457
▁belongeth	-6458
▁brightnes	-6459
▁conuerted	-6460
▁damnation	-6461
▁distresse	-6462
▁earnestly	-6463
▁handmaide	-6464
▁hereafter	-6465
▁holinesse	-6466
▁languages	-6467
▁ouerlayde	-6468
▁peaceably	-6469
▁performed	-6470
▁perswaded	-6471
▁plenteous	-6472
▁regardeth	-6473
▁swallowed	-6474
▁thereunto	-6475
▁thirtieth	-6476
▁trauailed	-6477
▁vnbeliefe	-6478
▁Shephatiah	-6479
▁aboundance	-6480
▁abundantly	-6481
▁certainely	-6482
▁difference	-6483
▁instructed	-6484
▁lightnings	-6485
▁ministring	-6486
▁necessitie	-6487
▁perfection	-6488
▁proceedeth	-6489
▁vnderstood	-6490
▁genealogies	-6491
▁immediately	-6492
▁soothsayers	-6493
▁wheresoeuer	-6494
▁candlestickes	-6495
sa	-6496
arc	-6497
cur	-6498
ina	-6499
ium	-6500
kem	-6501
len	-6502
nie	-6503
nim	-6504
rau	-6505
rer	-6506
sso	-6507
zur	-6508
zzi	-6509
▁Ed	-6510
▁Ha	-6511
▁Hu	-6512
▁Im	-6513
▁Mi	-6514
▁au	-6515
▁es	-6516
aker	-6517
ania	-6518
anna	-6519
bers	-6520
beth	-6521
cari	-6522
from	-6523
hite	-6524
hood	-6525
lies	-6526
ophe	-6527
osse	-6528
sent	-6529
time	-6530
tles	-6531
umpe	-6532
urim	-6533
weth	-6534
wood	-6535
yned	-6536
▁Aha	-6537
▁Com	-6538
▁Fin	-6539
▁Gog	-6540
▁MAN	-6541
▁Nic	-6542
▁Sib	-6543
▁bor	-6544
▁cof	-6545
▁cud	-6546
▁fla	-6547
▁fle	-6548
▁gro	-6549
▁lap	-6550
▁own	-6551
▁rea	-6552
▁sod	-6553
abbas	-6554
asing	-6555
asons	-6556
aueth	-6557
bread	-6558
cesse	-6559
craft	-6560
epest	-6561
epher	-6562
eroth	-6563
geons	-6564
hites	-6565
illai	-6566
inoam	-6567
kelon	-6568
oorth	-6569
oshea	-6570
osing	-6571
pping	-6572
reade	-6573
reate	-6574
riued	-6575
zebub	-6576
▁Chem	-6577
▁Foll	-6578
▁Geba	-6579
▁Ioah	-6580
▁Shec	-6581
▁Shun	-6582
▁Till	-6583
▁Well	-6584
▁Zoar	-6585
▁abst	-6586
▁acqu	-6587
▁arch	-6588
▁ayre	-6589
▁blow	-6590
▁brid	-6591
▁buck	-6592
▁dash	-6593
▁doub	-6594
▁file	-6595
▁held	-6596
▁midw	-6597
▁pots	-6598
▁seue	-6599
▁spir	-6600
▁stif	-6601
▁subm	-6602
▁upon	-6603
cariot	-6604
harias	-6605
▁Breth	-6606
▁Dibon	-6607
▁Elihu	-6608
▁Esaus	-6609
▁Hanun	-6610
▁Harim	-6611
▁Heber	-6612
▁Ieiel	-6613
▁Kenaz	-6614
▁Malch	-6615
▁Meshe	-6616
▁Mount	-6617
▁Padan	-6618
▁Reuel	-6619
▁Rezin	-6620
▁Seeke	-6621
▁Sende	-6622
▁Terah	-6623
▁Thess	-6624
▁Write	-6625
▁awoke	-6626
▁blast	-6627
▁claue	-6628
▁clean	-6629
▁clust	-6630
▁defen	-6631
▁domme	-6632
▁drunk	-6633
▁dukes	-6634
▁fayth	-6635
▁fedde	-6636
▁front	-6637
▁ghost	-6638
▁grate	-6639
▁guile	-6640
▁hedge	-6641
▁hidde	-6642
▁hoofe	-6643
▁hysso	-6644
▁kinse	-6645
▁laden	-6646
▁laied	-6647
▁leafe	-6648
▁meale	-6649
▁miter	-6650
▁mules	-6651
▁pitte	-6652
▁sweet	-6653
▁teare	-6654
▁trode	-6655
▁weeke	-6656
▁witch	-6657
▁young	-6658
olished	-6659
ophehad	-6660
teineth	-6661
▁Abiram	-6662
▁Achaia	-6663
▁Beriah	-6664
▁Bilhah	-6665
▁Greete	-6666
▁Haggai	-6667
▁Henoch	-6668
▁Honour	-6669
▁Hoshea	-6670
▁Kedesh	-6671
▁Milcah	-6672
▁Nahash	-6673
▁Prince	-6674
▁Riblah	-6675
▁Shelom	-6676
▁Suffer	-6677
▁agreed	-6678
▁camped	-6679
▁colour	-6680
▁costly	-6681
▁desart	-6682
▁fledde	-6683
▁flowre	-6684
▁hearde	-6685
▁lacked	-6686
▁legges	-6687
▁louest	-6688
▁musike	-6689
▁needes	-6690
▁oliues	-6691
▁potter	-6692
▁powers	-6693
▁reedes	-6694
▁rooted	-6695
▁sailed	-6696
▁smelll	-6697
▁snared	-6698
▁thirty	-6699
▁turtle	-6700
▁walled	-6701
▁wayted	-6702
▁wisely	-6703
▁Adullam	-6704
▁Ananias	-6705
▁Caldees	-6706
▁Cesarea	-6707
▁Corinth	-6708
▁Iapheth	-6709
▁Megiddo	-6710
▁Pharise	-6711
▁abiding	-6712
▁branche	-6713
▁busines	-6714
▁casting	-6715
▁colours	-6716
▁coupled	-6717
▁dawning	-6718
▁dispers	-6719
▁dungeon	-6720
▁earthly	-6721
▁enterpr	-6722
▁gardens	-6723
▁getteth	-6724
▁gouerne	-6725
▁groweth	-6726
▁highest	-6727
▁keepest	-6728
▁laughed	-6729
▁lodging	-6730
▁looking	-6731
▁paterne	-6732
▁potters	-6733
▁powreth	-6734
▁praised	-6735
▁reproue	-6736
▁saydest	-6737
▁scourge	-6738
▁searche	-6739
▁spreade	-6740
▁suretie	-6741
▁talking	-6742
▁treason	-6743
▁vineger	-6744
▁vttered	-6745
▁watched	-6746
▁Anointed	-6747
▁Barabbas	-6748
▁Bethania	-6749
▁Brethren	-6750
▁Consider	-6751
▁Councill	-6752
▁Iscariot	-6753
▁Malchiah	-6754
▁Zalmunna	-6755
▁acquaint	-6756
▁ambassad	-6757
▁bestowed	-6758
▁breastes	-6759
▁chapiter	-6760
▁conceiue	-6761
▁crucifie	-6762
▁destroye	-6763
▁disputed	-6764
▁footemen	-6765
▁fulnesse	-6766
▁handfull	-6767
▁prophane	-6768
▁purposed	-6769
▁question	-6770
▁shouting	-6771
▁spirites	-6772
▁Barzillai	-6773
▁Berechiah	-6774
▁Forasmuch	-6775
▁Hashabiah	-6776
▁Netophath	-6777
▁Zacharias	-6778
▁almightie	-6779
▁anoynting	-6780
▁carelesse	-6781
▁garmentes	-6782
▁proceeded	-6783
▁sorcerers	-6784
▁wholesome	-6785
▁Certainely	-6786
▁Zelophehad	-6787
▁assemblies	-6788
▁dedication	-6789
▁destroying	-6790
▁stretcheth	-6791
▁thirteenth	-6792
▁Neuertheles	-6793
▁aboundantly	-6794
▁hencefoorth	-6795
▁ouercommeth	-6796
▁tabernacles	-6797
OD	-6798
Th	-6799
ov	-6800
za	-6801
The	-6802
anb	-6803
its	-6804
ize	-6805
lud	-6806
nai	-6807
nea	-6808
pan	-6809
row	-6810
tan	-6811
zek	-6812
zza	-6813
▁Cy	-6814
ague	-6815
amre	-6816
anke	-6817
ddai	-6818
ephe	-6819
gaue	-6820
icus	-6821
illo	-6822
lare	-6823
lets	-6824
lous	-6825
oham	-6826
shad	-6827
ubal	-6828
umph	-6829
▁App	-6830
▁Cal	-6831
▁Din	-6832
▁Gab	-6833
▁Hat	-6834
▁Mad	-6835
▁Pis	-6836
▁Tea	-6837
▁Was	-6838
▁Zab	-6839
▁Zin	-6840
▁Zur	-6841
▁alm	-6842
▁bew	-6843
▁cos	-6844
▁dau	-6845
▁fer	-6846
▁fro	-6847
▁gri	-6848
▁kno	-6849
▁pil	-6850
▁vom	-6851
▁wan	-6852
▁wet	-6853
ading	-6854
allat	-6855
almon	-6856
arned	-6857
ashti	-6858
cking	-6859
eenth	-6860
erday	-6861
lings	-6862
ltiel	-6863
onder	-6864
oueth	-6865
ounde	-6866
phrah	-6867
rable	-6868
redth	-6869
rowes	-6870
tesha	-6871
ummim	-6872
uting	-6873
▁Adar	-6874
▁Alex	-6875
▁Beor	-6876
▁Caes	-6877
▁Ehud	-6878
▁Ezer	-6879
▁Hatt	-6880
▁Iaaz	-6881
▁Ishi	-6882
▁Ouer	-6883
▁Sanb	-6884
▁Shea	-6885
▁Shes	-6886
▁Zipp	-6887
▁bake	-6888
▁batt	-6889
▁bent	-6890
▁blam	-6891
▁brim	-6892
▁ends	-6893
▁fals	-6894
▁fash	-6895
▁knop	-6896
▁lace	-6897
▁liar	-6898
▁mils	-6899
▁rost	-6900
▁sack	-6901
▁shea	-6902
▁spie	-6903
▁surn	-6904
▁swar	-6905
▁tale	-6906
▁trie	-6907
▁vnic	-6908
▁wait	-6909
▁writ	-6910
barnea	-6911
celler	-6912
iachin	-6913
icated	-6914
isions	-6915
maueth	-6916
ortion	-6917
retion	-6918
rouers	-6919
strich	-6920
▁Corne	-6921
▁Dukes	-6922
▁Eliel	-6923
▁Gerar	-6924
▁Immer	-6925
▁Ionas	-6926
▁Ioppa	-6927
▁Izhar	-6928
▁Mahli	-6929
▁Mamre	-6930
▁Millo	-6931
▁Rahab	-6932
▁Shaul	-6933
▁Stret	-6934
▁Tabor	-6935
▁Tubal	-6936
▁Watch	-6937
▁Would	-6938
▁accou	-6939
▁babes	-6940
▁bande	-6941
▁baren	-6942
▁bonds	-6943
▁bount	-6944
▁chang	-6945
▁colte	-6946
▁defer	-6947
▁dieth	-6948
▁dread	-6949
▁escap	-6950
▁eyght	-6951
▁flaxe	-6952
▁flies	-6953
▁idols	-6954
▁lappe	-6955
▁mirth	-6956
▁perce	-6957
▁praie	-6958
▁rayse	-6959
▁reuel	-6960
▁sober	-6961
▁speci	-6962
▁tryed	-6963
▁winne	-6964
uenient	-6965
unicate	-6966
▁Baanah	-6967
▁Dathan	-6968
▁Hauing	-6969
▁Hepher	-6970
▁Iethro	-6971
▁aswell	-6972
▁branch	-6973
▁bredth	-6974
▁butler	-6975
▁carued	-6976
▁chaine	-6977
▁coales	-6978
▁compla	-6979
▁couple	-6980
▁cubits	-6981
▁descri	-6982
▁dogges	-6983
▁eagles	-6984
▁filets	-6985
▁hautie	-6986
▁idolat	-6987
▁laying	-6988
▁league	-6989
▁madest	-6990
▁meates	-6991
▁melted	-6992
▁playne	-6993
▁praier	-6994
▁pulled	-6995
▁realme	-6996
▁sadled	-6997
▁stinke	-6998
▁taryed	-6999
▁thanks	-7000
▁wanton	-7001
▁warned	-7002
ishaddai	-7003
▁Apollos	-7004
▁Beeroth	-7005
▁Bethuel	-7006
▁Chereth	-7007
▁Deborah	-7008
▁Declare	-7009
▁Finally	-7010
▁Ieroham	-7011
▁Knowing	-7012
▁Philipp	-7013
▁Samarit	-7014
▁baptize	-7015
▁betroth	-7016
▁bondmen	-7017
▁bottell	-7018
▁calling	-7019
▁chasten	-7020
▁circumc	-7021
▁crownes	-7022
▁cruelly	-7023
▁curseth	-7024
▁decayed	-7025
▁decline	-7026
▁earthen	-7027
▁expired	-7028
▁fashion	-7029
▁fearing	-7030
▁forgaue	-7031
▁frogges	-7032
▁hearest	-7033
▁holdeth	-7034
▁holines	-7035
▁hungred	-7036
▁hyssope	-7037
▁murmure	-7038
▁pearles	-7039
▁pigeons	-7040
▁priuily	-7041
▁scorner	-7042
▁sending	-7043
▁seruats	-7044
▁shineth	-7045
▁statute	-7046
▁temples	-7047
▁triumph	-7048
▁vitaile	-7049
▁weighed	-7050
▁working	-7051
teshazzar	-7052
▁Ammonite	-7053
▁Ashkelon	-7054
▁Nazarite	-7055
▁cleaueth	-7056
▁contempt	-7057
▁desiring	-7058
▁diminish	-7059
▁ensample	-7060
▁fatnesse	-7061
▁inhabite	-7062
▁learning	-7063
▁partaker	-7064
▁refraine	-7065
▁reiected	-7066
▁standerd	-7067
▁thinketh	-7068
▁Cornelius	-7069
▁Ierahmeel	-7070
▁Sanballat	-7071
▁Shelemiah	-7072
▁Zephaniah	-7073
▁answereth	-7074
▁blessings	-7075
▁descended	-7076
▁dispersed	-7077
▁dissolued	-7078
▁execrable	-7079
▁fatherles	-7080
▁foolishly	-7081
▁labourers	-7082
▁perisheth	-7083
▁published	-7084
▁sackcloth	-7085
▁shepherds	-7086
▁theselues	-7087
▁wormewood	-7088
▁Doubtlesse	-7089
▁Iehoiachin	-7090
▁Northwarde	-7091
▁appertaine	-7092
▁chanceller	-7093
▁controuers	-7094
▁conuenient	-7095
▁discretion	-7096
▁godlinesse	-7097
▁increaseth	-7098
▁instrument	-7099
▁multitudes	-7100
▁murtherers	-7101
▁shepherdes	-7102
▁vnpossible	-7103
▁witchcraft	-7104
▁Gershonites	-7105
▁desolations	-7106
▁discouraged	-7107
▁displeasure	-7108
▁distributed	-7109
▁persecution	-7110
▁pomegranate	-7111
▁possessions	-7112
▁prophecying	-7113
▁southsayers	-7114
▁Belteshazzar	-7115
▁acquaintance	-7116
▁vnderstandeth	-7117
▁Nebuchadnezzar	-7118
▁vnrighteousnes	-7119
▁notwithstanding	-7120
?)	-7121
Wh	-7122
akk	-7123
bai	-7124
cel	-7125
cho	-7126
ckt	-7127
col	-7128
gin	-7129
hal	-7130
hia	-7131
lai	-7132
ors	-7133
rim	-7134
sah	-7135
she	-7136
ung	-7137
▁Au	-7138
▁ta	-7139
▁ys	-7140
acie	-7141
aiap	-7142
atri	-7143
auan	-7144
bate	-7145
dish	-7146
ecie	-7147
elix	-7148
eres	-7149
land	-7150
leem	-7151
meth	-7152
niel	-7153
omes	-7154
over	-7155
pill	-7156
ppim	-7157
rang	-7158
sest	-7159
shan	-7160
shon	-7161
take	-7162
tend	-7163
thes	-7164
urst	-7165
whom	-7166
▁Big	-7167
▁Dod	-7168
▁Dor	-7169
▁GOD	-7170
▁Gam	-7171
▁Gir	-7172
▁Hol	-7173
▁Iam	-7174
▁Iap	-7175
▁Mig	-7176
▁Pal	-7177
▁Tah	-7178
▁Tel	-7179
▁dit	-7180
▁ext	-7181
▁kow	-7182
▁leg	-7183
▁lew	-7184
▁pas	-7185
▁pip	-7186
▁pis	-7187
▁roe	-7188
▁sli	-7189
▁tas	-7190
acher	-7191
aches	-7192
ahath	-7193
aleel	-7194
arged	-7195
aunah	-7196
emuel	-7197
ering	-7198
iners	-7199
itish	-7200
ittes	-7201
kedah	-7202
lined	-7203
ongue	-7204
othes	-7205
sedec	-7206
tooke	-7207
▁Answ	-7208
▁Aphe	-7209
▁Capt	-7210
▁Chen	-7211
▁Elon	-7212
▁Flee	-7213
▁Gaal	-7214
▁Gera	-7215
▁Hagg	-7216
▁Loue	-7217
▁Such	-7218
▁True	-7219
▁aged	-7220
▁beds	-7221
▁begu	-7222
▁city	-7223
▁coll	-7224
▁dart	-7225
▁dung	-7226
▁flow	-7227
▁hewe	-7228
▁hils	-7229
▁knit	-7230
▁lake	-7231
▁lend	-7232
▁mist	-7233
▁mule	-7234
▁pine	-7235
▁sign	-7236
▁wake	-7237
▁wide	-7238
adezer	-7239
aunded	-7240
elesse	-7241
ithiah	-7242
ourage	-7243
▁Caiap	-7244
▁Cushi	-7245
▁Ethan	-7246
▁Felix	-7247
▁Iazer	-7248
▁Iobab	-7249
▁Misha	-7250
▁Shere	-7251
▁Shewe	-7252
▁Smite	-7253
▁alike	-7254
▁astro	-7255
▁baker	-7256
▁banke	-7257
▁barne	-7258
▁barre	-7259
▁begun	-7260
▁birde	-7261
▁botto	-7262
▁cater	-7263
▁close	-7264
▁cruel	-7265
▁dimme	-7266
▁disan	-7267
▁dough	-7268
▁durst	-7269
▁embra	-7270
▁exerc	-7271
▁fanne	-7272
▁flour	-7273
▁grape	-7274
▁infer	-7275
▁innum	-7276
▁leape	-7277
▁ledde	-7278
▁relig	-7279
▁shoes	-7280
▁slide	-7281
▁snuff	-7282
▁sower	-7283
▁sowre	-7284
▁vseth	-7285
▁weare	-7286
▁woofe	-7287
▁wreth	-7288
achshad	-7289
lenesse	-7290
ouereth	-7291
▁Adaiah	-7292
▁Arabia	-7293
▁Drinke	-7294
▁Ebrewe	-7295
▁Hanani	-7296
▁Hormah	-7297
▁Iachin	-7298
▁Molech	-7299
▁Neriah	-7300
▁Peleth	-7301
▁Shobal	-7302
▁absent	-7303
▁accord	-7304
▁almond	-7305
▁backes	-7306
▁blocke	-7307
▁bridle	-7308
▁butter	-7309
▁cheeke	-7310
▁coasts	-7311
▁commun	-7312
▁depths	-7313
▁dongue	-7314
▁errour	-7315
▁fleece	-7316
▁grieue	-7317
▁helmet	-7318
▁holden	-7319
▁immort	-7320
▁lilies	-7321
▁lowest	-7322
▁maners	-7323
▁masons	-7324
▁murder	-7325
▁pluckt	-7326
▁purcha	-7327
▁rained	-7328
▁rumour	-7329
▁saphir	-7330
▁sickle	-7331
▁simple	-7332
▁sprang	-7333
▁stiffe	-7334
▁taches	-7335
▁tasted	-7336
▁vpward	-7337
▁watche	-7338
▁weapon	-7339
▁winges	-7340
▁wither	-7341
▁yonder	-7342
▁Araunah	-7343
▁Assoone	-7344
▁Elisabe	-7345
▁Grecian	-7346
▁Iozabad	-7347
▁Meribah	-7348
▁Nahshon	-7349
▁Through	-7350
▁Topheth	-7351
▁accorde	-7352
▁archers	-7353
▁balance	-7354
▁battels	-7355
▁beginne	-7356
▁behaued	-7357
▁boothes	-7358
▁contend	-7359
▁darknes	-7360
▁forgate	-7361
▁hastily	-7362
▁helpers	-7363
▁howbeit	-7364
▁kneeled	-7365
▁leauing	-7366
▁lighted	-7367
▁mariage	-7368
▁miracle	-7369
▁nightes	-7370
▁obtaine	-7371
▁ostrich	-7372
▁parched	-7373
▁reapers	-7374
▁rekoned	-7375
▁reserue	-7376
▁reuiled	-7377
▁secrets	-7378
▁sendeth	-7379
▁sharpen	-7380
▁sheaues	-7381
▁sinfull	-7382
▁slumber	-7383
▁sorowed	-7384
▁sparowe	-7385
▁sprinck	-7386
▁stockes	-7387
▁stollen	-7388
▁suppose	-7389
▁turning	-7390
▁waiteth	-7391
▁washing	-7392
▁watered	-7393
▁wedding	-7394
▁Anoynted	-7395
▁Bezaleel	-7396
▁Caiaphas	-7397
▁Ierusale	-7398
▁Maachath	-7399
▁Makkedah	-7400
▁Michmash	-7401
▁although	-7402
▁buildeth	-7403
▁coloured	-7404
▁diseased	-7405
▁exhorted	-7406
▁fauoured	-7407
▁imagined	-7408
▁inquired	-7409
▁kindenes	-7410
▁merciful	-7411
▁mightier	-7412
▁milstone	-7413
▁ouertake	-7414
▁pertaine	-7415
▁recorder	-7416
▁reproofe	-7417
▁stretche	-7418
▁teachers	-7419
▁thunders	-7420
▁workeman	-7421
▁Amminadab	-7422
▁Hadadezer	-7423
▁Prophecie	-7424
▁Shealtiel	-7425
▁Shelomith	-7426
▁Whereunto	-7427
▁Zidonians	-7428
▁abolished	-7429
▁appearing	-7430
▁beholding	-7431
▁betrothed	-7432
▁caterpill	-7433
▁condition	-7434
▁corrupted	-7435
▁countries	-7436
▁declareth	-7437
▁deuoureth	-7438
▁dishonour	-7439
▁diuisions	-7440
▁forasmuch	-7441
▁hardnesse	-7442
▁ouerflowe	-7443
▁perfectly	-7444
▁perfourme	-7445
▁perpetual	-7446
▁perteined	-7447
▁proclaime	-7448
▁recouered	-7449
▁remission	-7450
▁shewbread	-7451
▁shortened	-7452
▁therefrom	-7453
▁valiantly	-7454
▁withereth	-7455
▁yesterday	-7456
▁Arpachshad	-7457
▁adulterers	-7458
▁birthright	-7459
▁broughtest	-7460
▁carpenters	-7461
▁circumcise	-7462
▁compasseth	-7463
▁continueth	-7464
▁distribute	-7465
▁doubtlesse	-7466
▁faithfully	-7467
▁principall	-7468
▁scattereth	-7469
▁brightnesse	-7470
▁innumerable	-7471
▁Netophathite	-7472
▁imaginations	-7473
▁ouerthroweth	-7474
▁acknowledging	-7475
▁sanctification	-7476
IS	-7477
br	-7478
co	-7479
pl	-7480
sp	-7481
But	-7482
ING	-7483
Now	-7484
aie	-7485
aze	-7486
ban	-7487
bey	-7488
bez	-7489
boa	-7490
bra	-7491
del	-7492
eac	-7493
fau	-7494
fth	-7495
gab	-7496
ids	-7497
ios	-7498
ira	-7499
leg	-7500
mus	-7501
ods	-7502
rai	-7503
rei	-7504
ych	-7505
yde	-7506
▁Ac	-7507
▁Aw	-7508
▁Ga	-7509
▁Ib	-7510
▁Sw	-7511
▁Ti	-7512
▁Zu	-7513
▁gh	-7514
▁pa	-7515
ahem	-7516
aith	-7517
alke	-7518
allu	-7519
arah	-7520
arba	-7521
biah	-7522
cher	-7523
diel	-7524
ebar	-7525
gand	-7526
gued	-7527
iael	-7528
icat	-7529
icia	-7530
ifer	-7531
ific	-7532
kkub	-7533
miel	-7534
ming	-7535
mith	-7536
olis	-7537
ompe	-7538
ouah	-7539
part	-7540
ping	-7541
prus	-7542
quar	-7543
sage	-7544
tage	-7545
ysic	-7546
▁Cil	-7547
▁Dem	-7548
▁Hab	-7549
▁Iim	-7550
▁Ioi	-7551
▁Ira	-7552
▁Luz	-7553
▁Noe	-7554
▁Oth	-7555
▁Sim	-7556
▁Six	-7557
▁Wis	-7558
▁alt	-7559
▁axe	-7560
▁cra	-7561
▁dan	-7562
▁hye	-7563
▁lic	-7564
▁nau	-7565
▁obl	-7566
▁pan	-7567
▁pou	-7568
▁try	-7569
▁vnm	-7570
ancie	-7571
aphah	-7572
bamah	-7573
ended	-7574
icked	-7575
iltie	-7576
innom	-7577
ishon	-7578
isons	-7579
leepe	-7580
losed	-7581
odice	-7582
ppuah	-7583
tones	-7584
utton	-7585
▁Adah	-7586
▁Amos	-7587
▁Arch	-7588
▁Asse	-7589
▁Beel	-7590
▁Cush	-7591
▁Ebal	-7592
▁Heth	-7593
▁Iust	-7594
▁Mall	-7595
▁Maon	-7596
▁Mare	-7597
▁Mass	-7598
▁Meth	-7599
▁Onan	-7600
▁Peth	-7601
▁Shur	-7602
▁Sion	-7603
▁Sixe	-7604
▁ages	-7605
▁aire	-7606
▁alou	-7607
▁bald	-7608
▁blou	-7609
▁boxe	-7610
▁delt	-7611
▁drye	-7612
▁duke	-7613
▁foud	-7614
▁gent	-7615
▁gilt	-7616
▁gron	-7617
▁hole	-7618
▁main	-7619
▁mock	-7620
▁nets	-7621
▁numb	-7622
▁obst	-7623
▁oint	-7624
▁owle	-7625
▁perm	-7626
▁plow	-7627
▁pond	-7628
▁resc	-7629
▁sine	-7630
▁vint	-7631
▁whis	-7632
▁wipe	-7633
▁wish	-7634
▁work	-7635
aments	-7636
antage	-7637
asters	-7638
formed	-7639
ginoth	-7640
hemiah	-7641
icitie	-7642
ilitie	-7643
iuitie	-7644
nished	-7645
solite	-7646
▁Abdon	-7647
▁Akkub	-7648
▁Among	-7649
▁Aphek	-7650
▁Awake	-7651
▁Booke	-7652
▁Carmi	-7653
▁Citie	-7654
▁Dinah	-7655
▁Drawe	-7656
▁Edrei	-7657
▁Galat	-7658
▁Habel	-7659
▁Homer	-7660
▁Howle	-7661
▁Ieush	-7662
▁Ittai	-7663
▁Laish	-7664
▁Lawes	-7665
▁Mushi	-7666
▁Rabbi	-7667
▁Rehum	-7668
▁Since	-7669
▁Syria	-7670
▁Teach	-7671
▁Trust	-7672
▁Woman	-7673
▁Zabad	-7674
▁Zorah	-7675
▁apple	-7676
▁arrog	-7677
▁brace	-7678
▁burst	-7679
▁chase	-7680
▁combe	-7681
▁couch	-7682
▁dance	-7683
▁dream	-7684
▁fayre	-7685
▁feuer	-7686
▁foxes	-7687
▁ghest	-7688
▁heauy	-7689
▁honor	-7690
▁liken	-7691
▁lords	-7692
▁losse	-7693
▁marie	-7694
▁owner	-7695
▁payed	-7696
▁pompe	-7697
▁renou	-7698
▁robes	-7699
▁sande	-7700
▁shore	-7701
▁sling	-7702
▁super	-7703
▁tares	-7704
▁warme	-7705
▁warpe	-7706
▁wrest	-7707
quarter	-7708
shazzar	-7709
▁Babels	-7710
▁Bichri	-7711
▁Bozrah	-7712
▁Cesars	-7713
▁Chebar	-7714
▁Cyprus	-7715
▁Either	-7716
▁Gilboa	-7717
▁Iahath	-7718
▁Iether	-7719
▁Ophrah	-7720
▁Shisha	-7721
▁Shunam	-7722
▁Truely	-7723
▁Whiles	-7724
▁Zaccur	-7725
▁alarme	-7726
▁albeit	-7727
▁arayed	-7728
▁asketh	-7729
▁boarde	-7730
▁bookes	-7731
▁briers	-7732
▁clouds	-7733
▁cometh	-7734
▁create	-7735
▁crieth	-7736
▁discom	-7737
▁drosse	-7738
▁excomm	-7739
▁fruits	-7740
▁gladly	-7741
▁goings	-7742
▁hastie	-7743
▁hatest	-7744
▁herein	-7745
▁higher	-7746
▁holpen	-7747
▁incont	-7748
▁iustly	-7749
▁knocke	-7750
▁layeth	-7751
▁leaned	-7752
▁leaped	-7753
▁member	-7754
▁moones	-7755
▁morter	-7756
▁nettes	-7757
▁nights	-7758
▁parted	-7759
▁perfit	-7760
▁perils	-7761
▁plates	-7762
▁pouder	-7763
▁proued	-7764
▁quench	-7765
▁riddle	-7766
▁rideth	-7767
▁rolled	-7768
▁rotten	-7769
▁seethe	-7770
▁shauen	-7771
▁sheath	-7772
▁slaier	-7773
▁stonie	-7774
▁storme	-7775
▁strike	-7776
▁temper	-7777
▁threat	-7778
▁tokens	-7779
▁vertue	-7780
▁wormes	-7781
fauoured	-7782
▁Amorite	-7783
▁Anakims	-7784
▁Beloued	-7785
▁Chemosh	-7786
▁Cilicia	-7787
▁Council	-7788
▁Eunuche	-7789
▁Gittite	-7790
▁Hebrewe	-7791
▁Iehouah	-7792
▁Israels	-7793
▁Kadmiel	-7794
▁Kenites	-7795
▁Laodice	-7796
▁Maresha	-7797
▁Menahem	-7798
▁Meshech	-7799
▁Mishael	-7800
▁Pedaiah	-7801
▁Shammah	-7802
▁Shaphat	-7803
▁Timnath	-7804
▁Without	-7805
▁brigand	-7806
▁bruised	-7807
▁buylded	-7808
▁cheekes	-7809
▁cheweth	-7810
▁craftes	-7811
▁decreed	-7812
▁deuised	-7813
▁falling	-7814
▁feedeth	-7815
▁feeding	-7816
▁fetters	-7817
▁glutton	-7818
▁himself	-7819
▁lifteth	-7820
▁lifting	-7821
▁lighter	-7822
▁likenes	-7823
▁melteth	-7824
▁message	-7825
▁morsell	-7826
▁occupie	-7827
▁offices	-7828
▁offreth	-7829
▁plagued	-7830
▁possess	-7831
▁prayeth	-7832
▁priests	-7833
▁reddish	-7834
▁seekest	-7835
▁selleth	-7836
▁shewing	-7837
▁speache	-7838
▁stamped	-7839
▁surname	-7840
▁swarmes	-7841
▁terrour	-7842
▁thereat	-7843
▁twelfth	-7844
▁vesture	-7845
▁vintage	-7846
▁walkest	-7847
▁Captaine	-7848
▁Elisabet	-7849
▁Iebusite	-7850
▁Moreover	-7851
▁Neginoth	-7852
▁Nehemiah	-7853
▁Philippi	-7854
▁Zebadiah	-7855
▁abstaine	-7856
▁accursed	-7857
▁accusers	-7858
▁almondes	-7859
▁astrolog	-7860
▁auaileth	-7861
▁balances	-7862
▁betraied	-7863
▁buylding	-7864
▁carefull	-7865
▁clensing	-7866
▁defileth	-7867
▁disanull	-7868
▁embraced	-7869
▁escapeth	-7870
▁exalteth	-7871
▁examined	-7872
▁flourish	-7873
▁freedome	-7874
▁heardmen	-7875
▁naughtie	-7876
▁reasoned	-7877
▁repayred	-7878
▁reported	-7879
▁reprooue	-7880
▁resorted	-7881
▁sleepest	-7882
▁streames	-7883
▁stubburn	-7884
▁swallowe	-7885
▁teachest	-7886
▁timbrels	-7887
▁treadeth	-7888
▁vnicorne	-7889
▁wondered	-7890
▁Canaanite	-7891
▁Gileadite	-7892
▁Iehozadak	-7893
▁Sherebiah	-7894
▁aboundant	-7895
▁amendment	-7896
▁brotherly	-7897
▁calamitie	-7898
▁companies	-7899
▁deceiueth	-7900
▁dedicated	-7901
▁departeth	-7902
▁diligence	-7903
▁extortion	-7904
▁foreheads	-7905
▁honoureth	-7906
▁imagineth	-7907
▁incorrupt	-7908
▁measuring	-7909
▁offringes	-7910
▁otherwise	-7911
▁ouertooke	-7912
▁prolonged	-7913
▁protested	-7914
▁purifying	-7915
▁rewardeth	-7916
▁specially	-7917
▁spreadeth	-7918
▁tradition	-7919
▁treasurie	-7920
▁withdrawe	-7921
▁Aholibamah	-7922
▁Belshazzar	-7923
▁Ethiopians	-7924
▁Iehonathan	-7925
▁Mattithiah	-7926
▁Priesthood	-7927
▁blamelesse	-7928
▁commission	-7929
▁flattering	-7930
▁inchanters	-7931
▁infirmitie	-7932
▁kindenesse	-7933
▁marchantes	-7934
▁meditation	-7935
▁oppressour	-7936
▁ouerthrewe	-7937
▁preserueth	-7938
▁reconciled	-7939
▁reuelation	-7940
▁salutation	-7941
▁separation	-7942
▁seuenteene	-7943
▁soiourneth	-7944
▁thresshing	-7945
▁virginitie	-7946
▁contentious	-7947
▁deceitfully	-7948
▁enterprises	-7949
▁fiercenesse	-7950
▁recompensed	-7951
▁shepheardes	-7952
▁controuersie	-7953
▁drunkennesse	-7954
▁purification	-7955
▁vprightnesse	-7956
▁excommunicate	-7957
▁supplications	-7958
▁transgressour	-7959
,)	-7960
OR	-7961
da	-7962
yn	-7963
ORD	-7964
acc	-7965
als	-7966
bor	-7967
etr	-7968
ial	-7969
iud	-7970
lit	-7971
nui	-7972
ots	-7973
reb	-7974
rod	-7975
sus	-7976
uai	-7977
ugg	-7978
yri	-7979
zan	-7980
▁Bl	-7981
▁Cl	-7982
▁Id	-7983
▁Sc	-7984
▁ph	-7985
arce	-7986
asor	-7987
aude	-7988
bite	-7989
choh	-7990
eder	-7991
eine	-7992
gree	-7993
iect	-7994
illa	-7995
imus	-7996
irah	-7997
isho	-7998
ldad	-7999
ndef	-8000
pers	-8001
peth	-8002
rehe	-8003
riue	-8004
taol	-8005
then	-8006
tree	-8007
ynes	-8008
zeel	-8009
▁Ari	-8010
▁Aze	-8011
▁Cog	-8012
▁Eln	-8013
▁Gol	-8014
▁Him	-8015
▁Iew	-8016
▁Ker	-8017
▁Kid	-8018
▁Lud	-8019
▁Min	-8020
▁Nim	-8021
▁Ple	-8022
▁Res	-8023
▁Reu	-8024
▁Sab	-8025
▁Ste	-8026
▁Ter	-8027
▁Zar	-8028
▁Zil	-8029
▁Zop	-8030
▁apt	-8031
▁luc	-8032
▁pau	-8033
▁poy	-8034
▁rot	-8035
▁tos	-8036
▁tyd	-8037
▁tyr	-8038
▁vie	-8039
▁vnd	-8040
▁vow	-8041
achah	-8042
almes	-8043
amoth	-8044
ankes	-8045
asper	-8046
athah	-8047
elebr	-8048
eresh	-8049
inges	-8050
inner	-8051
intie	-8052
ishua	-8053
lenes	-8054
lines	-8055
rates	-8056
rofit	-8057
rones	-8058
saida	-8059
trees	-8060
ution	-8061
▁Ammi	-8062
▁Away	-8063
▁Elim	-8064
▁Enan	-8065
▁Girg	-8066
▁Iarm	-8067
▁KING	-8068
▁Lion	-8069
▁Mish	-8070
▁Neph	-8071
▁Noph	-8072
▁Oreb	-8073
▁Path	-8074
▁Peor	-8075
▁Pont	-8076
▁Shin	-8077
▁Tetr	-8078
▁Thin	-8079
▁Tola	-8080
▁Tych	-8081
▁Zebo	-8082
▁Zoan	-8083
▁axes	-8084
▁bite	-8085
▁chry	-8086
▁deep	-8087
▁dore	-8088
▁euid	-8089
▁gray	-8090
▁hart	-8091
▁hier	-8092
▁nose	-8093
▁onix	-8094
▁push	-8095
▁rans	-8096
▁rend	-8097
▁rush	-8098
▁slue	-8099
▁sory	-8100
▁spit	-8101
▁sung	-8102
▁twil	-8103
▁vnbe	-8104
▁vnre	-8105
▁wont	-8106
cement	-8107
cients	-8108
coniah	-8109
epharu	-8110
estina	-8111
haraim	-8112
headed	-8113
iatour	-8114
ifieth	-8115
ouring	-8116
tained	-8117
▁Enosh	-8118
▁Exalt	-8119
▁Holde	-8120
▁Iabin	-8121
▁Iamin	-8122
▁Iered	-8123
▁Ioabs	-8124
▁Lauer	-8125
▁Oliue	-8126
▁Pauls	-8127
▁Peleg	-8128
▁Seers	-8129
▁Seest	-8130
▁Shema	-8131
▁Three	-8132
▁abase	-8133
▁affir	-8134
▁baken	-8135
▁blame	-8136
▁bloud	-8137
▁brast	-8138
▁calme	-8139
▁caues	-8140
▁chest	-8141
▁cleft	-8142
▁condu	-8143
▁crowe	-8144
▁fayle	-8145
▁fined	-8146
▁flowe	-8147
▁fourt	-8148
▁heele	-8149
▁hyred	-8150
▁knife	-8151
▁lewde	-8152
▁lumpe	-8153
▁march	-8154
▁marri	-8155
▁mothe	-8156
▁paint	-8157
▁perte	-8158
▁plowe	-8159
▁rasor	-8160
▁renue	-8161
▁roome	-8162
▁ropes	-8163
▁saile	-8164
▁sharp	-8165
▁shooe	-8166
▁sitte	-8167
▁soles	-8168
▁solit	-8169
▁stall	-8170
▁storm	-8171
▁title	-8172
▁viall	-8173
▁vndef	-8174
▁voide	-8175
▁vomit	-8176
▁waken	-8177
▁winep	-8178
▁wiser	-8179
inently	-8180
sension	-8181
▁Abrams	-8182
▁Achbor	-8183
▁Arioch	-8184
▁Athens	-8185
▁Azekah	-8186
▁Caldea	-8187
▁Chalde	-8188
▁Dishon	-8189
▁Hereby	-8190
▁Kidron	-8191
▁Kishon	-8192
▁Laadan	-8193
▁Mercie	-8194
▁Penuel	-8195
▁Pisgah	-8196
▁Shilon	-8197
▁Simons	-8198
▁Stande	-8199
▁Steuen	-8200
▁Trueth	-8201
▁Zibeon	-8202
▁Zilpah	-8203
▁Zippor	-8204
▁aloude	-8205
▁aright	-8206
▁basins	-8207
▁bloody	-8208
▁blowen	-8209
▁bottom	-8210
▁boules	-8211
▁budded	-8212
▁celebr	-8213
▁cheere	-8214
▁comfor	-8215
▁courte	-8216
▁creepe	-8217
▁cuppes	-8218
▁curses	-8219
▁degree	-8220
▁dennes	-8221
▁deuise	-8222
▁expert	-8223
▁fasten	-8224
▁fields	-8225
▁fleeth	-8226
▁flocks	-8227
▁flower	-8228
▁heifer	-8229
▁hindes	-8230
▁kindes	-8231
▁marked	-8232
▁pinnes	-8233
▁pittes	-8234
▁poyson	-8235
▁priuie	-8236
▁profes	-8237
▁quiuer	-8238
▁raging	-8239
▁railed	-8240
▁rauens	-8241
▁reared	-8242
▁replen	-8243
▁reuiue	-8244
▁roddes	-8245
▁ruines	-8246
▁sauing	-8247
▁shined	-8248
▁sieled	-8249
▁signet	-8250
▁slayer	-8251
▁sorcer	-8252
▁stable	-8253
▁sticke	-8254
▁string	-8255
▁takest	-8256
▁thinne	-8257
▁tribut	-8258
▁vanish	-8259
▁vnwise	-8260
▁wolues	-8261
▁yeelde	-8262
lamation	-8263
▁Abiezer	-8264
▁Ahinoam	-8265
▁Command	-8266
▁Edomite	-8267
▁Eshtaol	-8268
▁Followe	-8269
▁Hauilah	-8270
▁Iarmuth	-8271
▁Othniel	-8272
▁Shimron	-8273
▁Shishak	-8274
▁Stretch	-8275
▁bestowe	-8276
▁bindeth	-8277
▁bottels	-8278
▁boundes	-8279
▁buckler	-8280
▁bullock	-8281
▁ceaseth	-8282
▁censers	-8283
▁delight	-8284
▁despite	-8285
▁discomf	-8286
▁dressed	-8287
▁drought	-8288
▁embrace	-8289
▁emerods	-8290
▁enlarge	-8291
▁esteeme	-8292
▁fifties	-8293
▁fishers	-8294
▁hasteth	-8295
▁hissing	-8296
▁ieopard	-8297
▁impouer	-8298
▁inwarde	-8299
▁nourish	-8300
▁noysome	-8301
▁numbred	-8302
▁obteine	-8303
▁outward	-8304
▁pacient	-8305
▁passing	-8306
▁patient	-8307
▁peoples	-8308
▁peruert	-8309
▁praises	-8310
▁pressed	-8311
▁prooued	-8312
▁quarter	-8313
▁rebukes	-8314
▁resteth	-8315
▁reuiued	-8316
▁saluted	-8317
▁separat	-8318
▁shaking	-8319
▁sittest	-8320
▁spakest	-8321
▁spotted	-8322
▁suburbs	-8323
▁teacher	-8324
▁telleth	-8325
▁tydings	-8326
▁venison	-8327
▁withall	-8328
▁wondred	-8329
▁zealous	-8330
according	-8331
nderstand	-8332
▁Assemble	-8333
▁Azmaueth	-8334
▁Elnathan	-8335
▁Haraphah	-8336
▁Ieconiah	-8337
▁Mareshah	-8338
▁Preacher	-8339
▁Tychicus	-8340
▁abounded	-8341
▁affaires	-8342
▁appeased	-8343
▁attained	-8344
▁beckened	-8345
▁beheaded	-8346
▁bitterly	-8347
▁breaches	-8348
▁bringest	-8349
▁certeine	-8350
▁deuideth	-8351
▁directed	-8352
▁diuorced	-8353
▁edifying	-8354
▁feasting	-8355
▁frowarde	-8356
▁gnashing	-8357
▁handmayd	-8358
▁heauines	-8359
▁intreate	-8360
▁laughter	-8361
▁liberall	-8362
▁mariners	-8363
▁moutaine	-8364
▁multiply	-8365
▁ornament	-8366
▁ouercame	-8367
▁ouerlayd	-8368
▁outwarde	-8369
▁pacified	-8370
▁prouided	-8371
▁quietnes	-8372
▁reacheth	-8373
▁religion	-8374
▁reuenues	-8375
▁satisfie	-8376
▁shutteth	-8377
▁sickenes	-8378
▁souldier	-8379
▁supposed	-8380
▁terrours	-8381
▁twilight	-8382
▁vnprofit	-8383
▁wherfore	-8384
▁Bethlehem	-8385
▁Corinthus	-8386
▁Mediatour	-8387
▁Palestina	-8388
▁Sanctifie	-8389
▁Westwarde	-8390
▁answering	-8391
▁beholdeth	-8392
▁bitternes	-8393
▁bountiful	-8394
▁bracelets	-8395
▁confessed	-8396
▁consented	-8397
▁contemned	-8398
▁deliuerer	-8399
▁drunkards	-8400
▁entreated	-8401
▁hypocrite	-8402
▁intreated	-8403
▁lightened	-8404
▁moutaines	-8405
▁oblations	-8406
▁ornaments	-8407
▁peaceable	-8408
▁perdition	-8409
▁persuaded	-8410
▁peruerted	-8411
▁prouision	-8412
▁purenesse	-8413
▁quickened	-8414
▁receiuing	-8415
▁refreshed	-8416
▁reproched	-8417
▁returneth	-8418
▁soiourner	-8419
▁supposing	-8420
▁thorowout	-8421
▁threshold	-8422
▁tormented	-8423
▁troubleth	-8424
▁vndefiled	-8425
▁vnlearned	-8426
▁witnessed	-8427
▁worshippe	-8428
▁Shechaniah	-8429
▁Shunammite	-8430
▁comforteth	-8431
▁condemnest	-8432
▁contention	-8433
▁diminished	-8434
▁dissension	-8435
▁enchanters	-8436
▁interprete	-8437
▁meekenesse	-8438
▁nakednesse	-8439
▁prophesied	-8440
▁prosperous	-8441
▁sickenesse	-8442
▁sprinkling	-8443
▁stubburnly	-8444
▁tentations	-8445
▁traueileth	-8446
▁vprightnes	-8447
▁whirlewind	-8448
▁withdrawen	-8449
▁Cherethites	-8450
▁blasphemies	-8451
▁couetousnes	-8452
▁diuorcement	-8453
▁exhortation	-8454
▁oppressours	-8455
▁prophecieth	-8456
▁prouocation	-8457
▁astrologians	-8458
▁comandements	-8459
▁disobedience	-8460
▁impouerished	-8461
▁tribulations	-8462
▁incontinently	-8463
▁transgressers	-8464
▁presumptuously	-8465
As	-8466
ER	-8467
ET	-8468
Wr	-8469
kn	-8470
lu	-8471
ave	-8472
bim	-8473
day	-8474
eeb	-8475
eso	-8476
him	-8477
ila	-8478
ita	-8479
kki	-8480
oms	-8481
rif	-8482
rud	-8483
see	-8484
sto	-8485
uis	-8486
unt	-8487
whe	-8488
wor	-8489
yne	-8490
zap	-8491
zib	-8492
▁CH	-8493
▁Cr	-8494
▁Em	-8495
▁Fe	-8496
▁Hy	-8497
▁Pr	-8498
▁ep	-8499
▁ps	-8500
▁ry	-8501
▁tu	-8502
▁va	-8503
aite	-8504
alah	-8505
aleh	-8506
aned	-8507
arib	-8508
arne	-8509
asah	-8510
aste	-8511
atio	-8512
auah	-8513
ault	-8514
eded	-8515
enie	-8516
fall	-8517
fare	-8518
fers	-8519
glah	-8520
hail	-8521
hiah	-8522
iana	-8523
isie	-8524
like	-8525
moth	-8526
phni	-8527
pper	-8528
pses	-8529
roas	-8530
rote	-8531
rous	-8532
shed	-8533
stru	-8534
ular	-8535
umbe	-8536
urah	-8537
▁Aqu	-8538
▁Aru	-8539
▁Bak	-8540
▁Bea	-8541
▁Bin	-8542
▁Buz	-8543
▁Car	-8544
▁Cep	-8545
▁Che	-8546
▁Gem	-8547
▁Gen	-8548
▁Gid	-8549
▁Hes	-8550
▁Inc	-8551
▁Kib	-8552
▁Lea	-8553
▁Lyd	-8554
▁Meh	-8555
▁Mib	-8556
▁Mik	-8557
▁Mis	-8558
▁Nob	-8559
▁Pir	-8560
▁Pot	-8561
▁Pro	-8562
▁Rea	-8563
▁Sir	-8564
▁Tan	-8565
▁Tou	-8566
▁aun	-8567
▁dip	-8568
▁elo	-8569
▁far	-8570
▁hun	-8571
▁ins	-8572
▁key	-8573
▁mul	-8574
▁smo	-8575
▁sow	-8576
▁toe	-8577
▁wou	-8578
▁yel	-8579
▁yer	-8580
▁yle	-8581
abbok	-8582
agger	-8583
ahiah	-8584
almai	-8585
andra	-8586
aphim	-8587
ashub	-8588
eling	-8589
emoth	-8590
eteth	-8591
ilion	-8592
kiiah	-8593
liath	-8594
oenai	-8595
omage	-8596
onica	-8597
ortun	-8598
outes	-8599
owned	-8600
pelah	-8601
perse	-8602
reeke	-8603
rikam	-8604
rites	-8605
shean	-8606
uance	-8607
uedge	-8608
upisc	-8609
wares	-8610
worke	-8611
yrene	-8612
▁Abib	-8613
▁Ahio	-8614
▁Azel	-8615
▁Chan	-8616
▁Doeg	-8617
▁Esht	-8618
▁Fill	-8619
▁Fiue	-8620
▁Hall	-8621
▁Hide	-8622
▁Iael	-8623
▁Icon	-8624
▁Lyst	-8625
▁Noth	-8626
▁Ones	-8627
▁Shep	-8628
▁Stay	-8629
▁Syrs	-8630
▁Taan	-8631
▁Tish	-8632
▁Zeeb	-8633
▁acte	-8634
▁acts	-8635
▁army	-8636
▁arte	-8637
▁bath	-8638
▁bill	-8639
▁bird	-8640
▁bree	-8641
▁clap	-8642
▁coat	-8643
▁cock	-8644
▁craf	-8645
▁dare	-8646
▁diso	-8647
▁doer	-8648
▁exto	-8649
▁fare	-8650
▁felt	-8651
▁flat	-8652
▁fret	-8653
▁gour	-8654
▁gush	-8655
▁humb	-8656
▁inte	-8657
▁knee	-8658
▁laie	-8659
▁legs	-8660
▁lent	-8661
▁lien	-8662
▁list	-8663
▁lots	-8664
▁lyen	-8665
▁mete	-8666
▁mixt	-8667
▁mote	-8668
▁okes	-8669
▁puff	-8670
▁rawe	-8671
▁roud	-8672
▁scra	-8673
▁seat	-8674
▁seed	-8675
▁skab	-8676
▁skie	-8677
▁slau	-8678
▁swim	-8679
▁thic	-8680
▁tops	-8681
▁tyed	-8682
▁vale	-8683
▁whit	-8684
▁wist	-8685
aphtor	-8686
earely	-8687
hinnom	-8688
holden	-8689
isance	-8690
laleel	-8691
olence	-8692
urings	-8693
ydered	-8694
yrians	-8695
zaphan	-8696
▁Abiah	-8697
▁Abide	-8698
▁Achan	-8699
▁Arpad	-8700
▁Bebai	-8701
▁Bisho	-8702
▁Child	-8703
▁Enter	-8704
▁Epaph	-8705
▁Ezion	-8706
▁Gedor	-8707
▁Gihon	-8708
▁Gomer	-8709
▁Iauan	-8710
▁Iehud	-8711
▁Ioses	-8712
▁Kenan	-8713
▁Litle	-8714
▁Media	-8715
▁Micah	-8716
▁Other	-8717
▁Prisc	-8718
▁Share	-8719
▁Tarie	-8720
▁Timna	-8721
▁Troas	-8722
▁added	-8723
▁appea	-8724
▁bedde	-8725
▁boyle	-8726
▁bucke	-8727
▁camel	-8728
▁charg	-8729
▁chari	-8730
▁corps	-8731
▁custo	-8732
▁delic	-8733
▁dette	-8734
▁didst	-8735
▁disqu	-8736
▁disse	-8737
▁draue	-8738
▁egges	-8739
▁euils	-8740
▁exped	-8741
▁fifty	-8742
▁flatt	-8743
▁flint	-8744
▁fourb	-8745
▁frost	-8746
▁groud	-8747
▁hoare	-8748
▁knops	-8749
▁laded	-8750
▁lambs	-8751
▁licke	-8752
▁lucre	-8753
▁lusts	-8754
▁nauie	-8755
▁nephe	-8756
▁pence	-8757
▁penie	-8758
▁pilgr	-8759
▁poynt	-8760
▁quare	-8761
▁quite	-8762
▁relie	-8763
▁scorp	-8764
▁seuer	-8765
▁shead	-8766
▁sheep	-8767
▁shone	-8768
▁sland	-8769
▁taile	-8770
▁theft	-8771
▁vayle	-8772
▁wares	-8773
▁warri	-8774
▁wedge	-8775
▁wolfe	-8776
▁wring	-8777
▁yssue	-8778
Written	-8779
alities	-8780
alonica	-8781
esoeuer	-8782
holdeth	-8783
leeuing	-8784
manship	-8785
stading	-8786
ulation	-8787
ushelah	-8788
whether	-8789
▁Ammiel	-8790
▁Aquila	-8791
▁Asaiah	-8792
▁Biguai	-8793
▁Binnui	-8794
▁Caesar	-8795
▁Cephas	-8796
▁Cyrene	-8797
▁Eshcol	-8798
▁Gouern	-8799
▁Hanoch	-8800
▁Iabbok	-8801
▁Ioktan	-8802
▁Massah	-8803
▁Naioth	-8804
▁Pahath	-8805
▁Pirath	-8806
▁Sharon	-8807
▁Shinar	-8808
▁Sweare	-8809
▁Tahath	-8810
▁Talmai	-8811
▁Timnah	-8812
▁Wicked	-8813
▁abased	-8814
▁abated	-8815
▁barnes	-8816
▁befall	-8817
▁canker	-8818
▁careth	-8819
▁choked	-8820
▁detest	-8821
▁dishes	-8822
▁ditche	-8823
▁diuine	-8824
▁estate	-8825
▁faires	-8826
▁feasts	-8827
▁footed	-8828
▁forced	-8829
▁gained	-8830
▁garmet	-8831
▁glasse	-8832
▁grates	-8833
▁grinde	-8834
▁halowe	-8835
▁hasten	-8836
▁heeles	-8837
▁hewers	-8838
▁ioyous	-8839
▁kiddes	-8840
▁lepers	-8841
▁lights	-8842
▁liuely	-8843
▁longed	-8844
▁maimed	-8845
▁mandra	-8846
▁manifo	-8847
▁nailes	-8848
▁owners	-8849
▁partly	-8850
▁plaied	-8851
▁plants	-8852
▁pooles	-8853
▁prefer	-8854
▁preser	-8855
▁prooue	-8856
▁punish	-8857
▁reache	-8858
▁remain	-8859
▁roared	-8860
▁saiest	-8861
▁sayled	-8862
▁scales	-8863
▁sheafe	-8864
▁skirts	-8865
▁sodden	-8866
▁spouse	-8867
▁stanke	-8868
▁stoppe	-8869
▁submit	-8870
▁swords	-8871
▁tailes	-8872
▁taskem	-8873
▁tenons	-8874
▁thorne	-8875
▁throte	-8876
▁thumbe	-8877
▁timbre	-8878
▁tossed	-8879
▁vncles	-8880
▁whelpe	-8881
▁whorem	-8882
▁whores	-8883
▁window	-8884
bernesse	-8885
▁Against	-8886
▁Ahiezer	-8887
▁Ancient	-8888
▁Aramite	-8889
▁Azrikam	-8890
▁Besides	-8891
▁Caphtor	-8892
▁Chittim	-8893
▁Dearely	-8894
▁Delaiah	-8895
▁Delilah	-8896
▁Galatia	-8897
▁Girgash	-8898
▁Goliath	-8899
▁Hosanna	-8900
▁Iconium	-8901
▁Iediael	-8902
▁Malluch	-8903
▁Michtam	-8904
▁Nothing	-8905
▁Psalmes	-8906
▁Receiue	-8907
▁Rephaim	-8908
▁Romanes	-8909
▁Sepharu	-8910
▁Shammai	-8911
▁Tappuah	-8912
▁Whereof	-8913
▁account	-8914
▁approch	-8915
▁arriued	-8916
▁assault	-8917
▁behalfe	-8918
▁besomes	-8919
▁bloweth	-8920
▁brakest	-8921
▁certain	-8922
▁cloudie	-8923
▁commune	-8924
▁confirm	-8925
▁corpses	-8926
▁crowned	-8927
▁cutteth	-8928
▁defende	-8929
▁dispute	-8930
▁drowned	-8931
▁emptied	-8932
▁encline	-8933
▁endured	-8934
▁enuious	-8935
▁enuying	-8936
▁examine	-8937
▁fearest	-8938
▁feruent	-8939
▁figtree	-8940
▁fleshho	-8941
▁flowing	-8942
▁founder	-8943
▁furious	-8944
▁ghestes	-8945
▁glitter	-8946
▁instant	-8947
▁kinreds	-8948
▁leaueth	-8949
▁longeth	-8950
▁maidens	-8951
▁manslay	-8952
▁mocketh	-8953
▁mortall	-8954
▁needeth	-8955
▁outside	-8956
▁platter	-8957
▁playing	-8958
▁pottage	-8959
▁preasse	-8960
▁presses	-8961
▁proclay	-8962
▁prouide	-8963
▁raiseth	-8964
▁ransome	-8965
▁reading	-8966
▁resting	-8967
▁robbers	-8968
▁seruing	-8969
▁shields	-8970
▁showres	-8971
▁slayeth	-8972
▁sorrowe	-8973
▁staires	-8974
▁stormie	-8975
▁suffice	-8976
▁swallow	-8977
▁thanked	-8978
▁thrones	-8979
▁throwen	-8980
▁twinnes	-8981
▁violent	-8982
▁vnwares	-8983
▁wandred	-8984
▁whisper	-8985
▁wisedom	-8986
▁withsto	-8987
▁woundes	-8988
▁wrethen	-8989
upiscence	-8990
▁Aholibah	-8991
▁Although	-8992
▁Aminadab	-8993
▁Arabians	-8994
▁Edomites	-8995
▁Eliasaph	-8996
▁Elioenai	-8997
▁Hazeroth	-8998
▁Herodias	-8999
▁Ieshaiah	-9000
▁Laodicea	-9001
▁Meraioth	-9002
▁Persians	-9003
▁Temanite	-9004
▁Teraphim	-9005
▁Tishbite	-9006
▁Zarhites	-9007
▁backward	-9008
▁beguiled	-9009
▁belonged	-9010
▁benefite	-9011
▁betrayed	-9012
▁blasting	-9013
▁breeches	-9014
▁buildest	-9015
▁caldrons	-9016
▁chastise	-9017
▁cleansed	-9018
▁clusters	-9019
▁comitted	-9020
▁compared	-9021
▁comprehe	-9022
▁conceite	-9023
▁contrite	-9024
▁defensed	-9025
▁disperse	-9026
▁election	-9027
▁enlarged	-9028
▁expelled	-9029
▁facioned	-9030
▁fainteth	-9031
▁faithful	-9032
▁fighting	-9033
▁furrowes	-9034
▁godlines	-9035
▁honoured	-9036
▁horrible	-9037
▁hundreds	-9038
▁marueile	-9039
▁meekenes	-9040
▁midwiues	-9041
▁mourneth	-9042
▁mulberie	-9043
▁networke	-9044
▁offences	-9045
▁perswade	-9046
▁plaister	-9047
▁praysing	-9048
▁processe	-9049
▁prospect	-9050
▁rebuketh	-9051
▁refuseth	-9052
▁reteined	-9053
▁robberie	-9054
▁scourged	-9055
▁seluedge	-9056
▁standart	-9057
▁standest	-9058
▁sufficed	-9059
▁susteine	-9060
▁trustest	-9061
▁weakened	-9062
▁weightes	-9063
▁Alexander	-9064
▁Assyrians	-9065
▁Beelzebub	-9066
▁Bethsaida	-9067
▁Carmelite	-9068
▁Chaldeans	-9069
▁Elimelech	-9070
▁Gouernour	-9071
▁Iehohanan	-9072
▁Machpelah	-9073
▁Nathanael	-9074
▁Sanctuary	-9075
▁Shebaniah	-9076
▁approched	-9077
▁beleeuest	-9078
▁broydered	-9079
▁celebrate	-9080
▁chastened	-9081
▁chastised	-9082
▁commended	-9083
▁complaint	-9084
▁consuming	-9085
▁darknesse	-9086
▁demaunded	-9087
▁expedient	-9088
▁expounded	-9089
▁fourtenth	-9090
▁giltlesse	-9091
▁household	-9092
▁maintaine	-9093
▁mandrakes	-9094
▁obeisance	-9095
▁obstinate	-9096
▁oppressor	-9097
▁ostriches	-9098
▁preuented	-9099
▁profiteth	-9100
▁reconcile	-9101
▁remayneth	-9102
▁requireth	-9103
▁searcheth	-9104
▁soiourned	-9105
▁solitarie	-9106
▁violently	-9107
▁withstand	-9108
▁Gibeonites	-9109
▁Hebronites	-9110
▁Kiriathaim	-9111
▁Mahalaleel	-9112
▁Moabitesse	-9113
▁Pelethites	-9114
▁Samaritans	-9115
▁arrogancie	-9116
▁brigandine	-9117
▁condemneth	-9118
▁counseller	-9119
▁countreyes	-9120
▁destroyers	-9121
▁fauourable	-9122
▁genealogie	-9123
▁ignorantly	-9124
▁innocencie	-9125
▁murmurings	-9126
▁perfourmed	-9127
▁pertaineth	-9128
▁restrained	-9129
▁scornefull	-9130
▁stedfastly	-9131
▁testifieth	-9132
▁winepresse	-9133
▁Cogregation	-9134
▁Methushelah	-9135
▁Prophetesse	-9136
▁consecrated	-9137
▁constrained	-9138
▁continuance	-9139
▁discomfited	-9140
▁discouereth	-9141
▁furthermore	-9142
▁liberalitie	-9143
▁necessities	-9144
▁persecuters	-9145
▁persecutest	-9146
▁preparation	-9147
▁similitudes	-9148
▁sweetenesse	-9149
▁tributaries	-9150
▁vnbeleeuing	-9151
▁wonderfully	-9152
▁worshippeth	-9153
▁Thessalonica	-9154
▁ambassadours	-9155
▁euilfauoured	-9156
▁immortalitie	-9157
▁insurrection	-9158
▁maliciousnes	-9159
▁proclamation	-9160
▁stubbernesse	-9161
▁taskemasters	-9162
▁vnprofitable	-9163
▁concupiscence	-9164
▁consecrations	-9165
▁faithfulnesse	-9166
▁vnderstandest	-9167
▁bountifulnesse	-9168
▁transgressours	-9169
AR	-9170
EN	-9171
gu	-9172
mp	-9173
po	-9174
ETH	-9175
IST	-9176
aah	-9177
act	-9178
ara	-9179
avl	-9180
azz	-9181
baz	-9182
bun	-9183
cia	-9184
gge	-9185
gob	-9186
iui	-9187
kod	-9188
lia	-9189
lly	-9190
mbe	-9191
nal	-9192
neh	-9193
pin	-9194
rea	-9195
set	-9196
whi	-9197
▁Bi	-9198
▁Oc	-9199
▁Oz	-9200
▁Sa	-9201
RIST	-9202
When	-9203
agog	-9204
alie	-9205
atto	-9206
azim	-9207
bels	-9208
bred	-9209
cken	-9210
cust	-9211
deme	-9212
edom	-9213
edor	-9214
elsp	-9215
emoa	-9216
erez	-9217
eser	-9218
ezer	-9219
ffed	-9220
heba	-9221
ichr	-9222
idim	-9223
iken	-9224
ilie	-9225
ioth	-9226
isse	-9227
itiz	-9228
liel	-9229
lles	-9230
math	-9231
mend	-9232
odie	-9233
ofes	-9234
oice	-9235
oues	-9236
oute	-9237
pher	-9238
plex	-9239
rets	-9240
ruit	-9241
sias	-9242
ubah	-9243
uert	-9244
umah	-9245
uour	-9246
▁Ain	-9247
▁Alm	-9248
▁Bah	-9249
▁Buy	-9250
▁Cou	-9251
▁Cry	-9252
▁Des	-9253
▁Dis	-9254
▁Geb	-9255
▁Gun	-9256
▁Hiz	-9257
▁IES	-9258
▁Ian	-9259
▁Iez	-9260
▁Kor	-9261
▁May	-9262
▁Mol	-9263
▁Mor	-9264
▁Ono	-9265
▁Pag	-9266
▁Pam	-9267
▁Pur	-9268
▁Rah	-9269
▁Riz	-9270
▁Sac	-9271
▁Sen	-9272
▁Zan	-9273
▁Zem	-9274
▁Zid	-9275
▁Zor	-9276
▁ado	-9277
▁ago	-9278
▁ash	-9279
▁auo	-9280
▁dia	-9281
▁eng	-9282
▁esp	-9283
▁fra	-9284
▁gle	-9285
▁hil	-9286
▁log	-9287
▁neg	-9288
▁nur	-9289
▁pul	-9290
▁rud	-9291
▁str	-9292
▁sun	-9293
▁sur	-9294
▁vap	-9295
▁vip	-9296
▁vol	-9297
aauah	-9298
aired	-9299
amite	-9300
aping	-9301
arche	-9302
areel	-9303
asses	-9304
atios	-9305
auers	-9306
brand	-9307
domes	-9308
edeba	-9309
edeur	-9310
emets	-9311
erahs	-9312
erous	-9313
estie	-9314
giuer	-9315
iarib	-9316
icane	-9317
ifter	-9318
imath	-9319
imshi	-9320
innah	-9321
inous	-9322
lands	-9323
lated	-9324
longs	-9325
luded	-9326
nding	-9327
nites	-9328
odach	-9329
ouing	-9330
ously	-9331
owers	-9332
pheus	-9333
raung	-9334
stall	-9335
thaim	-9336
thewe	-9337
uants	-9338
uiour	-9339
umiel	-9340
ushim	-9341
whome	-9342
▁Adin	-9343
▁Aiah	-9344
▁Arad	-9345
▁Ater	-9346
▁Bart	-9347
▁Cain	-9348
▁Came	-9349
▁Cand	-9350
▁Chry	-9351
▁Clau	-9352
▁Dodo	-9353
▁Doth	-9354
▁Eate	-9355
▁Etam	-9356
▁Euph	-9357
▁Frie	-9358
▁Gall	-9359
▁Hach	-9360
▁Hakk	-9361
▁Lawy	-9362
▁Liui	-9363
▁Mith	-9364
▁Moza	-9365
▁Obey	-9366
▁Omer	-9367
▁Pavl	-9368
▁Reph	-9369
▁Sara	-9370
▁Sard	-9371
▁Shee	-9372
▁Shen	-9373
▁Shew	-9374
▁Sone	-9375
▁Tary	-9376
▁Teko	-9377
▁Tema	-9378
▁Tham	-9379
▁Them	-9380
▁Word	-9381
▁Zuar	-9382
▁agoe	-9383
▁blue	-9384
▁case	-9385
▁cher	-9386
▁circ	-9387
▁cous	-9388
▁cups	-9389
▁dipt	-9390
▁dram	-9391
▁dreg	-9392
▁fade	-9393
▁fist	-9394
▁frog	-9395
▁grud	-9396
▁heed	-9397
▁hyre	-9398
▁iest	-9399
▁lyce	-9400
▁mill	-9401
▁oper	-9402
▁opin	-9403
▁peny	-9404
▁plan	-9405
▁race	-9406
▁rene	-9407
▁roes	-9408
▁scab	-9409
▁self	-9410
▁slow	-9411
▁spet	-9412
▁stou	-9413
▁stud	-9414
▁suck	-9415
▁swal	-9416
▁targ	-9417
▁tied	-9418
▁trim	-9419
▁vnkn	-9420
▁vnse	-9421
archus	-9422
atchet	-9423
bethon	-9424
buncle	-9425
gabond	-9426
initie	-9427
iracie	-9428
laomer	-9429
odemus	-9430
othite	-9431
panhes	-9432
pereth	-9433
phelet	-9434
rimmon	-9435
seeing	-9436
shatha	-9437
urable	-9438
▁Achor	-9439
▁Admah	-9440
▁Ahira	-9441
▁Argob	-9442
▁Arist	-9443
▁Assir	-9444
▁Bakbu	-9445
▁Being	-9446
▁Bezer	-9447
▁Blowe	-9448
▁Bukki	-9449
▁Deuel	-9450
▁Diana	-9451
▁Doest	-9452
▁Ebrew	-9453
▁Elath	-9454
▁Ephes	-9455
▁Feede	-9456
▁Girde	-9457
▁Gomor	-9458
▁Gozan	-9459
▁Haste	-9460
▁Helez	-9461
▁Helon	-9462
▁Helpe	-9463
▁Iason	-9464
▁Iesse	-9465
▁Iezer	-9466
▁Issha	-9467
▁Isshi	-9468
▁Leahs	-9469
▁Libni	-9470
▁Lotan	-9471
▁Magog	-9472
▁Manna	-9473
▁Marah	-9474
▁Ocran	-9475
▁Pallu	-9476
▁Perez	-9477
▁Purim	-9478
▁Rekem	-9479
▁Right	-9480
▁Serug	-9481
▁Shaal	-9482
▁Shuah	-9483
▁Shuth	-9484
▁Tekoa	-9485
▁Wised	-9486
▁Zered	-9487
▁agree	-9488
▁alter	-9489
▁apper	-9490
▁aswel	-9491
▁balme	-9492
▁basen	-9493
▁baths	-9494
▁beneu	-9495
▁blade	-9496
▁brute	-9497
▁certe	-9498
▁citiz	-9499
▁comit	-9500
▁copie	-9501
▁corde	-9502
▁crewe	-9503
▁damme	-9504
▁decay	-9505
▁delay	-9506
▁dogge	-9507
▁doted	-9508
▁esche	-9509
▁excus	-9510
▁exper	-9511
▁fetch	-9512
▁freat	-9513
▁fresh	-9514
▁giuer	-9515
▁grope	-9516
▁haber	-9517
▁harde	-9518
▁hauen	-9519
▁heade	-9520
▁hooke	-9521
▁hoped	-9522
▁iawes	-9523
▁inord	-9524
▁inuis	-9525
▁ioynt	-9526
▁lende	-9527
▁maine	-9528
▁matto	-9529
▁mette	-9530
▁milde	-9531
▁music	-9532
▁nayle	-9533
▁needy	-9534
▁nette	-9535
▁nober	-9536
▁othes	-9537
▁pract	-9538
▁print	-9539
▁psalt	-9540
▁redde	-9541
▁rocks	-9542
▁rolle	-9543
▁serge	-9544
▁shaft	-9545
▁shape	-9546
▁simpl	-9547
▁skirt	-9548
▁slaie	-9549
▁sores	-9550
▁terme	-9551
▁tombe	-9552
▁truth	-9553
▁vials	-9554
▁vnpun	-9555
▁vntem	-9556
▁welsp	-9557
▁wrapt	-9558
athites	-9559
chishua	-9560
iamites	-9561
ichrist	-9562
isement	-9563
medatha	-9564
perscri	-9565
struous	-9566
▁Abiiam	-9567
▁Achsah	-9568
▁Ahilud	-9569
▁Aholah	-9570
▁Aialon	-9571
▁Baalah	-9572
▁Becher	-9573
▁Bethel	-9574
▁Bildad	-9575
▁Bishop	-9576
▁CHRIST	-9577
▁Chedor	-9578
▁Dishan	-9579
▁Elizur	-9580
▁Grecia	-9581
▁Greeke	-9582
▁Heauen	-9583
▁Herein	-9584
▁Hesron	-9585
▁Hinnom	-9586
▁Hophni	-9587
▁Iashub	-9588
▁Italie	-9589
▁Kenite	-9590
▁Lystra	-9591
▁Medeba	-9592
▁Naamah	-9593
▁Nahath	-9594
▁Nimshi	-9595
▁Pagiel	-9596
▁Parosh	-9597
▁Raamah	-9598
▁Rahels	-9599
▁Romane	-9600
▁Shebna	-9601
▁Talmon	-9602
▁Tarsus	-9603
▁Thinke	-9604
▁Zalmon	-9605
▁aduise	-9606
▁ambush	-9607
▁askest	-9608
▁asking	-9609
▁assist	-9610
▁bottel	-9611
▁bruise	-9612
▁builte	-9613
▁causes	-9614
▁censer	-9615
▁censor	-9616
▁chawes	-9617
▁choose	-9618
▁cister	-9619
▁clouen	-9620
▁commod	-9621
▁cornet	-9622
▁couert	-9623
▁courts	-9624
▁cryest	-9625
▁danger	-9626
▁dartes	-9627
▁daubed	-9628
▁deadly	-9629
▁debate	-9630
▁decked	-9631
▁defrau	-9632
▁disall	-9633
▁domage	-9634
▁droppe	-9635
▁during	-9636
▁eyther	-9637
▁fables	-9638
▁fadeth	-9639
▁fatnes	-9640
▁fayled	-9641
▁figure	-9642
▁foldes	-9643
▁fortes	-9644
▁gentle	-9645
▁gerahs	-9646
▁graine	-9647
▁graued	-9648
▁hailes	-9649
▁hearth	-9650
▁hedged	-9651
▁hedges	-9652
▁hidest	-9653
▁hunter	-9654
▁infide	-9655
▁kniues	-9656
▁ledges	-9657
▁locust	-9658
▁madnes	-9659
▁marble	-9660
▁market	-9661
▁mayden	-9662
▁midday	-9663
▁narowe	-9664
▁neerer	-9665
▁nestes	-9666
▁obeied	-9667
▁paines	-9668
▁partic	-9669
▁partie	-9670
▁pearce	-9671
▁physic	-9672
▁plowed	-9673
▁porter	-9674
▁puffed	-9675
▁reaped	-9676
▁rebels	-9677
▁renued	-9678
▁reuile	-9679
▁salted	-9680
▁saueth	-9681
▁seales	-9682
▁skomme	-9683
▁softly	-9684
▁sortes	-9685
▁sprong	-9686
▁storke	-9687
▁towers	-9688
▁triall	-9689
▁valued	-9690
▁vipers	-9691
▁vndone	-9692
▁warmed	-9693
▁warred	-9694
▁whelps	-9695
▁wholly	-9696
▁wollen	-9697
ckenesse	-9698
plexitie	-9699
ruitfull	-9700
▁Abihail	-9701
▁Abishag	-9702
▁Abishua	-9703
▁Agagite	-9704
▁Aholiab	-9705
▁Alpheus	-9706
▁Ammihud	-9707
▁Archite	-9708
▁Bahurim	-9709
▁Comfort	-9710
▁Gamliel	-9711
▁Gideoni	-9712
▁Haggith	-9713
▁Hattush	-9714
▁Ioiarib	-9715
▁Iozadak	-9716
▁Ishmeel	-9717
▁Kibroth	-9718
▁Mizraim	-9719
▁Neyther	-9720
▁Pathros	-9721
▁Shammua	-9722
▁Shedeur	-9723
▁Sheshan	-9724
▁Shuhite	-9725
▁Taanach	-9726
▁Thummim	-9727
▁Whereby	-9728
▁Withdra	-9729
▁abounde	-9730
▁aduance	-9731
▁ariseth	-9732
▁attaine	-9733
▁bellies	-9734
▁betraie	-9735
▁bloodie	-9736
▁brestes	-9737
▁causest	-9738
▁ceasing	-9739
▁charges	-9740
▁cheines	-9741
▁chiefly	-9742
▁childes	-9743
▁cluster	-9744
▁commade	-9745
▁compare	-9746
▁conuert	-9747
▁deferre	-9748
▁demaund	-9749
▁detters	-9750
▁deuises	-9751
▁diademe	-9752
▁diggeth	-9753
▁dregges	-9754
▁dropped	-9755
▁euident	-9756
▁eunuche	-9757
▁flankes	-9758
▁fleshly	-9759
▁girdles	-9760
▁grauing	-9761
▁hangeth	-9762
▁inuaded	-9763
▁inwards	-9764
▁killing	-9765
▁lasteth	-9766
▁leaping	-9767
▁leopard	-9768
▁leprous	-9769
▁markets	-9770
▁meaneth	-9771
▁midwife	-9772
▁mockers	-9773
▁mocking	-9774
▁morsels	-9775
▁musicke	-9776
▁offende	-9777
▁ouertur	-9778
▁painted	-9779
▁passage	-9780
▁pastors	-9781
▁plantes	-9782
▁praiers	-9783
▁proudly	-9784
▁puttest	-9785
▁reached	-9786
▁regions	-9787
▁remayne	-9788
▁rendred	-9789
▁renoume	-9790
▁reueile	-9791
▁rewards	-9792
▁roughly	-9793
▁ruinous	-9794
▁sauiour	-9795
▁sentest	-9796
▁signets	-9797
▁skirtes	-9798
▁slander	-9799
▁smiting	-9800
▁smoking	-9801
▁smoothe	-9802
▁spareth	-9803
▁strager	-9804
▁straung	-9805
▁streame	-9806
▁strokes	-9807
▁strooke	-9808
▁superfl	-9809
▁swarest	-9810
▁swifter	-9811
▁tarying	-9812
▁thistle	-9813
▁threede	-9814
▁turnest	-9815
▁tyrants	-9816
▁vantage	-9817
▁waiting	-9818
▁watches	-9819
▁weauers	-9820
▁yeelded	-9821
▁Absaloms	-9822
▁Children	-9823
▁Eshtemoa	-9824
▁Gemariah	-9825
▁Iahaziel	-9826
▁Ieshimon	-9827
▁Matthewe	-9828
▁Pelatiah	-9829
▁Rehabiah	-9830
▁Rephidim	-9831
▁Sharezer	-9832
▁Strength	-9833
▁Tetrarch	-9834
▁Thinkest	-9835
▁Wisedome	-9836
▁abundant	-9837
▁accompan	-9838
▁auncient	-9839
▁blesseth	-9840
▁boasting	-9841
▁bringing	-9842
▁certifie	-9843
▁conceale	-9844
▁confeder	-9845
▁conteine	-9846
▁contemne	-9847
▁contende	-9848
▁couldest	-9849
▁counteth	-9850
▁customes	-9851
▁declined	-9852
▁defenced	-9853
▁depriued	-9854
▁desirous	-9855
▁droppeth	-9856
▁exercise	-9857
▁fiftieth	-9858
▁fighteth	-9859
▁figtrees	-9860
▁fornicat	-9861
▁fourtene	-9862
▁friendly	-9863
▁fruitful	-9864
▁furlongs	-9865
▁garisons	-9866
▁graunted	-9867
▁grounded	-9868
▁handmaid	-9869
▁hireling	-9870
▁honestly	-9871
▁inclined	-9872
▁iniquity	-9873
▁marriage	-9874
▁obserued	-9875
▁obtained	-9876
▁ordeyned	-9877
▁ouerseer	-9878
▁passages	-9879
▁pauilion	-9880
▁pitchers	-9881
▁pitifull	-9882
▁planteth	-9883
▁preassed	-9884
▁priestes	-9885
▁priuilie	-9886
▁pursuers	-9887
▁pursuing	-9888
▁rehearse	-9889
▁repaired	-9890
▁resisted	-9891
▁saluteth	-9892
▁sedition	-9893
▁sheepefo	-9894
▁slaunder	-9895
▁sleeping	-9896
▁snuffers	-9897
▁sounding	-9898
▁stirreth	-9899
▁stricken	-9900
▁stringes	-9901
▁thistles	-9902
▁threshed	-9903
▁vagabond	-9904
▁villenie	-9905
▁vnfained	-9906
▁vnknowen	-9907
▁vttereth	-9908
▁watching	-9909
▁willowes	-9910
▁Chenaanah	-9911
▁Eliphelet	-9912
▁Euphrates	-9913
▁Gibbethon	-9914
▁Isshachar	-9915
▁Liuiathan	-9916
▁Malchiiah	-9917
▁Merciseat	-9918
▁Nicodemus	-9919
▁Priscilla	-9920
▁Righteous	-9921
▁Shelumiel	-9922
▁Shilonite	-9923
▁Sidonians	-9924
▁Thessalon	-9925
▁Tirshatha	-9926
▁accepteth	-9927
▁affinitie	-9928
▁aforetime	-9929
▁assuredly	-9930
▁behauiour	-9931
▁continual	-9932
▁deceiuers	-9933
▁deuouring	-9934
▁doctrines	-9935
▁eightenth	-9936
▁ensamples	-9937
▁exhorting	-9938
▁firebrand	-9939
▁followers	-9940
▁forgiuing	-9941
▁forsaketh	-9942
▁forsaking	-9943
▁garnished	-9944
▁honorable	-9945
▁idolaters	-9946
▁ieopardie	-9947
▁incourage	-9948
▁inferiour	-9949
▁inherited	-9950
▁inuisible	-9951
▁manifolde	-9952
▁manslayer	-9953
▁miserable	-9954
▁murmuring	-9955
▁obserueth	-9956
▁ouerseers	-9957
▁prouender	-9958
▁prouoking	-9959
▁purchased	-9960
▁rehearsed	-9961
▁reprooued	-9962
▁spreading	-9963
▁subtiltie	-9964
▁superscri	-9965
▁thereupon	-9966
▁valuation	-9967
▁vanisheth	-9968
▁vncorrupt	-9969
▁welspring	-9970
▁whoremong	-9971
▁Antichrist	-9972
▁Beniamites	-9973
▁Geshurites	-9974
▁Malchishua	-9975
▁Sepharuaim	-9976
▁adulteries	-9977
▁affections	-9978
▁beforetime	-9979
▁chargeable	-9980
▁comforters	-9981
▁compassing	-9982
▁confesseth	-9983
▁constantly	-9984
▁conuersant	-9985
▁descending	-9986
▁destroyest	-9987
▁disanulled	-9988
▁effectuall	-9989
▁eighteenth	-9990
▁encouraged	-9991
▁flattereth	-9992
▁fourbished	-9993
▁fruitefull	-9994
▁hypocrisie	-9995
▁necessarie	-9996
▁peruerteth	-9997
▁plentifull	-9998
▁profession	-9999
▁publisheth	-10000
▁quickeneth	-10001
▁quietnesse	-10002
▁readinesse	-10003
▁remembreth	-10004
▁separateth	-10005
▁stretching	-10006
▁sufferings	-10007
▁sustenance	-10008
▁thundrings	-10009
▁translated	-10010
▁vnpunished	-10011
▁vntempered	-10012
▁whoredomes	-10013
▁withstoode	-10014
▁Ammishaddai	-10015
▁Aristarchus	-10016
▁Bethshemesh	-10017
▁Ephraimites	-10018
▁Girgashites	-10019
▁Pirathonite	-10020
▁Priesthoode	-10021
▁aduersities	-10022
▁ambassadour	-10023
▁beneuolence	-10024
▁blasphemeth	-10025
▁caterpiller	-10026
▁comfortably	-10027
▁conspiracie	-10028
▁consumption	-10029
▁corruptible	-10030
▁declaration	-10031
▁deliueredst	-10032
▁edification	-10033
▁foreskinnes	-10034
▁imagination	-10035
▁perplexitie	-10036
▁replenished	-10037
▁sacrificeth	-10038
▁simplicitie	-10039
▁vnfruitfull	-10040
▁whomesoeuer	-10041
▁worshipping	-10042
▁acknowledged	-10043
▁appertaineth	-10044
▁forgiuenesse	-10045
▁incorruption	-10046
▁vngodlinesse	-10047
▁stedfastnesse	-10048
▁superscription	-10049
).	-10050
Al	-10051
EL	-10052
PH	-10053
Pe	-10054
ca	-10055
cr	-10056
ek	-10057
mm	-10058
ny	-10059
zi	-10060
air	-10061
ats	-10062
bau	-10063
dol	-10064
dor	-10065
elu	-10066
fol	-10067
gar	-10068
gia	-10069
iad	-10070
iph	-10071
lle	-10072
lme	-10073
lor	-10074
nag	-10075
nas	-10076
nem	-10077
phy	-10078
que	-10079
rab	-10080
ruc	-10081
sai	-10082
tel	-10083
uan	-10084
ygh	-10085
▁Fo	-10086
▁Gr	-10087
▁Lu	-10088
▁Pi	-10089
▁Sm	-10090
Peor	-10091
Then	-10092
adad	-10093
adon	-10094
aius	-10095
alam	-10096
amon	-10097
arat	-10098
areb	-10099
aris	-10100
attu	-10101
blam	-10102
chai	-10103
chon	-10104
cill	-10105
ctes	-10106
ddie	-10107
eate	-10108
edek	-10109
ende	-10110
eper	-10111
eted	-10112
etur	-10113
ftes	-10114
gard	-10115
garm	-10116
gedi	-10117
gled	-10118
holy	-10119
idan	-10120
idel	-10121
iesh	-10122
igne	-10123
ince	-10124
koda	-10125
lded	-10126
leme	-10127
lled	-10128
llem	-10129
mega	-10130
meon	-10131
nequ	-10132
ored	-10133
pens	-10134
peor	-10135
rees	-10136
rung	-10137
ryed	-10138
sons	-10139
sued	-10140
they	-10141
thou	-10142
tore	-10143
umed	-10144
unat	-10145
unni	-10146
usha	-10147
usim	-10148
wing	-10149
yson	-10150
▁Ard	-10151
▁Aug	-10152
▁Bre	-10153
▁Bye	-10154
▁Cas	-10155
▁Col	-10156
▁Coz	-10157
▁Def	-10158
▁Elp	-10159
▁Els	-10160
▁Est	-10161
▁Gin	-10162
▁Iot	-10163
▁Kar	-10164
▁Kel	-10165
▁Ket	-10166
▁Lod	-10167
▁Mem	-10168
▁Nin	-10169
▁Nis	-10170
▁Pul	-10171
▁Rep	-10172
▁Sad	-10173
▁Tat	-10174
▁Tib	-10175
▁Til	-10176
▁Tre	-10177
▁Try	-10178
▁Wil	-10179
▁Ziz	-10180
▁add	-10181
▁ali	-10182
▁ara	-10183
▁aug	-10184
▁bag	-10185
▁bon	-10186
▁bug	-10187
▁cot	-10188
▁dew	-10189
▁fea	-10190
▁fit	-10191
▁fom	-10192
▁got	-10193
▁gut	-10194
▁hay	-10195
▁hem	-10196
▁hit	-10197
▁inl	-10198
▁lan	-10199
▁lof	-10200
▁mem	-10201
▁mer	-10202
▁mod	-10203
▁mun	-10204
▁nam	-10205
▁nig	-10206
▁org	-10207
▁pel	-10208
▁pin	-10209
▁rau	-10210
▁rib	-10211
▁rus	-10212
▁sch	-10213
▁suc	-10214
Which	-10215
abeel	-10216
akers	-10217
ameel	-10218
annim	-10219
anted	-10220
arims	-10221
arite	-10222
aseah	-10223
ashed	-10224
ashem	-10225
ashen	-10226
astus	-10227
atche	-10228
atted	-10229
attir	-10230
celer	-10231
eacoc	-10232
edeem	-10233
emeth	-10234
enice	-10235
ephan	-10236
epheg	-10237
eting	-10238
heres	-10239
hoode	-10240
iches	-10241
iddim	-10242
ieted	-10243
ilest	-10244
imham	-10245
inest	-10246
iroth	-10247
isins	-10248
ithes	-10249
itour	-10250
kshan	-10251
lites	-10252
niper	-10253
okest	-10254
onaim	-10255
ornes	-10256
phlet	-10257
poole	-10258
ppers	-10259
rogel	-10260
rygia	-10261
terne	-10262
uarie	-10263
upham	-10264
ustus	-10265
while	-10266
winde	-10267
yleth	-10268
yneth	-10269
zedek	-10270
▁Cana	-10271
▁Chel	-10272
▁Cher	-10273
▁Ches	-10274
▁Chil	-10275
▁Chis	-10276
▁Cruc	-10277
▁Deac	-10278
▁Dout	-10279
▁Draw	-10280
▁Ezek	-10281
▁Fors	-10282
▁Good	-10283
▁Guni	-10284
▁Hege	-10285
▁Into	-10286
▁Iona	-10287
▁Kore	-10288
▁LORD	-10289
▁Much	-10290
▁Nere	-10291
▁Next	-10292
▁Onam	-10293
▁Onix	-10294
▁Proc	-10295
▁Prou	-10296
▁Sher	-10297
▁Sina	-10298
▁Slay	-10299
▁Thar	-10300
▁Wash	-10301
▁Zare	-10302
▁Zeth	-10303
▁Zill	-10304
▁alas	-10305
▁auoy	-10306
▁babb	-10307
▁bega	-10308
▁bile	-10309
▁blot	-10310
▁buff	-10311
▁bund	-10312
▁clad	-10313
▁cord	-10314
▁cred	-10315
▁cumm	-10316
▁disd	-10317
▁drom	-10318
▁elme	-10319
▁enim	-10320
▁ewes	-10321
▁feru	-10322
▁figs	-10323
▁fund	-10324
▁grat	-10325
▁grew	-10326
▁happ	-10327
▁have	-10328
▁iawe	-10329
▁laun	-10330
▁lyar	-10331
▁mart	-10332
▁mayd	-10333
▁mise	-10334
▁moth	-10335
▁pale	-10336
▁pins	-10337
▁pint	-10338
▁pipe	-10339
▁pred	-10340
▁prop	-10341
▁raun	-10342
▁riot	-10343
▁sect	-10344
▁shod	-10345
▁shoe	-10346
▁skil	-10347
▁sund	-10348
▁sute	-10349
▁tall	-10350
▁tang	-10351
▁toes	-10352
▁trad	-10353
▁unto	-10354
▁waie	-10355
▁wear	-10356
▁whet	-10357
▁ynne	-10358
abzeel	-10359
ameses	-10360
andria	-10361
apolis	-10362
argeth	-10363
arison	-10364
atrice	-10365
bazzar	-10366
forter	-10367
garmah	-10368
imshai	-10369
itting	-10370
master	-10371
orthie	-10372
ourest	-10373
perate	-10374
phylia	-10375
rabbim	-10376
rahite	-10377
rected	-10378
sepher	-10379
▁Again	-10380
▁Ahabs	-10381
▁Ahiah	-10382
▁Alpha	-10383
▁Annas	-10384
▁Aruad	-10385
▁Ashan	-10386
▁Azgad	-10387
▁Baths	-10388
▁Beers	-10389
▁Binde	-10390
▁Cause	-10391
▁Cease	-10392
▁Cheph	-10393
▁Derbe	-10394
▁Dumah	-10395
▁Etham	-10396
▁Gaash	-10397
▁Gaius	-10398
▁Golan	-10399
▁Haile	-10400
▁Hamul	-10401
▁Harod	-10402
▁Holie	-10403
▁Hosah	-10404
▁Iabez	-10405
▁Iakim	-10406
▁Iapho	-10407
▁Iehos	-10408
▁Ierem	-10409
▁Iorde	-10410
▁Iosha	-10411
▁Matth	-10412
▁Mepha	-10413
▁Mores	-10414
▁Necho	-10415
▁Oboth	-10416
▁Omega	-10417
▁Ought	-10418
▁Patri	-10419
▁Powre	-10420
▁Runne	-10421
▁Salma	-10422
▁Scape	-10423
▁Shesh	-10424
▁Sibbe	-10425
▁Stran	-10426
▁Thyat	-10427
▁Tiber	-10428
▁Weepe	-10429
▁Zabdi	-10430
▁Zattu	-10431
▁agone	-10432
▁aloes	-10433
▁angle	-10434
▁baked	-10435
▁barke	-10436
▁beset	-10437
▁beway	-10438
▁birds	-10439
▁black	-10440
▁brand	-10441
▁braun	-10442
▁cares	-10443
▁carry	-10444
▁clime	-10445
▁conue	-10446
▁crime	-10447
▁cruse	-10448
▁cutte	-10449
▁deade	-10450
▁dippe	-10451
▁dress	-10452
▁drink	-10453
▁dying	-10454
▁easie	-10455
▁edged	-10456
▁edges	-10457
▁eloqu	-10458
▁enbau	-10459
▁extre	-10460
▁faine	-10461
▁faynt	-10462
▁felow	-10463
▁fidel	-10464
▁firie	-10465
▁foale	-10466
▁folly	-10467
▁frogs	-10468
▁furie	-10469
▁greed	-10470
▁gyant	-10471
▁hadst	-10472
▁heere	-10473
▁heiff	-10474
▁heres	-10475
▁inioy	-10476
▁kidde	-10477
▁liars	-10478
▁lowly	-10479
▁meant	-10480
▁mirre	-10481
▁mixed	-10482
▁mooue	-10483
▁owest	-10484
▁piped	-10485
▁pipes	-10486
▁plead	-10487
▁quake	-10488
▁reare	-10489
▁rider	-10490
▁risha	-10491
▁robbe	-10492
▁royal	-10493
▁rumpe	-10494
▁sayle	-10495
▁scarc	-10496
▁scrip	-10497
▁shere	-10498
▁shoot	-10499
▁skins	-10500
▁slugg	-10501
▁soppe	-10502
▁speak	-10503
▁spend	-10504
▁spied	-10505
▁spoke	-10506
▁stole	-10507
▁stout	-10508
▁strog	-10509
▁taxed	-10510
▁tayle	-10511
▁thick	-10512
▁tinne	-10513
▁trade	-10514
▁vayne	-10515
▁vnequ	-10516
▁voyde	-10517
▁wafer	-10518
▁wagge	-10519
▁wauer	-10520
▁wilbe	-10521
▁wouen	-10522
ablenes	-10523
elemiah	-10524
ephanas	-10525
imathea	-10526
inately	-10527
iramoth	-10528
itherto	-10529
maachah	-10530
metrees	-10531
perazim	-10532
setters	-10533
tenance	-10534
wherein	-10535
whereof	-10536
▁Abarim	-10537
▁Abidan	-10538
▁Ahiman	-10539
▁Amasai	-10540
▁Ararat	-10541
▁Ashbel	-10542
▁Azriel	-10543
▁Azubah	-10544
▁Bamoth	-10545
▁Barbar	-10546
▁Bashem	-10547
▁Beside	-10548
▁Bilhan	-10549
▁Blesse	-10550
▁Breake	-10551
▁Calebs	-10552
▁Candie	-10553
▁Daught	-10554
▁Eliada	-10555
▁Elipha	-10556
▁Eunuch	-10557
▁Giddel	-10558
▁Hakkoz	-10559
▁Hamans	-10560
▁Hashum	-10561
▁Hatach	-10562
▁Herods	-10563
▁Hoglah	-10564
▁Hushim	-10565
▁Hypocr	-10566
▁Iaalam	-10567
▁Iaazer	-10568
▁Iaphia	-10569
▁Iasper	-10570
▁Iattir	-10571
▁Iehudi	-10572
▁Ioiada	-10573
▁Izhaks	-10574
▁Kedron	-10575
▁Labans	-10576
▁Lambes	-10577
▁Mahlah	-10578
▁Migdol	-10579
▁Mishma	-10580
▁Nabals	-10581
▁Nechoh	-10582
▁Nekoda	-10583
▁Nemuel	-10584
▁Nepheg	-10585
▁Nimrod	-10586
▁Paseah	-10587
▁Peters	-10588
▁Ramath	-10589
▁Reaiah	-10590
▁Redeem	-10591
▁Riches	-10592
▁Rizpah	-10593
▁Salmon	-10594
▁Samlah	-10595
▁Shamir	-10596
▁Shimea	-10597
▁Shimri	-10598
▁Shobab	-10599
▁Sibmah	-10600
▁Sleepe	-10601
▁Tatnai	-10602
▁Thamar	-10603
▁Within	-10604
▁Zanoah	-10605
▁Zeboim	-10606
▁Zeresh	-10607
▁Zophar	-10608
▁abiect	-10609
▁aileth	-10610
▁amisse	-10611
▁apples	-10612
▁auaile	-10613
▁awaked	-10614
▁bankes	-10615
▁barefo	-10616
▁barlie	-10617
▁beddes	-10618
▁begger	-10619
▁bodily	-10620
▁bodyes	-10621
▁bolles	-10622
▁bonets	-10623
▁bosses	-10624
▁bounds	-10625
▁buddes	-10626
▁camell	-10627
▁carest	-10628
▁clawes	-10629
▁coards	-10630
▁coffer	-10631
▁coller	-10632
▁coming	-10633
▁damned	-10634
▁dashed	-10635
▁dearth	-10636
▁deceiu	-10637
▁demand	-10638
▁denyed	-10639
▁dinner	-10640
▁discer	-10641
▁dishon	-10642
▁dispos	-10643
▁douted	-10644
▁dryeth	-10645
▁eatest	-10646
▁edifie	-10647
▁entise	-10648
▁enuied	-10649
▁fained	-10650
▁falsly	-10651
▁filthy	-10652
▁finnes	-10653
▁flames	-10654
▁flyeth	-10655
▁folden	-10656
▁folowe	-10657
▁frying	-10658
▁gourde	-10659
▁greete	-10660
▁gushed	-10661
▁heaues	-10662
▁hereby	-10663
▁holowe	-10664
▁inferi	-10665
▁licked	-10666
▁licour	-10667
▁liuest	-10668
▁lookes	-10669
▁lusted	-10670
▁meddle	-10671
▁namely	-10672
▁nayles	-10673
▁necked	-10674
▁needed	-10675
▁neying	-10676
▁nource	-10677
▁noysed	-10678
▁pained	-10679
▁palmes	-10680
▁parler	-10681
▁peacoc	-10682
▁proofe	-10683
▁pryson	-10684
▁quarel	-10685
▁riders	-10686
▁riding	-10687
▁robber	-10688
▁ruddie	-10689
▁scarce	-10690
▁seedes	-10691
▁shaued	-10692
▁shorne	-10693
▁showre	-10694
▁soeuer	-10695
▁spiken	-10696
▁stalke	-10697
▁stayes	-10698
▁stumpe	-10699
▁sweepe	-10700
▁swimme	-10701
▁swines	-10702
▁threde	-10703
▁throng	-10704
▁tilled	-10705
▁vapour	-10706
▁verily	-10707
▁visage	-10708
▁vnblam	-10709
▁vnholy	-10710
▁vnlike	-10711
▁wafers	-10712
▁wained	-10713
▁wardes	-10714
▁weined	-10715
▁wisdom	-10716
▁wounds	-10717
▁ylands	-10718
aithfull	-10719
engeance	-10720
estinate	-10721
utations	-10722
▁Abinoam	-10723
▁Ahohite	-10724
▁Answere	-10725
▁Arabian	-10726
▁Azareel	-10727
▁Baalath	-10728
▁Baladan	-10729
▁Chimham	-10730
▁Christs	-10731
▁Chushan	-10732
▁Deacons	-10733
▁Deputie	-10734
▁Elealeh	-10735
▁Eleasah	-10736
▁Gabriel	-10737
▁Hadoram	-10738
▁Hallelu	-10739
▁Hearest	-10740
▁Henadad	-10741
▁Horites	-10742
▁Iaphlet	-10743
▁Incline	-10744
▁Ioiakim	-10745
▁Iokshan	-10746
▁Ithrite	-10747
▁Keturah	-10748
▁Lawyers	-10749
▁Mikloth	-10750
▁Moladah	-10751
▁Phenice	-10752
▁Phrygia	-10753
▁Pontius	-10754
▁Rameses	-10755
▁Restore	-10756
▁Samsons	-10757
▁Shebnah	-10758
▁Shemida	-10759
▁Shemuel	-10760
▁Wisdome	-10761
▁Wisemen	-10762
▁abashed	-10763
▁artific	-10764
▁ascende	-10765
▁asleepe	-10766
▁augment	-10767
▁bearest	-10768
▁beating	-10769
▁begunne	-10770
▁bewaile	-10771
▁blasted	-10772
▁blinded	-10773
▁blowing	-10774
▁boldely	-10775
▁burthen	-10776
▁burying	-10777
▁calamus	-10778
▁callest	-10779
▁carying	-10780
▁cleanse	-10781
▁cleaued	-10782
▁commend	-10783
▁craftie	-10784
▁daunced	-10785
▁daunces	-10786
▁dearely	-10787
▁deintie	-10788
▁delited	-10789
▁depthes	-10790
▁dischar	-10791
▁dispens	-10792
▁doubted	-10793
▁drammes	-10794
▁draught	-10795
▁dreamer	-10796
▁driueth	-10797
▁epistle	-10798
▁errours	-10799
▁excused	-10800
▁expound	-10801
▁farther	-10802
▁faultes	-10803
▁fitches	-10804
▁flowres	-10805
▁forbade	-10806
▁founded	-10807
▁fringes	-10808
▁fullers	-10809
▁garmets	-10810
▁girdeth	-10811
▁graffed	-10812
▁groning	-10813
▁handled	-10814
▁healeth	-10815
▁hearers	-10816
▁howling	-10817
▁iudgest	-10818
▁iuniper	-10819
▁kinsfol	-10820
▁lacketh	-10821
▁latchet	-10822
▁lendeth	-10823
▁lettest	-10824
▁lightes	-10825
▁likened	-10826
▁marched	-10827
▁marieth	-10828
▁meanest	-10829
▁meeteth	-10830
▁melodie	-10831
▁memorie	-10832
▁narrowe	-10833
▁obeyeth	-10834
▁obeying	-10835
▁officer	-10836
▁opinion	-10837
▁pastime	-10838
▁pearced	-10839
▁pilgrim	-10840
▁pisseth	-10841
▁platted	-10842
▁porcion	-10843
▁presume	-10844
▁procure	-10845
▁promote	-10846
▁quailes	-10847
▁rayseth	-10848
▁readeth	-10849
▁reapeth	-10850
▁relieue	-10851
▁repayre	-10852
▁reteine	-10853
▁runnest	-10854
▁scribes	-10855
▁sendest	-10856
▁settest	-10857
▁sharply	-10858
▁shekell	-10859
▁shewest	-10860
▁shrinke	-10861
▁sighing	-10862
▁sinewes	-10863
▁slaying	-10864
▁sounded	-10865
▁sparing	-10866
▁sparkes	-10867
▁spoiled	-10868
▁stalles	-10869
▁stickes	-10870
▁straite	-10871
▁strawed	-10872
▁subtill	-10873
▁sucking	-10874
▁talketh	-10875
▁teareth	-10876
▁trimmed	-10877
▁veritie	-10878
▁warning	-10879
▁wayting	-10880
▁whereas	-10881
▁wickets	-10882
▁worldly	-10883
▁yeerely	-10884
ieshimoth	-10885
inneereth	-10886
ortunitie	-10887
▁Ancients	-10888
▁Ashabiah	-10889
▁Augustus	-10890
▁Bartleme	-10891
▁Caesarea	-10892
▁Chancell	-10893
▁Commande	-10894
▁Couenant	-10895
▁Crucifie	-10896
▁Ephraims	-10897
▁Hanameel	-10898
▁Hitherto	-10899
▁Horonaim	-10900
▁Kedemoth	-10901
▁Kingdome	-10902
▁Malchiel	-10903
▁Mephaath	-10904
▁Merimoth	-10905
▁Nebaioth	-10906
▁Onesimus	-10907
▁Rehoboth	-10908
▁Rephaiah	-10909
▁Seruants	-10910
▁Sheraiah	-10911
▁Shimshai	-10912
▁Togarmah	-10913
▁Zerahiah	-10914
▁abilitie	-10915
▁accounts	-10916
▁adoption	-10917
▁affirmed	-10918
▁anothers	-10919
▁appealed	-10920
▁approche	-10921
▁boasteth	-10922
▁calledst	-10923
▁catcheth	-10924
▁clearely	-10925
▁coceiued	-10926
▁commaded	-10927
▁concerne	-10928
▁confound	-10929
▁conuince	-10930
▁councill	-10931
▁craftily	-10932
▁creation	-10933
▁dauncing	-10934
▁deceiuer	-10935
▁defended	-10936
▁descende	-10937
▁deuiding	-10938
▁doctours	-10939
▁drunkard	-10940
▁enclined	-10941
▁endeuour	-10942
▁enimitie	-10943
▁entrance	-10944
▁feathers	-10945
▁fortifie	-10946
▁gratious	-10947
▁grieueth	-10948
▁headlong	-10949
▁impudent	-10950
▁informed	-10951
▁ioyfully	-10952
▁kinsemen	-10953
▁knocketh	-10954
▁madnesse	-10955
▁magnific	-10956
▁mindfull	-10957
▁mounting	-10958
▁nephewes	-10959
▁ointment	-10960
▁oughtest	-10961
▁pelicane	-10962
▁preacher	-10963
▁professe	-10964
▁profited	-10965
▁proudely	-10966
▁rauening	-10967
▁raunsome	-10968
▁redresse	-10969
▁remouing	-10970
▁sackebut	-10971
▁scourges	-10972
▁secretes	-10973
▁skilfull	-10974
▁smallest	-10975
▁soothsay	-10976
▁sorcerie	-10977
▁spoyleth	-10978
▁stumbled	-10979
▁swalowed	-10980
▁thorough	-10981
▁thundred	-10982
▁vertuous	-10983
▁visiting	-10984
▁vniustly	-10985
▁vnmaried	-10986
▁vocation	-10987
▁wandered	-10988
▁wandreth	-10989
▁watcheth	-10990
▁wherwith	-10991
▁writings	-10992
▁Answerest	-10993
▁Arimathea	-10994
▁Bashemath	-10995
▁Beersheba	-10996
▁Beniamins	-10997
▁Chephirah	-10998
▁Comforter	-10999
▁Elizaphan	-11000
▁Ephesians	-11001
▁Ephrathah	-11002
▁Galileans	-11003
▁Hereafter	-11004
▁Iaazaniah	-11005
▁Iehozabad	-11006
▁Ieroboams	-11007
▁Israelite	-11008
▁Maachathi	-11009
▁Nazarites	-11010
▁Pamphylia	-11011
▁Pethahiah	-11012
▁Shuthelah	-11013
▁Sodomites	-11014
▁Stephanas	-11015
▁Strangers	-11016
▁Tahpanhes	-11017
▁Tharshish	-11018
▁Withdrawe	-11019
▁Zachariah	-11020
▁actiuitie	-11021
▁aduersary	-11022
▁adulteres	-11023
▁agreement	-11024
▁beleeuing	-11025
▁benefites	-11026
▁boldnesse	-11027
▁carbuncle	-11028
▁cocerning	-11029
▁communion	-11030
▁concluded	-11031
▁contrarie	-11032
▁couerings	-11033
▁creatures	-11034
▁deceitful	-11035
▁departure	-11036
▁described	-11037
▁displease	-11038
▁disputing	-11039
▁doutlesse	-11040
▁exercised	-11041
▁facioneth	-11042
▁feruently	-11043
▁fidelitie	-11044
▁fishpoole	-11045
▁fourtieth	-11046
▁habergeon	-11047
▁hardeneth	-11048
▁housholds	-11049
▁idolatrie	-11050
▁instantly	-11051
▁iourneyes	-11052
▁mainteine	-11053
▁mentioned	-11054
▁mindefull	-11055
▁natiuitie	-11056
▁needefull	-11057
▁ointments	-11058
▁ordinarie	-11059
▁oyntments	-11060
▁peacockes	-11061
▁permitted	-11062
▁petitions	-11063
▁pondereth	-11064
▁preacheth	-11065
▁prophaned	-11066
▁psalterie	-11067
▁refrained	-11068
▁regardest	-11069
▁reprobate	-11070
▁resisteth	-11071
▁restraine	-11072
▁returning	-11073
▁scorpions	-11074
▁seruitude	-11075
▁sprinckle	-11076
▁strangled	-11077
▁stumbleth	-11078
▁suffereth	-11079
▁sweetenes	-11080
▁trembleth	-11081
▁wantonnes	-11082
▁wonderful	-11083
▁Alexandria	-11084
▁Chrysolite	-11085
▁Gileadites	-11086
▁Naamathite	-11087
▁Rechabites	-11088
▁accusation	-11089
▁admonished	-11090
▁adulterous	-11091
▁ambushment	-11092
▁appointeth	-11093
▁assembling	-11094
▁backewarde	-11095
▁beseeching	-11096
▁chasteneth	-11097
▁chastening	-11098
▁childehood	-11099
▁chrysolite	-11100
▁comparison	-11101
▁counselled	-11102
▁craftesmen	-11103
▁delicately	-11104
▁descendeth	-11105
▁domination	-11106
▁drunkennes	-11107
▁experience	-11108
▁faithlesse	-11109
▁foreskinne	-11110
▁forgetteth	-11111
▁gatherings	-11112
▁glittering	-11113
▁hinderance	-11114
▁husbandman	-11115
▁iustifieth	-11116
▁lightening	-11117
▁menstruous	-11118
▁middlemost	-11119
▁oppresseth	-11120
▁ouerflowed	-11121
▁perteineth	-11122
▁prospereth	-11123
▁rebellions	-11124
▁reuerenced	-11125
▁rishathaim	-11126
▁seruauntes	-11127
▁sprinckled	-11128
▁testifying	-11129
▁threatning	-11130
▁traditions	-11131
▁trauaileth	-11132
▁trauailing	-11133
▁weakenesse	-11134
▁withholden	-11135
▁Apostleship	-11136
▁Corinthians	-11137
▁Ishmeelites	-11138
▁Meshelemiah	-11139
▁Preparation	-11140
▁Shemiramoth	-11141
▁Sheshbazzar	-11142
▁Zurishaddai	-11143
▁accompanied	-11144
▁appoyntment	-11145
▁blackenesse	-11146
▁bottomlesse	-11147
▁compassions	-11148
▁considereth	-11149
▁considering	-11150
▁disputation	-11151
▁diuersities	-11152
▁fleshhookes	-11153
▁gouernement	-11154
▁hailestones	-11155
▁humblenesse	-11156
▁perpetually	-11157
▁sanctifieth	-11158
▁seuenteenth	-11159
▁straitnesse	-11160
▁wantonnesse	-11161
▁Bethlehemite	-11162
▁Circumcision	-11163
▁Maachathites	-11164
▁caterpillers	-11165
▁chastisement	-11166
▁comprehended	-11167
▁dispensation	-11168
▁extortioners	-11169
▁marueilously	-11170
▁persecutions	-11171
▁predestinate	-11172
▁vndersetters	-11173
▁vnderstading	-11174
▁whoremongers	-11175
▁workemanship	-11176
▁Thessalonians	-11177
▁strengtheneth	-11178
:)	-11179
EW	-11180
So	-11181
bi	-11182
cu	-11183
do	-11184
ex	-11185
kh	-11186
mi	-11187
uf	-11188
ui	-11189
vs	-11190
adu	-11191
app	-11192
atr	-11193
aus	-11194
aza	-11195
bek	-11196
cim	-11197
dai	-11198
ell	-11199
ery	-11200
fed	-11201
fte	-11202
gam	-11203
his	-11204
hur	-11205
isp	-11206
iss	-11207
kel	-11208
kle	-11209
lab	-11210
leu	-11211
lte	-11212
mas	-11213
nni	-11214
phi	-11215
pho	-11216
rac	-11217
rey	-11218
rha	-11219
sim	-11220
tum	-11221
uft	-11222
uie	-11223
uto	-11224
yse	-11225
zep	-11226
▁AL	-11227
▁Co	-11228
▁Di	-11229
▁Ik	-11230
▁Ir	-11231
▁Iu	-11232
▁ny	-11233
EWES	-11234
This	-11235
abah	-11236
aces	-11237
acim	-11238
aied	-11239
aret	-11240
asar	-11241
atam	-11242
azin	-11243
beam	-11244
berg	-11245
bour	-11246
chab	-11247
chen	-11248
chim	-11249
eale	-11250
edad	-11251
enat	-11252
enne	-11253
etri	-11254
euen	-11255
fill	-11256
gath	-11257
goth	-11258
hara	-11259
hare	-11260
hatt	-11261
ilus	-11262
imes	-11263
imos	-11264
isam	-11265
itha	-11266
izim	-11267
kesh	-11268
kinc	-11269
laim	-11270
lect	-11271
llow	-11272
maim	-11273
ndge	-11274
neam	-11275
nite	-11276
nted	-11277
orus	-11278
osen	-11279
otic	-11280
otie	-11281
prou	-11282
soph	-11283
sues	-11284
this	-11285
toth	-11286
trey	-11287
ucan	-11288
udah	-11289
udge	-11290
uest	-11291
ugit	-11292
ulon	-11293
utal	-11294
west	-11295
ymus	-11296
ziah	-11297
▁Aii	-11298
▁Amn	-11299
ack	-11300
cum	-11301
eal	-11302
gub	-11303
roi	-11304
akah	-11305
cius	-11306
ench	-11307
ooue	-11308
otte	-11309
thai	-11310
umea	-11311
unge	-11312
▁Alg	-11313
▁Aud	-11314
▁Cho	-11315
▁Cle	-11316
▁Dab	-11317
▁Day	-11318
▁Ent	-11319
▁Ful	-11320
▁Hak	-11321
▁Hal	-11322
▁Iar	-11323
▁Iek	-11324
▁Iup	-11325
▁Lub	-11326
▁MEN	-11327
▁Pat	-11328
▁Pun	-11329
▁Rac	-11330
▁Reb	-11331
▁Ref	-11332
▁Sem	-11333
▁Sep	-11334
▁Sos	-11335
▁Teb	-11336
▁Tid	-11337
▁Tig	-11338
▁Tri	-11339
▁Tur	-11340
▁aha	-11341
▁anc	-11342
▁bie	-11343
▁bul	-11344
▁cul	-11345
▁dul	-11346
▁fen	-11347
▁gel	-11348
▁hab	-11349
▁hum	-11350
▁lid	-11351
▁rag	-11352
▁rat	-11353
▁ret	-11354
▁rub	-11355
▁ryb	-11356
▁wag	-11357
▁web	-11358
achel	-11359
addar	-11360
addua	-11361
adise	-11362
adled	-11363
alled	-11364
aming	-11365
arate	-11366
arkes	-11367
artan	-11368
ating	-11369
auiah	-11370
aunce	-11371
aunge	-11372
ayler	-11373
beyed	-11374
bezek	-11375
cheus	-11376
ciate	-11377
cimer	-11378
coast	-11379
debar	-11380
earer	-11381
ecost	-11382
elids	-11383
elist	-11384
enath	-11385
eneth	-11386
etite	-11387
forme	-11388
gaber	-11389
ghill	-11390
gotha	-11391
hamah	-11392
hanah	-11393
holah	-11394
iades	-11395
ichol	-11396
ideth	-11397
idred	-11398
iefly	-11399
lom	-11400
dius	-11401
drew	-11402
moni	-11403
nith	-11404
osea	-11405
phah	-11406
▁Fif	-11407
▁Sec	-11408
▁imb	-11409
allai	-11410
amble	-11411
anite	-11412
asson	-11413
aunde	-11414
bates	-11415
bleam	-11416
desse	-11417
ecute	-11418
gings	-11419
ilece	-11420
ingle	-11421
irect	-11422
isest	-11423
ishes	-11424
iture	-11425
kases	-11426
kinde	-11427
lbeit	-11428
liest	-11429
loose	-11430
lucke	-11431
mmers	-11432
ommes	-11433
order	-11434
osecr	-11435
otent	-11436
othec	-11437
ouses	-11438
penes	-11439
phage	-11440
reter	-11441
sance	-11442
saris	-11443
shual	-11444
sions	-11445
smith	-11446
uanus	-11447
ubael	-11448
ueile	-11449
uggim	-11450
uites	-11451
uitie	-11452
ulles	-11453
umbes	-11454
welue	-11455
woman	-11456
zahab	-11457
▁Abba	-11458
▁Abdi	-11459
▁Abia	-11460
▁Arah	-11461
▁Arod	-11462
▁Bene	-11463
▁Bern	-11464
▁Bith	-11465
▁Booz	-11466
▁Bowe	-11467
▁Char	-11468
▁Chor	-11469
▁Cret	-11470
▁Eben	-11471
▁Eder	-11472
▁Egle	-11473
▁Elte	-11474
▁Esar	-11475
▁Fall	-11476
▁Forb	-11477
▁Forg	-11478
▁Four	-11479
▁Gaba	-11480
▁Glor	-11481
▁Happ	-11482
▁Hear	-11483
▁Hena	-11484
▁Heph	-11485
▁Hewe	-11486
▁Hori	-11487
▁Hoth	-11488
▁Iaas	-11489
▁Iotb	-11490
▁Iuah	-11491
▁Izra	-11492
▁Lehi	-11493
▁Lyon	-11494
▁MENE	-11495
▁Mile	-11496
▁Naph	-11497
▁Omar	-11498
▁Pent	-11499
▁Za	-11500
Also	-11501
akes	-11502
bing	-11503
inct	-11504
▁Azz	-11505
▁Bro	-11506
▁Iog	-11507
▁Toi	-11508
▁Top	-11509
blets	-11510
hange	-11511
imely	-11512
itest	-11513
omely	-11514
pable	-11515
shaph	-11516
▁Anam	-11517
▁Aner	-11518
▁Crie	-11519
▁Luke	-11520
▁Nach	-11521
▁Phut	-11522
▁Pith	-11523
▁Poti	-11524
▁Puah	-11525
▁Seba	-11526
▁Sell	-11527
▁Shab	-11528
▁Shil	-11529
▁Tert	-11530
▁Trou	-11531
▁WORD	-11532
▁Zaan	-11533
▁Zuph	-11534
▁arke	-11535
▁bees	-11536
▁bend	-11537
▁boat	-11538
▁bray	-11539
▁byer	-11540
▁cass	-11541
▁chap	-11542
▁chur	-11543
▁cise	-11544
▁clim	-11545
▁cole	-11546
▁cree	-11547
▁crib	-11548
▁cure	-11549
▁daie	-11550
▁dame	-11551
▁diam	-11552
▁dote	-11553
▁dull	-11554
▁feth	-11555
▁flag	-11556
▁frag	-11557
▁fran	-11558
▁furn	-11559
▁gren	-11560
▁hads	-11561
▁heat	-11562
▁herd	-11563
▁inde	-11564
▁infl	-11565
▁late	-11566
▁lids	-11567
▁lily	-11568
▁lint	-11569
▁loft	-11570
▁lyed	-11571
▁lyer	-11572
▁naue	-11573
▁paye	-11574
▁pict	-11575
▁preu	-11576
▁puft	-11577
▁rash	-11578
▁ript	-11579
▁sedu	-11580
▁snow	-11581
▁spat	-11582
▁suer	-11583
▁towe	-11584
▁trus	-11585
▁vnsp	-11586
▁vnst	-11587
▁vses	-11588
▁vsur	-11589
▁vult	-11590
▁vuto	-11591
▁waye	-11592
▁wayf	-11593
▁widd	-11594
▁ynkh	-11595
arabah	-11596
ariest	-11597
athans	-11598
athiel	-11599
ras	-11600
tob	-11601
ains	-11602
alti	-11603
azur	-11604
beel	-11605
nels	-11606
rush	-11607
upha	-11608
▁Fol	-11609
▁wha	-11610
ashah	-11611
tomed	-11612
▁Naar	-11613
▁Naha	-11614
▁Newe	-11615
▁Saph	-11616
▁gape	-11617
▁sale	-11618
▁taxe	-11619
▁tren	-11620
▁wool	-11621
before	-11622
berous	-11623
beside	-11624
bethai	-11625
brance	-11626
celour	-11627
entide	-11628
esmith	-11629
etrius	-11630
foorth	-11631
gannim	-11632
gritie	-11633
iasaph	-11634
iciall	-11635
icions	-11636
iffene	-11637
ileser	-11638
iments	-11639
imosin	-11640
isedly	-11641
isters	-11642
itched	-11643
mation	-11644
neeser	-11645
obabel	-11646
pannes	-11647
pherah	-11648
pperie	-11649
quered	-11650
reator	-11651
ressed	-11652
resses	-11653
rifice	-11654
rosely	-11655
swoman	-11656
tofore	-11657
ueenes	-11658
uredly	-11659
zabeel	-11660
zephon	-11661
▁Abida	-11662
▁Abiel	-11663
▁Aboue	-11664
▁Actes	-11665
▁Adiel	-11666
▁Allon	-11667
▁Almon	-11668
▁Amend	-11669
▁Anger	-11670
▁Attai	-11671
▁Azmon	-11672
▁Beare	-11673
▁Besor	-11674
▁Bezai	-11675
▁Bezek	-11676
▁Bunni	-11677
▁Cench	-11678
▁Death	-11679
▁Demas	-11680
▁Dimon	-11681
▁Elder	-11682
▁Eloth	-11683
▁Emims	-11684
▁Enoch	-11685
▁Epher	-11686
▁Esrom	-11687
▁Euang	-11688
▁Faire	-11689
▁Fight	-11690
▁First	-11691
▁Foure	-11692
▁Galal	-11693
▁Galil	-11694
▁Gatam	-11695
▁Geder	-11696
▁Habor	-11697
▁Halah	-11698
▁Hassh	-11699
▁Mos	-11700
▁vns	-11701
araim	-11702
lahai	-11703
uppim	-11704
▁Conf	-11705
▁Gird	-11706
▁Ziha	-11707
▁atte	-11708
eathen	-11709
▁About	-11710
▁Berea	-11711
▁Boast	-11712
▁Ebron	-11713
▁Hamon	-11714
▁Helek	-11715
▁Hence	-11716
▁Holon	-11717
▁Hosea	-11718
▁Iarib	-11719
▁Iasho	-11720
▁Ibhar	-11721
▁Iekam	-11722
▁Ietur	-11723
▁Kanah	-11724
▁Leade	-11725
▁Leaue	-11726
▁Loose	-11727
▁Lydda	-11728
▁Mehet	-11729
▁Merab	-11730
▁Meshi	-11731
▁Moreh	-11732
▁Nahal	-11733
▁Nehel	-11734
▁Nilus	-11735
▁Nobah	-11736
▁Orion	-11737
▁Perga	-11738
▁Proue	-11739
▁Sallu	-11740
▁Segub	-11741
▁Serue	-11742
▁Shual	-11743
▁Tahan	-11744
▁Tibni	-11745
▁Touch	-11746
▁Troph	-11747
▁Walke	-11748
▁Zeboi	-11749
▁Zohar	-11750
▁abuse	-11751
▁affam	-11752
▁again	-11753
▁amber	-11754
▁apply	-11755
▁araie	-11756
▁aware	-11757
▁bende	-11758
▁borow	-11759
▁bowle	-11760
▁broth	-11761
▁bushe	-11762
▁butto	-11763
▁canot	-11764
▁cared	-11765
▁chees	-11766
▁chode	-11767
▁coard	-11768
▁cudde	-11769
▁cured	-11770
▁disgu	-11771
▁eased	-11772
▁embro	-11773
▁entry	-11774
▁fared	-11775
▁farme	-11776
▁feath	-11777
▁fishe	-11778
▁forew	-11779
▁frame	-11780
▁fryed	-11781
▁fugit	-11782
▁halte	-11783
▁hemme	-11784
▁hinde	-11785
▁homer	-11786
▁hurle	-11787
▁iakes	-11788
▁lauer	-11789
▁liest	-11790
▁lilie	-11791
▁louer	-11792
▁manie	-11793
▁maste	-11794
▁mayst	-11795
▁medic	-11796
▁minst	-11797
▁mower	-11798
▁naile	-11799
▁neygh	-11800
▁noses	-11801
▁nurce	-11802
▁nyght	-11803
▁oweth	-11804
▁panne	-11805
▁paued	-11806
▁picke	-11807
▁pisse	-11808
▁polle	-11809
▁poste	-11810
▁potte	-11811
▁pound	-11812
▁purif	-11813
▁raile	-11814
▁remit	-11815
▁roste	-11816
▁sawes	-11817
▁sinew	-11818
▁sinke	-11819
▁skill	-11820
▁slime	-11821
▁smith	-11822
▁sones	-11823
▁sorts	-11824
▁spice	-11825
▁stale	-11826
▁staye	-11827
▁sting	-11828
▁succe	-11829
▁sunke	-11830
▁suret	-11831
▁taske	-11832
▁threw	-11833
▁tolle	-11834
▁toole	-11835
▁vnadu	-11836
▁vpbra	-11837
▁waxen	-11838
▁welth	-11839
▁winds	-11840
▁winke	-11841
▁wiped	-11842
▁wonne	-11843
▁woord	-11844
▁wrung	-11845
▁yelde	-11846
▁yokes	-11847
chemish	-11848
ciences	-11849
curitie	-11850
edaries	-11851
enances	-11852
hathite	-11853
ieseate	-11854
iration	-11855
isamach	-11856
isition	-11857
itution	-11858
lathaim	-11859
ntments	-11860
oloured	-11861
retched	-11862
roditus	-11863
shannim	-11864
uertise	-11865
untarie	-11866
▁Achzib	-11867
▁Albeit	-11868
▁Ammiud	-11869
▁Amnons	-11870
▁Antoth	-11871
▁Atroth	-11872
▁Bilgah	-11873
▁Chelub	-11874
▁Cinner	-11875
▁Coniah	-11876
▁Defile	-11877
▁Dothan	-11878
▁Elpaal	-11879
▁Follow	-11880
▁Gadare	-11881
▁Gallio	-11882
▁Geshem	-11883
▁Graunt	-11884
▁Hashab	-11885
▁Hashub	-11886
▁Hauoth	-11887
▁Hodiah	-11888
▁Huppim	-11889
▁Iaddua	-11890
▁Ibleam	-11891
▁Idumea	-11892
▁Iebusi	-11893
▁Iewish	-11894
▁Ikkesh	-11895
▁Ioanna	-11896
▁Ithiel	-11897
▁Ithran	-11898
▁Iudahs	-11899
▁Iustus	-11900
▁Learne	-11901
▁Lysias	-11902
▁Maacah	-11903
▁Maakah	-11904
▁Madmen	-11905
▁Mahath	-11906
▁Mahlon	-11907
▁Marcus	-11908
▁Mattan	-11909
▁Miamin	-11910
▁Mibsam	-11911
▁Migdal	-11912
▁Mizzah	-11913
▁Naarah	-11914
▁Nephth	-11915
▁Niniue	-11916
▁Oracle	-11917
▁Pharao	-11918
▁Phares	-11919
▁Physic	-11920
▁Plucke	-11921
▁Pontus	-11922
▁Powers	-11923
▁Rebuke	-11924
▁Repent	-11925
▁Sardis	-11926
▁Search	-11927
▁Senaah	-11928
▁Shasha	-11929
▁Sheche	-11930
▁Shenir	-11931
▁Shuham	-11932
▁Shunem	-11933
▁Siddim	-11934
▁Siloam	-11935
▁Tanner	-11936
▁Tekoah	-11937
▁Thrust	-11938
▁Tribes	-11939
▁Twelue	-11940
▁Woulde	-11941
▁Zillah	-11942
▁Zimmah	-11943
▁addeth	-11944
▁amende	-11945
▁angels	-11946
▁apotic	-11947
▁attend	-11948
▁auoide	-11949
▁ayleth	-11950
▁banner	-11951
▁barbar	-11952
▁barest	-11953
▁beares	-11954
▁belles	-11955
▁besoms	-11956
▁bodage	-11957
▁bootie	-11958
▁boweth	-11959
▁bribes	-11960
▁bushes	-11961
▁carion	-11962
▁cassia	-11963
▁catche	-11964
▁circle	-11965
▁circum	-11966
▁coltes	-11967
▁couche	-11968
▁cousin	-11969
▁cratch	-11970
▁cummin	-11971
▁dagger	-11972
▁darker	-11973
▁deuice	-11974
▁dipped	-11975
▁dissim	-11976
▁dowrie	-11977
▁drowne	-11978
▁earing	-11979
▁elects	-11980
▁endued	-11981
▁engins	-11982
▁excuse	-11983
▁expell	-11984
▁fayrer	-11985
▁fearce	-11986
▁felowe	-11987
▁flieth	-11988
▁flowed	-11989
▁fouler	-11990
▁fulfil	-11991
▁gasing	-11992
▁gilded	-11993
▁halted	-11994
▁harder	-11995
▁hardly	-11996
▁hayles	-11997
▁heaped	-11998
▁heards	-11999
▁hearie	-12000
▁heweth	-12001
▁highly	-12002
▁hoofes	-12003
▁hooues	-12004
▁houres	-12005
▁iasper	-12006
▁inough	-12007
▁inside	-12008
▁intend	-12009
▁issues	-12010
▁kindly	-12011
▁ladder	-12012
▁lapped	-12013
▁lately	-12014
▁lawful	-12015
▁liketh	-12016
▁litter	-12017
▁locked	-12018
▁mantel	-12019
▁markes	-12020
▁marowe	-12021
▁mouing	-12022
▁mounts	-12023
▁neglig	-12024
▁nobred	-12025
▁nourse	-12026
▁orders	-12027
▁organs	-12028
▁palmer	-12029
▁pappes	-12030
▁pearle	-12031
▁perill	-12032
▁permit	-12033
▁pillow	-12034
▁pitche	-12035
▁pitied	-12036
▁polled	-12037
▁pottes	-12038
▁prease	-12039
▁prouer	-12040
▁ragges	-12041
▁ranges	-12042
▁rankes	-12043
▁rayled	-12044
▁recken	-12045
▁reckon	-12046
▁ringes	-12047
▁rosted	-12048
▁runnag	-12049
▁scrape	-12050
▁setled	-12051
▁seueth	-12052
▁shaume	-12053
▁sheade	-12054
▁sheete	-12055
▁shutte	-12056
▁sighed	-12057
▁singer	-12058
▁sithes	-12059
▁skales	-12060
▁slacke	-12061
▁songes	-12062
▁sowest	-12063
▁sowing	-12064
▁spanne	-12065
▁staine	-12066
▁stampt	-12067
▁stolen	-12068
▁storie	-12069
▁stript	-12070
▁stroke	-12071
▁studie	-12072
▁subuer	-12073
▁summer	-12074
▁summes	-12075
▁teates	-12076
▁tennes	-12077
▁therin	-12078
▁thighs	-12079
▁threwe	-12080
▁throwe	-12081
▁tingle	-12082
▁trauel	-12083
▁trieth	-12084
▁trough	-12085
▁tryest	-12086
▁tythes	-12087
▁vailes	-12088
▁vexeth	-12089
▁viewed	-12090
▁vnmerc	-12091
▁voweth	-12092
▁waterp	-12093
▁werest	-12094
▁wherin	-12095
▁wipeth	-12096
▁wounde	-12097
▁writer	-12098
▁yelowe	-12099
▁yssued	-12100
akrabbim	-12101
bergions	-12102
eminence	-12103
hahiroth	-12104
kincense	-12105
▁Aiialon	-12106
▁Alemeth	-12107
▁Ananiah	-12108
▁Another	-12109
▁Appoint	-12110
▁Asenath	-12111
▁Ataroth	-12112
▁Balaams	-12113
▁Beleeue	-12114
▁Bernice	-12115
▁Brother	-12116
▁Commest	-12117
▁Creator	-12118
▁Danites	-12119
▁Diddest	-12120
▁Didymus	-12121
▁Elhanan	-12122
▁Eliacim	-12123
▁Elishah	-12124
▁Erastus	-12125
▁Execute	-12126
▁Ezrites	-12127
▁Forsake	-12128
▁Fourtie	-12129
▁Friende	-12130
▁Fulfill	-12131
▁Gerizim	-12132
▁Gittith	-12133
▁Godhead	-12134
▁Gospels	-12135
▁Hamutal	-12136
▁Heathen	-12137
▁Hizkiah	-12138
▁Hodiiah	-12139
▁Holiest	-12140
▁Iahazah	-12141
▁Iahleel	-12142
▁Iahzeel	-12143
▁Iokneam	-12144
▁Kabzeel	-12145
▁Kerioth	-12146
▁Looking	-12147
▁Maharai	-12148
▁Memucan	-12149
▁Miletum	-12150
▁Naasson	-12151
▁Naphish	-12152
▁Neariah	-12153
▁Neregal	-12154
▁Pedazur	-12155
▁Pelaiah	-12156
▁Phichol	-12157
▁Pileser	-12158
▁Praised	-12159
▁Praysed	-12160
▁Princip	-12161
▁Prosely	-12162
▁Remooue	-12163
▁Searche	-12164
▁Seemeth	-12165
▁Shalman	-12166
▁Shebuel	-12167
▁Sheshai	-12168
▁Shethar	-12169
▁Shillem	-12170
▁Shimeah	-12171
▁Shubael	-12172
▁Shuppim	-12173
▁Tekoite	-12174
▁Tiglath	-12175
▁Tilgath	-12176
▁Trouble	-12177
▁Zabulon	-12178
▁Ziphims	-12179
▁abolish	-12180
▁affirme	-12181
▁afraied	-12182
▁appease	-12183
▁applied	-12184
▁assayed	-12185
▁astraye	-12186
▁awaketh	-12187
▁baldnes	-12188
▁begging	-12189
▁bewayle	-12190
▁boldnes	-12191
▁borowed	-12192
▁bramble	-12193
▁buriall	-12194
▁chapmen	-12195
▁chariot	-12196
▁cheynes	-12197
▁cloutes	-12198
▁compact	-12199
▁compell	-12200
▁concept	-12201
▁conduct	-12202
▁consist	-12203
▁cornets	-12204
▁couenat	-12205
▁coutrey	-12206
▁creeple	-12207
▁crommes	-12208
▁curious	-12209
▁dealeth	-12210
▁decrees	-12211
▁denyeth	-12212
▁depriue	-12213
▁desires	-12214
▁disobey	-12215
▁diuided	-12216
▁doctour	-12217
▁drawers	-12218
▁droppes	-12219
▁eightie	-12220
▁entised	-12221
▁eternal	-12222
▁example	-12223
▁exceede	-12224
▁excesse	-12225
▁eyelids	-12226
▁fayleth	-12227
▁feeling	-12228
▁fethers	-12229
▁figures	-12230
▁filleth	-12231
▁flaming	-12232
▁fleeing	-12233
▁fleshed	-12234
▁floodes	-12235
▁formost	-12236
▁girdels	-12237
▁gleaned	-12238
▁goblets	-12239
▁granted	-12240
▁growing	-12241
▁guiltie	-12242
▁gutters	-12243
▁hammers	-12244
▁hasting	-12245
▁heapeth	-12246
▁heauier	-12247
▁heiffer	-12248
▁helpeth	-12249
▁holdest	-12250
▁holding	-12251
▁hornets	-12252
▁hunting	-12253
▁imbrace	-12254
▁iniurie	-12255
▁intreat	-12256
▁ioyntes	-12257
▁killest	-12258
▁knoppes	-12259
▁leasure	-12260
▁leddest	-12261
▁licence	-12262
▁lusteth	-12263
▁marryed	-12264
▁maydens	-12265
▁meaning	-12266
▁melting	-12267
▁mildewe	-12268
▁mistres	-12269
▁mustard	-12270
▁nettles	-12271
▁notable	-12272
▁openest	-12273
▁opening	-12274
▁ordeine	-12275
▁parcell	-12276
▁parteth	-12277
▁passest	-12278
▁plowing	-12279
▁plowmen	-12280
▁poyntes	-12281
▁prisons	-12282
▁purenes	-12283
▁purgeth	-12284
▁purging	-12285
▁quenche	-12286
▁railing	-12287
▁raisins	-12288
▁rampart	-12289
▁reapest	-12290
▁rescued	-12291
▁reuenge	-12292
▁roareth	-12293
▁saciate	-12294
▁saphirs	-12295
▁sheetes	-12296
▁sherers	-12297
▁snuffed	-12298
▁sowedst	-12299
▁spondge	-12300
▁spoyles	-12301
▁stagger	-12302
▁stouped	-12303
▁subtile	-12304
▁suertie	-12305
▁talkest	-12306
▁tendeth	-12307
▁thousad	-12308
▁thumbes	-12309
▁timbrel	-12310
▁trauell	-12311
▁traunce	-12312
▁vnloose	-12313
▁wallowe	-12314
▁wanteth	-12315
▁warfare	-12316
▁weepest	-12317
▁weepeth	-12318
▁whereto	-12319
▁whorish	-12320
hattaauah	-12321
proueable	-12322
▁Achshaph	-12323
▁Adonikam	-12324
▁Algummim	-12325
▁Almuggim	-12326
▁Benhadad	-12327
▁Berachah	-12328
▁Cananite	-12329
▁Cenchrea	-12330
▁Cheeneth	-12331
▁Claudius	-12332
▁Conaniah	-12333
▁Daughter	-12334
▁Ebiasaph	-12335
▁Epaphras	-12336
▁Ezrahite	-12337
▁Gederoth	-12338
▁Golgotha	-12339
▁Gomorrha	-12340
▁Hachilah	-12341
▁Hagarims	-12342
▁Hananeel	-12343
▁Hararite	-12344
▁Harodite	-12345
▁Hodauiah	-12346
▁Horonite	-12347
▁Ieremias	-12348
▁Isshiiah	-12349
▁Korhites	-12350
▁Mahalath	-12351
▁Manasses	-12352
▁Marueile	-12353
▁Mattenai	-12354
▁Miniamin	-12355
▁Naharaim	-12356
▁Paradise	-12357
▁Pekahiah	-12358
▁Pelonite	-12359
▁Peninnah	-12360
▁Perceiue	-12361
▁Pleiades	-12362
▁Publican	-12363
▁Redeemer	-12364
▁Refraine	-12365
▁Siluanus	-12366
▁Stretche	-12367
▁Tahpenes	-12368
▁Thyatira	-12369
▁Tiberias	-12370
▁Zaccheus	-12371
▁Zidkiiah	-12372
▁Zipporah	-12373
▁abrogate	-12374
▁ancients	-12375
▁answeres	-12376
▁appetite	-12377
▁approued	-12378
▁astonish	-12379
▁befallen	-12380
▁blessest	-12381
▁blindnes	-12382
▁broidred	-12383
▁bucklers	-12384
▁buffeted	-12385
▁burdened	-12386
▁carkases	-12387
▁changers	-12388
▁changeth	-12389
▁chariots	-12390
▁charrets	-12391
▁chastice	-12392
▁citizens	-12393
▁copassed	-12394
▁crimosin	-12395
▁culpable	-12396
▁deferred	-12397
▁demanded	-12398
▁demaunde	-12399
▁describe	-12400
▁destroie	-12401
▁diamonde	-12402
▁disposed	-12403
▁diuision	-12404
▁doubting	-12405
▁dressers	-12406
▁dropping	-12407
▁dulcimer	-12408
▁dunghill	-12409
▁edifieth	-12410
▁elements	-12411
▁eloquent	-12412
▁emeraude	-12413
▁enbaumed	-12414
▁euentide	-12415
▁exceeded	-12416
▁exchange	-12417
▁famished	-12418
▁fastings	-12419
▁fethered	-12420
▁fiftenth	-12421
▁folowing	-12422
▁forbeare	-12423
▁forepart	-12424
▁gloriest	-12425
▁gnasheth	-12426
▁goddesse	-12427
▁greatnes	-12428
▁grinding	-12429
▁harnesse	-12430
▁hatefull	-12431
▁heresies	-12432
▁honestie	-12433
▁horseman	-12434
▁humbleth	-12435
▁hyreling	-12436
▁impotent	-12437
▁imputeth	-12438
▁inclosed	-12439
▁infidels	-12440
▁inlarged	-12441
▁interces	-12442
▁iudgment	-12443
▁kindreds	-12444
▁kinseman	-12445
▁laughing	-12446
▁launched	-12447
▁lentiles	-12448
▁lighting	-12449
▁locustes	-12450
▁marching	-12451
▁memorial	-12452
▁miseries	-12453
▁modestie	-12454
▁mourners	-12455
▁musician	-12456
▁ouerflow	-12457
▁ouermuch	-12458
▁partiall	-12459
▁perteine	-12460
▁pictures	-12461
▁planting	-12462
▁pleasing	-12463
▁practise	-12464
▁praising	-12465
▁procured	-12466
▁promoted	-12467
▁purchase	-12468
▁pursueth	-12469
▁rauished	-12470
▁reaching	-12471
▁rebuking	-12472
▁receiuer	-12473
▁reckened	-12474
▁reckoned	-12475
▁remoueth	-12476
▁renoumed	-12477
▁rescueth	-12478
▁reuenged	-12479
▁reuenger	-12480
▁russhing	-12481
▁sauourie	-12482
▁scattred	-12483
▁shadowes	-12484
▁sharpely	-12485
▁shepherd	-12486
▁singular	-12487
▁sorcerer	-12488
▁sparowes	-12489
▁spoyling	-12490
▁standard	-12491
▁stealeth	-12492
▁stiffene	-12493
▁stoodest	-12494
▁stoppeth	-12495
▁stragers	-12496
▁straunge	-12497
▁striueth	-12498
▁subdueth	-12499
▁suckling	-12500
▁suffreth	-12501
▁tempered	-12502
▁tempting	-12503
▁thirsted	-12504
▁timbrell	-12505
▁trespass	-12506
▁valleyes	-12507
▁virgines	-12508
▁vncomely	-12509
▁vnequall	-12510
▁vnstable	-12511
▁vntimely	-12512
▁vnwalled	-12513
▁vnwashen	-12514
▁wandring	-12515
▁watereth	-12516
▁withdrew	-12517
▁worthies	-12518
▁wrestled	-12519
▁ynkhorne	-12520
whatsoeuer	-12521
▁Ahisamach	-12522
▁Amalekite	-12523
▁Assuredly	-12524
▁Bakbukiah	-12525
▁Bethphage	-12526
▁Chemarims	-12527
▁Chenaniah	-12528
▁Cinneroth	-12529
▁Decapolis	-12530
▁Demetrius	-12531
▁Eliphalet	-12532
▁Harosheth	-12533
▁Herodians	-12534
▁Hypocrite	-12535
▁Iashobeam	-12536
▁Iehonadab	-12537
▁Ioshaphat	-12538
▁Manassehs	-12539
▁Pentecost	-12540
▁Pilneeser	-12541
▁Publicane	-12542
▁Remaliahs	-12543
▁Sacrifice	-12544
▁Salathiel	-12545
▁Saluation	-12546
▁Shecaniah	-12547
▁Shemariah	-12548
▁Trophimus	-12549
▁Wherewith	-12550
▁Zarephath	-12551
▁Zorobabel	-12552
▁aboundeth	-12553
▁aduantage	-12554
▁aduertise	-12555
▁adulterer	-12556
▁approoued	-12557
▁ascendeth	-12558
▁ascending	-12559
▁ashpannes	-12560
▁backeside	-12561
▁backeward	-12562
▁backwarde	-12563
▁baldnesse	-12564
▁barefoote	-12565
▁beautifie	-12566
▁begetteth	-12567
▁belonging	-12568
▁bewitched	-12569
▁bottomles	-12570
▁carpenter	-12571
▁certainly	-12572
▁certified	-12573
▁chanceler	-12574
▁chrystall	-12575
▁cisternes	-12576
▁conquered	-12577
▁conteined	-12578
▁contended	-12579
▁conteyned	-12580
▁courteous	-12581
▁craftines	-12582
▁creditour	-12583
▁declineth	-12584
▁disclosed	-12585
▁disdained	-12586
▁disobeyed	-12587
▁disposers	-12588
▁encourage	-12589
▁enlargeth	-12590
▁executeth	-12591
▁falsehood	-12592
▁familiars	-12593
▁fashioned	-12594
▁feathered	-12595
▁felicitie	-12596
▁fiercenes	-12597
▁fragments	-12598
▁fugitiues	-12599
▁fundation	-12600
▁furnished	-12601
▁galleries	-12602
▁gatherers	-12603
▁gentlenes	-12604
▁gluttonie	-12605
▁harberous	-12606
▁heritages	-12607
▁horsegate	-12608
▁humilitie	-12609
▁immortall	-12610
▁incurable	-12611
▁innocents	-12612
▁kinswoman	-12613
▁liberally	-12614
▁murthered	-12615
▁necessary	-12616
▁neyghbour	-12617
▁nineteene	-12618
▁obeysance	-12619
▁offendeth	-12620
▁operation	-12621
▁ouerthrew	-12622
▁ouerturne	-12623
▁paciently	-12624
▁patiently	-12625
▁polluteth	-12626
▁possessio	-12627
▁preparest	-12628
▁prepareth	-12629
▁priuities	-12630
▁reasoning	-12631
▁redeemeth	-12632
▁remainest	-12633
▁remaining	-12634
▁repenteth	-12635
▁reproches	-12636
▁rudiments	-12637
▁searching	-12638
▁sentences	-12639
▁sergeants	-12640
▁shadowing	-12641
▁sharpened	-12642
▁sicknesse	-12643
▁slipperie	-12644
▁sorceries	-12645
▁sparrowes	-12646
▁spiritual	-12647
▁straunger	-12648
▁stubburne	-12649
▁submitted	-12650
▁temperate	-12651
▁thirsteth	-12652
▁thresshed	-12653
▁triumphed	-12654
▁troublous	-12655
▁vestments	-12656
▁vpholdeth	-12657
▁vtterance	-12658
▁watergate	-12659
▁Adullamite	-12660
▁Barbarians	-12661
▁Beerothite	-12662
▁Carchemish	-12663
▁Centurions	-12664
▁Ephrathite	-12665
▁Euangelist	-12666
▁Hammedatha	-12667
▁Hushathite	-12668
▁Nehelamite	-12669
▁Shabbethai	-12670
▁Shoshannim	-12671
▁Southwarde	-12672
▁accustomed	-12673
▁admonition	-12674
▁affamished	-12675
▁blasphemer	-12676
▁bountifull	-12677
▁causelesse	-12678
▁certaintie	-12679
▁childlesse	-12680
▁committing	-12681
▁commoditie	-12682
▁confessing	-12683
▁confession	-12684
▁confirmeth	-12685
▁conteining	-12686
▁contemneth	-12687
▁copulation	-12688
▁counselers	-12689
▁coutenance	-12690
▁deliuering	-12691
▁disallowed	-12692
▁discharged	-12693
▁disquieted	-12694
▁dissembled	-12695
▁downewarde	-12696
▁enterprise	-12697
▁florisheth	-12698
▁forgiuenes	-12699
▁foureteene	-12700
▁friendship	-12701
▁goldesmith	-12702
▁gouernment	-12703
▁graciously	-12704
▁handmaides	-12705
▁hearkeneth	-12706
▁heretofore	-12707
▁householde	-12708
▁housholder	-12709
▁impossible	-12710
▁inhabitats	-12711
▁inhabiteth	-12712
▁inheritace	-12713
▁integritie	-12714
▁iourneying	-12715
▁kinsewoman	-12716
▁kinsfolkes	-12717
▁maintained	-12718
▁mercifully	-12719
▁ministreth	-12720
▁obscuritie	-12721
▁palmetrees	-12722
▁perceiuing	-12723
▁perteining	-12724
▁perteyneth	-12725
▁physicions	-12726
▁pilgrimage	-12727
▁possesseth	-12728
▁prophesies	-12729
▁refraineth	-12730
▁remembered	-12731
▁reprobates	-12732
▁reprocheth	-12733
▁reprooueth	-12734
▁sanctuarie	-12735
▁scattering	-12736
▁shamefully	-12737
▁sheepegate	-12738
▁signifying	-12739
▁soiourners	-12740
▁spikenarde	-12741
▁temperance	-12742
▁thresholde	-12743
▁vncouereth	-12744
▁voluntarie	-12745
▁withstande	-12746
▁worshipper	-12747
▁wrongfully	-12748
▁yourselues	-12749
▁Babylonians	-12750
▁Destruction	-12751
▁Israelitish	-12752
▁Mercieseate	-12753
▁Meshezabeel	-12754
▁Midianitish	-12755
▁Wheresoeuer	-12756
▁adulteresse	-12757
▁affectioned	-12758
▁apperteined	-12759
▁appointment	-12760
▁beneficiall	-12761
▁commandedst	-12762
▁considerest	-12763
▁corrections	-12764
▁counsellour	-12765
▁dromedaries	-12766
▁earthquakes	-12767
▁extortioner	-12768
▁faithfulnes	-12769
▁habbergions	-12770
▁haylestones	-12771
▁inquisition	-12772
▁interpreter	-12773
▁multiplieth	-12774
▁plenteously	-12775
▁preeminence	-12776
▁restitution	-12777
▁rottennesse	-12778
▁sheepefolde	-12779
▁soothsaying	-12780
▁stablisheth	-12781
▁stewardship	-12782
▁thitherward	-12783
▁thoroughout	-12784
▁vnaduisedly	-12785
▁vnblameable	-12786
▁vnmercifull	-12787
▁withdraweth	-12788
▁withholdeth	-12789
▁Epaphroditus	-12790
▁Southquarter	-12791
▁commadements	-12792
▁commandemets	-12793
▁confederacie	-12794
▁countenances	-12795
▁deceitfulnes	-12796
▁fornicatours	-12797
▁frankincense	-12798
▁inordinately	-12799
▁magnificence	-12800
▁opportunitie	-12801
▁rebelliously	-12802
▁stiffenecked	-12803
▁superfluitie	-12804
▁testimoniall	-12805
▁incorruptible	-12806
▁iustification	-12807
▁particoloured	-12808
▁transgresseth	-12809
▁transgressing	-12810
▁vnreproueable	-12811
▁Principalities	-12812
▁Righteousnesse	-12813
▁commandementes	-12814
▁maliciousnesse	-12815
▁principalities	-12816
Is	-12817
ON	-12818
ST	-12819
ARA	-12820
ESE	-12821
Gog	-12822
KEL	-12823
LES	-12824
ela	-12825
oni	-12826
ARAB	-12827
EKEL	-12828
akku	-12829
azez	-12830
cais	-12831
colt	-12832
delp	-12833
eleh	-12834
elem	-12835
enez	-12836
kuah	-12837
ldah	-12838
mene	-12839
ness	-12840
ocia	-12841
ogel	-12842
oler	-12843
ppad	-12844
sayd	-12845
vpon	-12846
yder	-12847
zias	-12848
▁ALS	-12849
▁Bui	-12850
▁Buk	-12851
▁Eui	-12852
▁Hew	-12853
▁Leg	-12854
▁Lyb	-12855
▁PER	-12856
▁Ruf	-12857
▁cyn	-12858
▁owe	-12859
▁syn	-12860
ahzur	-12861
akkuk	-12862
apkin	-12863
assie	-12864
ayned	-12865
azzam	-12866
backe	-12867
cheru	-12868
chipp	-12869
dagon	-12870
flesh	-12871
going	-12872
hadde	-12873
iefes	-12874
imael	-12875
iphia	-12876
iship	-12877
issah	-12878
luhim	-12879
ocust	-12880
odder	-12881
ospit	-12882
phach	-12883
phire	-12884
photh	-12885
rowly	-12886
rusim	-12887
sabas	-12888
sarea	-12889
serah	-12890
spect	-12891
sprey	-12892
thoms	-12893
tunat	-12894
udgod	-12895
urius	-12896
uttah	-12897
wayes	-12898
zabad	-12899
ena	-12900
uic	-12901
bone	-12902
cath	-12903
cter	-12904
elek	-12905
inon	-12906
lait	-12907
siah	-12908
uite	-12909
ynia	-12910
▁Ind	-12911
▁Meu	-12912
▁Nod	-12913
▁THA	-12914
▁gla	-12915
▁ker	-12916
▁moy	-12917
anath	-12918
atham	-12919
gamus	-12920
habim	-12921
inite	-12922
laine	-12923
ngedi	-12924
olait	-12925
quare	-12926
tamar	-12927
▁ALSO	-12928
▁Abda	-12929
▁Adna	-12930
▁Aene	-12931
▁Agar	-12932
▁Base	-12933
▁Beri	-12934
▁Chal	-12935
▁Crue	-12936
▁Crye	-12937
▁Desp	-12938
▁Doph	-12939
▁Dorc	-12940
▁Emor	-12941
▁Euil	-12942
▁Gidd	-12943
▁Haai	-12944
▁Haga	-12945
▁Huss	-12946
▁Iano	-12947
▁Iiph	-12948
▁Imla	-12949
▁Imri	-12950
▁Isui	-12951
▁Kark	-12952
▁Keep	-12953
▁Kola	-12954
▁Life	-12955
▁Lots	-12956
▁Malc	-12957
▁Mars	-12958
▁Meho	-12959
▁Mehu	-12960
▁Meon	-12961
▁Milc	-12962
▁Only	-12963
▁Phys	-12964
▁Poch	-12965
▁Raam	-12966
▁Resc	-12967
▁Sabe	-12968
▁Said	-12969
▁Save	-12970
▁Sela	-12971
▁Smyr	-12972
▁THAT	-12973
▁THIS	-12974
▁Tiph	-12975
▁Tobi	-12976
▁Ziza	-12977
▁buds	-12978
▁bugg	-12979
▁cave	-12980
▁ches	-12981
▁cosp	-12982
▁cucu	-12983
▁egge	-12984
▁flea	-12985
▁fyre	-12986
▁gaze	-12987
▁insp	-12988
▁love	-12989
▁orac	-12990
▁pism	-12991
▁reme	-12992
▁renu	-12993
▁surm	-12994
▁tune	-12995
▁tyre	-12996
▁vent	-12997
▁view	-12998
▁vnru	-12999
ady	-13000
loe	-13001
oss	-13002
tab	-13003
▁Li	-13004
alet	-13005
cast	-13006
mnes	-13007
odad	-13008
ourt	-13009
▁Cab	-13010
▁Dar	-13011
▁Elo	-13012
▁Int	-13013
▁Ior	-13014
▁spy	-13015
▁vil	-13016
erath	-13017
tabor	-13018
zites	-13019
▁Arid	-13020
▁Eloi	-13021
▁Lady	-13022
▁Lesh	-13023
▁Sale	-13024
▁Shul	-13025
▁argu	-13026
▁ashp	-13027
▁ball	-13028
▁bast	-13029
▁stad	-13030
▁tide	-13031
▁void	-13032
▁ynke	-13033
abarim	-13034
airing	-13035
aphims	-13036
athias	-13037
atrise	-13038
berith	-13039
biters	-13040
bonite	-13041
border	-13042
caonia	-13043
chenaz	-13044
childe	-13045
hoglah	-13046
iander	-13047
iencie	-13048
inamon	-13049
inctly	-13050
istles	-13051
ladelp	-13052
leeuer	-13053
losoph	-13054
mighty	-13055
nimrah	-13056
opards	-13057
opolis	-13058
ounder	-13059
quence	-13060
quired	-13061
rannie	-13062
raphel	-13063
ribute	-13064
rushes	-13065
saiers	-13066
sheard	-13067
tophel	-13068
ublike	-13069
ushael	-13070
usshed	-13071
▁Abish	-13072
▁Abiud	-13073
▁Ahaua	-13074
▁Ahlai	-13075
▁Aneth	-13076
▁Aphar	-13077
▁Auims	-13078
▁Auith	-13079
▁Beaut	-13080
▁Bedad	-13081
▁Bedan	-13082
▁Besai	-13083
▁Cabul	-13084
▁Calah	-13085
▁Cozbi	-13086
▁Crisp	-13087
▁Dodan	-13088
▁Eglah	-13089
▁Eldad	-13090
▁Eliud	-13091
▁Ezbon	-13092
▁Gaber	-13093
▁Gahar	-13094
▁Gareb	-13095
▁Gebal	-13096
▁Giloh	-13097
▁Glory	-13098
▁Haggi	-13099
boz	-13100
cal	-13101
gem	-13102
hag	-13103
lal	-13104
sos	-13105
wra	-13106
yng	-13107
cote	-13108
emah	-13109
eter	-13110
hith	-13111
hode	-13112
ital	-13113
iyng	-13114
lude	-13115
ride	-13116
robe	-13117
shes	-13118
uter	-13119
▁Ell	-13120
▁Eue	-13121
▁Mai	-13122
▁Nom	-13123
▁kit	-13124
amant	-13125
antes	-13126
asest	-13127
hagid	-13128
iters	-13129
oters	-13130
plete	-13131
urnes	-13132
▁Auen	-13133
▁Azor	-13134
▁Cong	-13135
▁Hill	-13136
▁Mere	-13137
▁crou	-13138
▁mynt	-13139
▁prud	-13140
▁spin	-13141
▁spue	-13142
boznai	-13143
pheleh	-13144
wracke	-13145
▁Assos	-13146
▁Ether	-13147
▁Halak	-13148
▁Heale	-13149
▁Helam	-13150
▁Helem	-13151
▁Heuah	-13152
▁Hirah	-13153
▁Iabne	-13154
▁Iareb	-13155
▁Iarha	-13156
▁Ibzan	-13157
▁Iedid	-13158
▁Iesvs	-13159
▁Imlah	-13160
▁Imman	-13161
▁Imnah	-13162
▁India	-13163
▁Iogbe	-13164
▁Iohns	-13165
▁Iokme	-13166
▁Ithre	-13167
▁KINGS	-13168
▁Keros	-13169
▁Light	-13170
▁Lydia	-13171
▁Madai	-13172
▁Madon	-13173
▁Medad	-13174
▁Medan	-13175
▁Mesop	-13176
▁Mikne	-13177
▁Night	-13178
▁Nisan	-13179
▁Nisro	-13180
▁Nogah	-13181
▁Orpah	-13182
▁PARAB	-13183
▁Padon	-13184
▁Pelet	-13185
▁Pinon	-13186
▁Pisid	-13187
▁Potip	-13188
▁Pride	-13189
▁Reade	-13190
▁Regem	-13191
▁Ribai	-13192
▁Rogel	-13193
▁Romam	-13194
▁Rufus	-13195
▁Sabdi	-13196
▁Sabte	-13197
▁Sacar	-13198
▁Sadoc	-13199
eps	-13200
hod	-13201
lus	-13202
mim	-13203
ris	-13204
ziz	-13205
zon	-13206
▁Ig	-13207
acob	-13208
alia	-13209
atah	-13210
chef	-13211
ctur	-13212
esie	-13213
hnah	-13214
niah	-13215
rame	-13216
toah	-13217
▁Add	-13218
▁Hom	-13219
▁Lah	-13220
▁Por	-13221
▁Pub	-13222
▁Soc	-13223
▁Tha	-13224
arrow	-13225
aying	-13226
chefs	-13227
ethah	-13228
ethse	-13229
hilus	-13230
laime	-13231
liued	-13232
ratah	-13233
uttes	-13234
▁Hard	-13235
▁Shar	-13236
▁page	-13237
▁pant	-13238
▁pate	-13239
▁skri	-13240
▁tame	-13241
▁vpro	-13242
cturus	-13243
esteps	-13244
ethsem	-13245
▁Antip	-13246
▁Geber	-13247
▁Seled	-13248
▁Serah	-13249
▁Sered	-13250
▁Sisam	-13251
▁Smoke	-13252
▁Socoh	-13253
▁Sosth	-13254
▁Sotai	-13255
▁THESE	-13256
▁Tarah	-13257
▁Taste	-13258
▁Tebez	-13259
▁Telem	-13260
▁Tidal	-13261
▁Tiras	-13262
▁Tirha	-13263
▁Waite	-13264
▁Zelek	-13265
▁Zepho	-13266
▁adder	-13267
▁badde	-13268
▁banks	-13269
▁bidde	-13270
▁boyes	-13271
▁budde	-13272
▁cooke	-13273
▁copas	-13274
▁decke	-13275
▁diall	-13276
▁ditch	-13277
▁dores	-13278
▁drops	-13279
▁duety	-13280
▁empty	-13281
▁espie	-13282
▁exact	-13283
▁flute	-13284
▁glain	-13285
▁gored	-13286
▁graye	-13287
▁harte	-13288
▁henne	-13289
▁hough	-13290
▁keyes	-13291
▁ladie	-13292
▁loafe	-13293
▁lunat	-13294
▁marow	-13295
▁marte	-13296
▁merci	-13297
▁mites	-13298
▁myrie	-13299
ND	-13300
kt	-13301
ben	-13302
enc	-13303
fes	-13304
irt	-13305
law	-13306
llu	-13307
▁Fv	-13308
ammi	-13309
ency	-13310
onie	-13311
rian	-13312
▁Eld	-13313
▁Fvr	-13314
▁Hid	-13315
▁Mau	-13316
▁hot	-13317
▁tit	-13318
about	-13319
aleed	-13320
cheth	-13321
ility	-13322
saith	-13323
thani	-13324
theel	-13325
uches	-13326
▁Apha	-13327
▁Band	-13328
▁Cuth	-13329
▁Gore	-13330
▁Iram	-13331
▁Were	-13332
▁depe	-13333
▁dirt	-13334
▁foes	-13335
▁gend	-13336
▁gore	-13337
▁ingr	-13338
▁kite	-13339
achiah	-13340
itesse	-13341
necked	-13342
thites	-13343
▁Amitt	-13344
▁Goren	-13345
▁Hebre	-13346
▁Hidde	-13347
▁Mauzz	-13348
▁Shuni	-13349
▁abill	-13350
▁alowe	-13351
▁chewe	-13352
▁choke	-13353
▁deckt	-13354
▁houle	-13355
▁narow	-13356
▁nauel	-13357
▁nourt	-13358
▁pinac	-13359
▁pinne	-13360
▁pulse	-13361
▁pusht	-13362
▁rebel	-13363
▁rubie	-13364
▁saint	-13365
▁sixty	-13366
▁slumb	-13367
▁spilt	-13368
▁spite	-13369
▁spyes	-13370
▁staie	-13371
▁swept	-13372
▁thece	-13373
▁tynne	-13374
▁tyres	-13375
▁viewe	-13376
▁vnlab	-13377
▁vnlaw	-13378
▁wayed	-13379
▁webbe	-13380
▁woufe	-13381
▁yncke	-13382
appoint	-13383
bathite	-13384
bearing	-13385
ceritie	-13386
chippus	-13387
eltrees	-13388
enezite	-13389
fleshed	-13390
haddeus	-13391
harelah	-13392
hazioth	-13393
iecture	-13394
istered	-13395
isterie	-13396
landish	-13397
lathite	-13398
liction	-13399
Be	-13400
SH	-13401
All	-13402
eaw	-13403
lem	-13404
par	-13405
wke	-13406
zez	-13407
asts	-13408
ehar	-13409
hacc	-13410
▁Lie	-13411
▁Sus	-13412
▁bel	-13413
atite	-13414
bands	-13415
eders	-13416
hadid	-13417
ilers	-13418
irion	-13419
sayth	-13420
▁Baas	-13421
▁Ieha	-13422
▁Pare	-13423
▁alow	-13424
▁bely	-13425
▁dale	-13426
▁pits	-13427
▁vitt	-13428
archab	-13429
▁Areli	-13430
▁Gamal	-13431
▁Massa	-13432
▁Mered	-13433
▁Parez	-13434
▁Spare	-13435
▁araye	-13436
▁erect	-13437
▁mouse	-13438
▁rowed	-13439
▁vehem	-13440
▁vnsau	-13441
▁wayle	-13442
meholah	-13443
osition	-13444
regatio	-13445
rephoth	-13446
ruhamah	-13447
shemite	-13448
tunatus	-13449
udgodah	-13450
▁Abdiel	-13451
▁Adbeel	-13452
▁Adrame	-13453
▁Adriel	-13454
▁Aeneas	-13455
▁Agabus	-13456
▁Ahihud	-13457
▁Ahiram	-13458
▁Anamim	-13459
▁Aphars	-13460
▁Ashnah	-13461
▁Asriel	-13462
▁Bakbuk	-13463
▁Beroth	-13464
▁Bochim	-13465
▁Boznai	-13466
▁Builde	-13467
▁Butter	-13468
▁Buylde	-13469
▁Buzite	-13470
▁Calneh	-13471
▁Cappad	-13472
▁Cheran	-13473
▁Common	-13474
▁Crosse	-13475
▁Darkon	-13476
▁Dinhab	-13477
▁Dorcas	-13478
▁Elasah	-13479
▁Eldaah	-13480
▁Entise	-13481
▁Ephlal	-13482
▁Eshban	-13483
▁Esters	-13484
▁Exhort	-13485
▁Fiftie	-13486
▁Friend	-13487
▁Galeed	-13488
▁Gazzam	-13489
▁Gennes	-13490
▁Gether	-13491
▁Ginath	-13492
▁Harden	-13493
▁Hatred	-13494
▁Hattil	-13495
▁Hauran	-13496
▁Heleah	-13497
▁Hephzi	-13498
▁Hillel	-13499
CH	-13500
EM	-13501
If	-13502
OM	-13503
To	-13504
bo	-13505
eh	-13506
ki	-13507
mo	-13508
dib	-13509
din	-13510
eab	-13511
yle	-13512
▁SA	-13513
▁ax	-13514
quer	-13515
zeba	-13516
▁Aff	-13517
▁iug	-13518
fters	-13519
orned	-13520
▁Amzi	-13521
▁Aran	-13522
▁Fare	-13523
▁Gadi	-13524
▁Give	-13525
▁Irad	-13526
▁Pres	-13527
▁Seth	-13528
▁boke	-13529
▁dine	-13530
▁note	-13531
▁wrin	-13532
haliah	-13533
itteth	-13534
penses	-13535
▁Bohan	-13536
▁Theop	-13537
▁cords	-13538
▁eared	-13539
▁forre	-13540
▁hauke	-13541
▁housh	-13542
▁iugde	-13543
▁liked	-13544
▁lyers	-13545
▁marua	-13546
▁outst	-13547
▁whelp	-13548
whereby	-13549
▁Ashter	-13550
▁Bandes	-13551
▁Cainan	-13552
▁Commit	-13553
▁Horims	-13554
▁Hozias	-13555
▁Huldah	-13556
▁Humble	-13557
▁Hupham	-13558
▁Iaacob	-13559
▁Iairus	-13560
▁Idoles	-13561
▁Iechon	-13562
▁Iemuel	-13563
▁Iimnah	-13564
▁Iosias	-13565
▁Iriiah	-13566
▁Ishiah	-13567
▁Ismael	-13568
▁Iulius	-13569
▁Kenath	-13570
▁Laying	-13571
▁Legion	-13572
▁Leshem	-13573
▁Locust	-13574
▁Lotans	-13575
▁Luhith	-13576
▁Maaleh	-13577
▁Mahali	-13578
▁Matred	-13579
▁Mehida	-13580
▁Melech	-13581
▁Melzar	-13582
▁Meunim	-13583
▁Mibzar	-13584
▁Middin	-13585
▁Milcom	-13586
▁Morash	-13587
▁Moriah	-13588
▁Nachor	-13589
▁Nahors	-13590
▁Naphtu	-13591
▁Neziah	-13592
▁Nimrim	-13593
▁Nomber	-13594
▁Others	-13595
▁Parbar	-13596
▁Peniel	-13597
▁Persec	-13598
▁Pethor	-13599
ME	-13600
NT	-13601
TE	-13602
NTO	-13603
eny	-13604
fig	-13605
lad	-13606
lds	-13607
nst	-13608
reh	-13609
▁ah	-13610
▁yd	-13611
enan	-13612
iaak	-13613
irme	-13614
itre	-13615
keis	-13616
lose	-13617
oule	-13618
urer	-13619
▁Age	-13620
▁Amp	-13621
▁Ban	-13622
▁Cur	-13623
▁Eri	-13624
▁beh	-13625
▁hey	-13626
▁lea	-13627
▁nie	-13628
arcab	-13629
atiue	-13630
euery	-13631
iring	-13632
nitie	-13633
tolad	-13634
▁Emer	-13635
▁Ishb	-13636
▁Suah	-13637
▁east	-13638
▁goad	-13639
▁lade	-13640
▁waue	-13641
▁whip	-13642
Hinnom	-13643
etings	-13644
iaakan	-13645
ieling	-13646
marcab	-13647
▁Bered	-13648
▁Curse	-13649
▁Hazer	-13650
▁Iarah	-13651
▁Noahs	-13652
▁flock	-13653
▁heaps	-13654
▁hoate	-13655
▁nitre	-13656
astours	-13657
▁Direct	-13658
▁Giuing	-13659
▁Immanu	-13660
▁Ishbak	-13661
▁Kelita	-13662
▁Phurah	-13663
▁Pithon	-13664
▁Pleade	-13665
▁Preach	-13666
▁Reigne	-13667
▁Rescue	-13668
▁Rissah	-13669
▁Saddle	-13670
▁Salcah	-13671
▁Salcha	-13672
▁Salome	-13673
▁Saphir	-13674
▁Shalem	-13675
▁Shamer	-13676
▁Shaueh	-13677
▁Shesha	-13678
▁Shilhi	-13679
▁Shobai	-13680
▁Shomer	-13681
▁Siluer	-13682
▁Sopher	-13683
▁Striue	-13684
▁Sychem	-13685
▁Syrian	-13686
▁Teache	-13687
▁Teresh	-13688
▁Tikuah	-13689
▁Topaze	-13690
▁Wonder	-13691
▁Zaauan	-13692
▁Zethan	-13693
▁Zimran	-13694
▁Zophah	-13695
▁aliant	-13696
▁amongs	-13697
▁ankers	-13698
▁asmuch	-13699
ei	-13700
dam	-13701
kar	-13702
▁TO	-13703
inly	-13704
lege	-13705
lish	-13706
ouch	-13707
rech	-13708
shea	-13709
▁Bir	-13710
▁Cad	-13711
▁Fal	-13712
▁Hul	-13713
▁Lat	-13714
▁Ten	-13715
▁aut	-13716
▁ewe	-13717
▁hau	-13718
▁lim	-13719
adest	-13720
baoth	-13721
cline	-13722
forth	-13723
ileam	-13724
▁Bine	-13725
▁Hari	-13726
▁anie	-13727
▁haut	-13728
▁inex	-13729
▁rase	-13730
▁vnth	-13731
anitie	-13732
uicken	-13733
ularly	-13734
▁Ashur	-13735
▁Cedar	-13736
▁Couer	-13737
▁Eliah	-13738
▁Hatip	-13739
▁Hezir	-13740
▁Oshea	-13741
▁Tolde	-13742
▁arrow	-13743
▁enfor	-13744
▁haunt	-13745
▁leapt	-13746
▁ouerp	-13747
▁persu	-13748
▁woods	-13749
▁yarne	-13750
euentie	-13751
▁Azarie	-13752
▁Barley	-13753
▁Cadesh	-13754
▁Engedi	-13755
▁Hariph	-13756
▁Zephon	-13757
▁amitie	-13758
▁asshes	-13759
▁attent	-13760
▁auoyde	-13761
▁awaite	-13762
▁bagges	-13763
▁bakers	-13764
▁barrel	-13765
▁bewray	-13766
▁bideth	-13767
▁bitten	-13768
▁borowe	-13769
▁boyled	-13770
▁bragge	-13771
▁brideg	-13772
▁bruite	-13773
▁bucket	-13774
▁bundel	-13775
▁carnal	-13776
▁carpet	-13777
▁ceders	-13778
▁chafed	-13779
▁chance	-13780
▁cheese	-13781
▁choyse	-13782
▁churle	-13783
▁clefts	-13784
▁clokes	-13785
▁colled	-13786
▁conies	-13787
▁conuoc	-13788
▁cosecr	-13789
▁counse	-13790
▁crafte	-13791
▁cribbe	-13792
▁deaths	-13793
▁delect	-13794
▁dettes	-13795
▁deuine	-13796
▁doutes	-13797
▁drying	-13798
▁emerau	-13799
dah	-13800
hog	-13801
sia	-13802
yue	-13803
alim	-13804
ares	-13805
buke	-13806
cest	-13807
liah	-13808
othi	-13809
▁Bid	-13810
▁Ges	-13811
▁Gob	-13812
▁Neh	-13813
▁Sor	-13814
▁Wor	-13815
▁vpr	-13816
abach	-13817
aphat	-13818
ayled	-13819
ishah	-13820
lding	-13821
maiah	-13822
otion	-13823
ullus	-13824
▁Amok	-13825
▁Baan	-13826
▁Maas	-13827
▁Thir	-13828
▁babl	-13829
▁bore	-13830
▁cage	-13831
▁feet	-13832
▁mast	-13833
▁rele	-13834
▁west	-13835
asseth	-13836
haddon	-13837
hanter	-13838
hement	-13839
ithmah	-13840
redath	-13841
▁Adnah	-13842
▁Baana	-13843
▁Incre	-13844
▁Ishma	-13845
▁Mysia	-13846
▁Salem	-13847
▁aspes	-13848
▁marre	-13849
▁stony	-13850
▁vewed	-13851
▁Appaim	-13852
▁Eshton	-13853
▁Heldai	-13854
▁Kemuel	-13855
▁Nehush	-13856
▁affian	-13857
▁consol	-13858
▁doings	-13859
▁endeth	-13860
▁enioye	-13861
▁enrich	-13862
▁erreth	-13863
▁espyed	-13864
▁expect	-13865
▁extoll	-13866
▁extrem	-13867
▁fading	-13868
▁fenced	-13869
▁fining	-13870
▁fodder	-13871
▁folkes	-13872
▁fometh	-13873
▁foming	-13874
▁forbad	-13875
▁fraude	-13876
▁frosen	-13877
▁gaines	-13878
▁gelded	-13879
▁graffe	-13880
▁greedy	-13881
▁groate	-13882
▁groned	-13883
▁groped	-13884
▁grosse	-13885
▁grouth	-13886
▁guided	-13887
▁guides	-13888
▁hadest	-13889
▁handed	-13890
▁hanted	-13891
▁happie	-13892
▁haters	-13893
▁headed	-13894
▁hearke	-13895
▁heathe	-13896
▁hinges	-13897
▁hopeth	-13898
▁hospit	-13899
rel	-13900
ubm	-13901
▁oh	-13902
fuls	-13903
sher	-13904
ulus	-13905
utha	-13906
▁Sto	-13907
▁Zif	-13908
▁big	-13909
▁exa	-13910
▁swo	-13911
aynes	-13912
gaion	-13913
geber	-13914
igned	-13915
ittah	-13916
lieth	-13917
selfe	-13918
ubath	-13919
▁Aser	-13920
▁Atad	-13921
▁Bran	-13922
▁Ioha	-13923
▁Ohad	-13924
▁Subm	-13925
▁ague	-13926
▁aspe	-13927
▁assw	-13928
▁cran	-13929
▁exte	-13930
▁eyed	-13931
▁loth	-13932
▁mire	-13933
▁mony	-13934
▁pert	-13935
▁root	-13936
▁sope	-13937
edeiah	-13938
▁Adram	-13939
▁Asses	-13940
▁Beeri	-13941
▁Cyren	-13942
▁Dwell	-13943
▁TEKEL	-13944
▁crane	-13945
▁hewer	-13946
▁locke	-13947
▁sixth	-13948
▁weyed	-13949
leeuest	-13950
tappuah	-13951
▁Abital	-13952
▁Ieriah	-13953
▁Lubims	-13954
▁behaue	-13955
▁bigger	-13956
▁breede	-13957
▁breers	-13958
▁cousel	-13959
▁fautes	-13960
▁goodes	-13961
▁humbly	-13962
▁hunted	-13963
▁hymnes	-13964
▁iayler	-13965
▁impute	-13966
▁ioynts	-13967
▁kingly	-13968
▁ladeth	-13969
▁lender	-13970
▁liddes	-13971
▁lilyes	-13972
▁linage	-13973
▁loines	-13974
▁loseth	-13975
▁louder	-13976
▁makers	-13977
▁marred	-13978
▁martyr	-13979
▁medowe	-13980
▁metall	-13981
▁mildew	-13982
▁mingle	-13983
▁missed	-13984
▁mocker	-13985
▁mortal	-13986
▁mortar	-13987
▁mouled	-13988
▁mounte	-13989
▁mouths	-13990
▁napkin	-13991
▁natios	-13992
▁nigard	-13993
▁nuttes	-13994
▁ouches	-13995
▁ouerla	-13996
▁pannes	-13997
▁pigeon	-13998
▁pilled	-13999
oba	-14000
arem	-14001
cheb	-14002
ieli	-14003
kain	-14004
lias	-14005
lier	-14006
obab	-14007
▁Ami	-14008
▁Hac	-14009
▁dyd	-14010
iable	-14011
▁Alam	-14012
▁Aris	-14013
▁Reba	-14014
▁Zoba	-14015
▁tomb	-14016
▁wobe	-14017
▁wote	-14018
chebed	-14019
cities	-14020
hopper	-14021
irming	-14022
meneus	-14023
▁Alush	-14024
▁Gazez	-14025
▁Hobab	-14026
▁Meron	-14027
▁WORDS	-14028
▁accom	-14029
▁crept	-14030
▁encha	-14031
▁heron	-14032
▁lamet	-14033
▁occas	-14034
▁sutes	-14035
▁tales	-14036
▁vaunt	-14037
▁waked	-14038
▁wines	-14039
ariwise	-14040
▁Adoram	-14041
▁Forbid	-14042
▁Forget	-14043
▁Hatita	-14044
▁Husham	-14045
▁Madman	-14046
▁Tartan	-14047
▁castle	-14048
▁extend	-14049
▁fayned	-14050
▁fortie	-14051
▁fouret	-14052
▁laught	-14053
▁orchar	-14054
▁persua	-14055
▁plated	-14056
▁pondes	-14057
▁portes	-14058
▁powder	-14059
▁pricks	-14060
▁proper	-14061
▁putrif	-14062
▁raftes	-14063
▁ragest	-14064
▁rashly	-14065
▁reiect	-14066
▁rescue	-14067
▁reynes	-14068
▁ribbes	-14069
▁roomes	-14070
▁rudder	-14071
▁saints	-14072
▁schole	-14073
▁seller	-14074
▁seuens	-14075
▁shedde	-14076
▁sheues	-14077
▁showte	-14078
▁sighes	-14079
▁silece	-14080
▁slippe	-14081
▁sorrow	-14082
▁sparke	-14083
▁spokes	-14084
▁staied	-14085
▁stakes	-14086
▁sterne	-14087
▁stocks	-14088
▁storeh	-14089
▁stoupe	-14090
▁strage	-14091
▁sucked	-14092
▁sunder	-14093
▁sundry	-14094
▁sunken	-14095
▁surety	-14096
▁surges	-14097
▁swanne	-14098
▁swarme	-14099
mai	-14100
zal	-14101
▁IS	-14102
alai	-14103
amia	-14104
haba	-14105
klah	-14106
noth	-14107
▁Biz	-14108
▁Ias	-14109
▁Rul	-14110
▁Sia	-14111
▁bun	-14112
▁raw	-14113
ageth	-14114
bleth	-14115
cribe	-14116
oddes	-14117
pline	-14118
▁Anab	-14119
▁Eran	-14120
▁Helk	-14121
▁Iaan	-14122
▁Soph	-14123
▁Zabb	-14124
▁inge	-14125
▁latt	-14126
▁spun	-14127
athers	-14128
ilshan	-14129
orting	-14130
otamia	-14131
▁Iaare	-14132
▁Merom	-14133
▁Offer	-14134
▁Purge	-14135
▁Rocke	-14136
▁ascri	-14137
▁busib	-14138
▁hyest	-14139
▁merry	-14140
▁newly	-14141
▁roufe	-14142
▁sanke	-14143
▁woode	-14144
diction	-14145
▁Iasher	-14146
▁Izehar	-14147
▁Lucius	-14148
▁Magist	-14149
▁Rezeph	-14150
▁Shihor	-14151
▁chaber	-14152
▁cheare	-14153
▁conuey	-14154
▁family	-14155
▁layest	-14156
▁noised	-14157
▁pilots	-14158
▁purely	-14159
▁refray	-14160
▁shafte	-14161
▁sweate	-14162
▁talets	-14163
▁tangle	-14164
▁thread	-14165
▁titles	-14166
▁tombes	-14167
▁traine	-14168
▁trance	-14169
▁triest	-14170
▁trusse	-14171
▁tryeth	-14172
▁twayne	-14173
▁tyrant	-14174
▁vnitie	-14175
▁vnruly	-14176
▁vomite	-14177
▁vprore	-14178
▁waking	-14179
▁waster	-14180
▁watred	-14181
▁weaker	-14182
▁weaned	-14183
▁whales	-14184
▁wherby	-14185
▁whited	-14186
▁whiter	-14187
▁winked	-14188
▁womens	-14189
▁yester	-14190
antageth	-14191
archable	-14192
bekashah	-14193
bukeable	-14194
esherers	-14195
hagidgad	-14196
helathah	-14197
inkeling	-14198
ittingly	-14199
azl	-14200
▁AR	-14201
esed	-14202
▁Auo	-14203
▁Zoh	-14204
▁fac	-14205
Selah	-14206
attah	-14207
chang	-14208
sings	-14209
tings	-14210
▁Bazl	-14211
▁Beno	-14212
▁Cary	-14213
▁Igal	-14214
▁Spea	-14215
▁boye	-14216
▁dowe	-14217
▁foxe	-14218
▁keye	-14219
▁plea	-14220
▁slid	-14221
iuings	-14222
▁Achim	-14223
▁Carie	-14224
▁Ludim	-14225
▁Phile	-14226
▁Seale	-14227
▁bonne	-14228
▁graft	-14229
▁graie	-14230
▁gried	-14231
▁incha	-14232
▁newes	-14233
▁repet	-14234
▁shefe	-14235
▁spewe	-14236
▁varie	-14237
eration	-14238
▁Diuers	-14239
▁Gallim	-14240
▁Harbon	-14241
▁Hiuite	-14242
▁Iaakan	-14243
▁Kittim	-14244
▁Spaine	-14245
▁castel	-14246
▁compel	-14247
▁gleane	-14248
▁teller	-14249
▁weaken	-14250
▁wished	-14251
elinesse	-14252
merodach	-14253
naharaim	-14254
ortunate	-14255
perately	-14256
uncelour	-14257
▁Abishur	-14258
▁Adummim	-14259
▁Alamoth	-14260
▁Almodad	-14261
▁Amittai	-14262
▁Asahiah	-14263
▁Askelon	-14264
▁Asuppim	-14265
▁Azariel	-14266
▁Bilshan	-14267
▁Bocheru	-14268
▁Bukkiah	-14269
▁Caldean	-14270
▁Chanaan	-14271
▁Charran	-14272
▁Cherith	-14273
▁Chilion	-14274
▁Chisleu	-14275
▁Crispus	-14276
▁Deceiue	-14277
▁Despise	-14278
▁Dodanim	-14279
▁Dophkah	-14280
▁Doutles	-14281
▁Ebronah	-14282
▁Elihaba	-14283
▁Elishua	-14284
▁Ellasar	-14285
▁Eltekeh	-14286
▁Eltolad	-14287
▁Elzabad	-14288
▁Encline	-14289
▁Enquire	-14290
▁Eshbaal	-14291
▁Ezekias	-14292
▁Foolish	-14293
▁Gershun	-14294
▁Geshuri	-14295
▁Gethsem	-14296
▁Gittaim	-14297
▁Habaiah	-14298
▁Hammath	-14299
yl	-14300
abib	-14301
▁Gur	-14302
▁Luc	-14303
▁Nib	-14304
▁Phe	-14305
▁Sap	-14306
▁adm	-14307
▁bit	-14308
▁sir	-14309
▁tye	-14310
abbed	-14311
chaie	-14312
chins	-14313
denes	-14314
melah	-14315
monah	-14316
mpire	-14317
▁Bach	-14318
▁Have	-14319
▁Hell	-14320
▁Mash	-14321
▁Zore	-14322
▁fray	-14323
▁gage	-14324
▁prat	-14325
▁verm	-14326
ckling	-14327
delium	-14328
seller	-14329
shanke	-14330
▁Cleop	-14331
▁Eliam	-14332
▁Lions	-14333
▁Maker	-14334
▁Manah	-14335
▁Phebe	-14336
▁Punon	-14337
▁Shalt	-14338
▁Shiph	-14339
▁Wiues	-14340
▁dawne	-14341
▁eater	-14342
▁sense	-14343
▁yoked	-14344
▁concer	-14345
▁forged	-14346
▁garner	-14347
▁hiding	-14348
▁kneele	-14349
▁liking	-14350
▁lintel	-14351
▁target	-14352
▁vnable	-14353
▁vsurer	-14354
▁worlds	-14355
eakeable	-14356
▁Cleopas	-14357
▁Haradah	-14358
▁Hasshub	-14359
▁Hatipha	-14360
▁Hethlon	-14361
▁Holding	-14362
▁Hussham	-14363
▁Iaasiel	-14364
▁Iabneel	-14365
▁Ianohah	-14366
▁Ietheth	-14367
▁Iewesse	-14368
▁Iiphtah	-14369
▁Inquire	-14370
▁Ioatham	-14371
▁Iokmeam	-14372
▁Isshiah	-14373
▁Ithream	-14374
▁Iupiter	-14375
▁Kedemah	-14376
▁Kolaiah	-14377
▁Lehabim	-14378
▁Lybians	-14379
▁Maaziah	-14380
▁Magdiel	-14381
▁Malcham	-14382
▁Matthan	-14383
▁Matthat	-14384
▁Mauzzim	-14385
▁Messiah	-14386
▁Messias	-14387
▁Mezahab	-14388
▁Michahs	-14389
▁Mikneah	-14390
▁Minnith	-14391
▁Mithkah	-14392
▁Moabite	-14393
▁Niniueh	-14394
▁Nisroch	-14395
▁Noadiah	-14396
▁Onesiph	-14397
▁Philips	-14398
▁Pisidia	-14399
zeh	-14400
bole	-14401
▁Pas	-14402
▁eie	-14403
▁rye	-14404
aphus	-14405
hazor	-14406
rimon	-14407
▁Male	-14408
▁Palt	-14409
▁Salt	-14410
▁Zaph	-14411
▁apes	-14412
▁boud	-14413
▁hare	-14414
▁hore	-14415
▁sift	-14416
▁trye	-14417
boleth	-14418
itious	-14419
itours	-14420
▁Aspes	-14421
▁Baals	-14422
▁Ichab	-14423
▁Naham	-14424
▁busie	-14425
▁cloue	-14426
▁coole	-14427
▁gosha	-14428
▁hopes	-14429
▁lampe	-14430
▁necks	-14431
▁penne	-14432
▁stopt	-14433
▁suppe	-14434
▁washe	-14435
▁weaue	-14436
rainest	-14437
▁Folowe	-14438
▁Hothir	-14439
▁Mourne	-14440
▁Paphus	-14441
▁Shaaph	-14442
▁Zereth	-14443
▁Zibiah	-14444
▁couted	-14445
▁danced	-14446
▁eschew	-14447
▁kisses	-14448
▁lowing	-14449
▁prompt	-14450
▁risest	-14451
▁shamed	-14452
▁single	-14453
▁stoole	-14454
▁venime	-14455
eruation	-14456
▁Azaliah	-14457
▁Beiamin	-14458
▁Iehieli	-14459
▁Michmas	-14460
▁Publish	-14461
▁Publius	-14462
▁Rabbath	-14463
▁Rithmah	-14464
▁Sabeans	-14465
▁Salchah	-14466
▁Seueneh	-14467
▁Shamgar	-14468
▁Shapher	-14469
▁Shashak	-14470
▁Sheleph	-14471
▁Shether	-14472
▁Shiloni	-14473
▁Shimeon	-14474
▁Shirion	-14475
▁Shobach	-14476
▁Shochoh	-14477
▁Sisamai	-14478
▁Sparrow	-14479
▁Spirits	-14480
▁Taberah	-14481
▁Tabitha	-14482
▁Thirtie	-14483
▁Thornes	-14484
▁Tiphsah	-14485
▁Treason	-14486
▁Tremble	-14487
▁Worship	-14488
▁Zabdiel	-14489
▁Zacchai	-14490
▁Zeboiim	-14491
▁Zephath	-14492
▁Zeraiah	-14493
▁Zidkiah	-14494
▁abaseth	-14495
▁ability	-14496
▁accompt	-14497
▁adamant	-14498
▁aliants	-14499
mad	-14500
yrs	-14501
aged	-14502
tels	-14503
▁Tra	-14504
▁deb	-14505
barah	-14506
imeus	-14507
named	-14508
▁Azem	-14509
▁Azur	-14510
▁Fret	-14511
▁Gaza	-14512
▁Iion	-14513
▁Meah	-14514
▁Mush	-14515
▁flay	-14516
▁lime	-14517
▁rock	-14518
▁stop	-14519
▁vari	-14520
eruing	-14521
hoenai	-14522
humeth	-14523
mering	-14524
▁Ahiam	-14525
▁Chuse	-14526
▁Lasha	-14527
▁Symon	-14528
▁gaped	-14529
▁holpe	-14530
▁kicke	-14531
▁lothe	-14532
▁moyst	-14533
▁porte	-14534
▁prise	-14535
▁sieth	-14536
▁tamed	-14537
▁viper	-14538
habeath	-14539
▁Ahisha	-14540
▁Eleuen	-14541
▁Hammon	-14542
▁Harhur	-14543
▁Roboam	-14544
▁archer	-14545
▁burial	-14546
▁hating	-14547
▁osprey	-14548
▁stripe	-14549
asonable	-14550
▁Abimael	-14551
▁Beautie	-14552
▁Shepham	-14553
▁amongst	-14554
▁apothec	-14555
▁appeale	-14556
▁approue	-14557
▁ashpans	-14558
▁assaile	-14559
▁atteine	-14560
▁attende	-14561
▁auailed	-14562
▁auoided	-14563
▁authour	-14564
▁backbit	-14565
▁banners	-14566
▁beardes	-14567
▁bearers	-14568
▁beateth	-14569
▁begotte	-14570
▁beguile	-14571
▁behoued	-14572
▁binding	-14573
▁boasted	-14574
▁bonnets	-14575
▁borower	-14576
▁braunch	-14577
▁breathe	-14578
▁bridles	-14579
▁briefly	-14580
▁broyded	-14581
▁builder	-14582
▁buriers	-14583
▁bushell	-14584
▁butlers	-14585
▁calkers	-14586
▁camping	-14587
▁cariage	-14588
▁carieth	-14589
▁carpets	-14590
▁castell	-14591
▁castest	-14592
▁causing	-14593
▁chabers	-14594
▁chanels	-14595
▁changes	-14596
▁charmed	-14597
▁chaseth	-14598
▁chaunge	-14599
mag	-14600
nle	-14601
cens	-14602
▁Dal	-14603
▁Thr	-14604
▁Zen	-14605
▁Iada	-14606
▁Ohel	-14607
▁Shib	-14608
▁Ziim	-14609
▁deny	-14610
▁rang	-14611
▁sens	-14612
aining	-14613
heloth	-14614
shahar	-14615
▁Achaz	-14616
▁Eduth	-14617
▁Gibea	-14618
▁Haram	-14619
▁Harum	-14620
▁Sarid	-14621
▁calue	-14622
▁huske	-14623
▁ranke	-14624
▁stung	-14625
▁worne	-14626
orthily	-14627
▁Harsha	-14628
▁Ioynes	-14629
▁Iuttah	-14630
▁Migron	-14631
▁Sallai	-14632
▁Shemer	-14633
▁abrode	-14634
▁beanes	-14635
▁blamed	-14636
▁cosent	-14637
▁deride	-14638
▁heaued	-14639
▁ouersp	-14640
▁quaked	-14641
▁topaze	-14642
▁vpside	-14643
▁Euening	-14644
▁Ezekiel	-14645
▁Gibeath	-14646
▁Highest	-14647
▁brickes	-14648
▁chaynes	-14649
▁cherish	-14650
▁cinamon	-14651
▁citizen	-14652
▁cleftes	-14653
[...]
